{
  "version": "1.0",
  "truncation": null,
  "padding": null,
  "added_tokens": [
    {
      "id": 0,
      "content": "<unk>",
      "single_word": false,
      "lstrip": false,
      "rstrip": false,
      "normalized": false,
      "special": true
    },
    {
      "id": 1,
      "content": "<pad>",
      "single_word": false,
      "lstrip": false,
      "rstrip": false,
      "normalized": false,
      "special": true
    },
    {
      "id": 2,
      "content": "[CLS]",
      "single_word": false,
      "lstrip": false,
      "rstrip": false,
      "normalized": false,
      "special": true
    },
    {
      "id": 3,
      "content": "[SEP]",
      "single_word": false,
      "lstrip": false,
      "rstrip": false,
      "normalized": false,
      "special": true
    },
    {
      "id": 4,
      "content": "[MASK]",
      "single_word": false,
      "lstrip": false,
      "rstrip": false,
      "normalized": false,
      "special": true
    },
    {
      "id": 5,
      "content": "\n",
      "single_word": false,
      "lstrip": false,
      "rstrip": false,
      "normalized": false,
      "special": true
    },
    {
      "id": 6,
      "content": "\t",
      "single_word": false,
      "lstrip": false,
      "rstrip": false,
      "normalized": false,
      "special": true
    },
    {
      "id": 7,
      "content": " ",
      "single_word": false,
      "lstrip": false,
      "rstrip": false,
      "normalized": false,
      "special": true
    }
  ],
  "normalizer": null,
  "pre_tokenizer": {
    "type": "Whitespace"
  },
  "post_processor": null,
  "decoder": null,
  "model": {
    "type": "WordPiece",
    "unk_token": "<unk>",
    "continuing_subword_prefix": "##",
    "max_input_chars_per_word": 100,
    "vocab": {
      "<unk>": 0,
      "<pad>": 1,
      "[CLS]": 2,
      "[SEP]": 3,
      "[MASK]": 4,
      "\n": 5,
      "\t": 6,
      " ": 7,
      "!": 8,
      "\"": 9,
      "#": 10,
      "&": 11,
      "'": 12,
      "(": 13,
      ")": 14,
      "*": 15,
      ",": 16,
      "-": 17,
      ".": 18,
      "/": 19,
      "0": 20,
      "1": 21,
      "2": 22,
      "3": 23,
      "4": 24,
      "5": 25,
      "6": 26,
      "7": 27,
      "8": 28,
      "9": 29,
      ":": 30,
      ";": 31,
      "<": 32,
      "=": 33,
      ">": 34,
      "?": 35,
      "A": 36,
      "B": 37,
      "C": 38,
      "D": 39,
      "E": 40,
      "F": 41,
      "G": 42,
      "H": 43,
      "I": 44,
      "J": 45,
      "K": 46,
      "L": 47,
      "M": 48,
      "N": 49,
      "O": 50,
      "P": 51,
      "Q": 52,
      "R": 53,
      "S": 54,
      "T": 55,
      "U": 56,
      "V": 57,
      "W": 58,
      "X": 59,
      "Y": 60,
      "Z": 61,
      "[": 62,
      "]": 63,
      "_": 64,
      "a": 65,
      "b": 66,
      "c": 67,
      "d": 68,
      "e": 69,
      "f": 70,
      "g": 71,
      "h": 72,
      "i": 73,
      "j": 74,
      "k": 75,
      "l": 76,
      "m": 77,
      "n": 78,
      "o": 79,
      "p": 80,
      "q": 81,
      "r": 82,
      "s": 83,
      "t": 84,
      "u": 85,
      "v": 86,
      "w": 87,
      "x": 88,
      "y": 89,
      "z": 90,
      "{": 91,
      "|": 92,
      "}": 93,
      "~": 94,
      "é": 95,
      "ó": 96,
      "##t": 97,
      "##a": 98,
      "##c": 99,
      "##h": 100,
      "##e": 101,
      "##d": 102,
      "##n": 103,
      "##r": 104,
      "##k": 105,
      "##i": 106,
      "##s": 107,
      "##m": 108,
      "##u": 109,
      "##l": 110,
      "##y": 111,
      "##_": 112,
      "##P": 113,
      "##g": 114,
      "##G": 115,
      "##o": 116,
      "##v": 117,
      "##p": 118,
      "##C": 119,
      "##D": 120,
      "##1": 121,
      "##0": 122,
      "##j": 123,
      "##x": 124,
      "##b": 125,
      "##-": 126,
      "##<": 127,
      "##f": 128,
      "##w": 129,
      "##q": 130,
      "##[": 131,
      "##]": 132,
      "##)": 133,
      "##.": 134,
      "##&": 135,
      "##8": 136,
      "##7": 137,
      "##=": 138,
      "##9": 139,
      "##3": 140,
      "##T": 141,
      "##,": 142,
      "##Y": 143,
      "##z": 144,
      "##E": 145,
      "##S": 146,
      "##N": 147,
      "##R": 148,
      "##'": 149,
      "##6": 150,
      "##{": 151,
      "##4": 152,
      "##2": 153,
      "##5": 154,
      "##é": 155,
      "##I": 156,
      "##Z": 157,
      "##W": 158,
      "##\"": 159,
      "##/": 160,
      "##U": 161,
      "##A": 162,
      "##H": 163,
      "##*": 164,
      "##>": 165,
      "##K": 166,
      "##|": 167,
      "##:": 168,
      "##;": 169,
      "##V": 170,
      "##M": 171,
      "##L": 172,
      "##O": 173,
      "##~": 174,
      "##Q": 175,
      "##ó": 176,
      "###": 177,
      "##}": 178,
      "##J": 179,
      "##!": 180,
      "##is": 181,
      "##er": 182,
      "th": 183,
      "##on": 184,
      "##ar": 185,
      "##ti": 186,
      "an": 187,
      "the": 188,
      "##en": 189,
      "##in": 190,
      "un": 191,
      "##es": 192,
      "##or": 193,
      "[[": 194,
      "]]": 195,
      "##ch": 196,
      "##al": 197,
      "unk": 198,
      "##an": 199,
      "of": 200,
      "##ed": 201,
      "in": 202,
      "##at": 203,
      "##it": 204,
      "##ism": 205,
      "##arch": 206,
      "##ist": 207,
      "##om": 208,
      "##tion": 209,
      "and": 210,
      "##ut": 211,
      "to": 212,
      "##le": 213,
      "##ent": 214,
      "##ot": 215,
      "##ing": 216,
      "##ic": 217,
      "anarch": 218,
      "re": 219,
      "##ou": 220,
      "##ve": 221,
      "##as": 222,
      "##re": 223,
      "##ol": 224,
      "##st": 225,
      "##op": 226,
      "</": 227,
      "##ac": 228,
      "##am": 229,
      "##il": 230,
      "aut": 231,
      "##ation": 232,
      "##el": 233,
      "as": 234,
      "##tic": 235,
      "##ag": 236,
      "An": 237,
      "##ri": 238,
      "##oc": 239,
      "##ly": 240,
      "or": 241,
      "##ment": 242,
      "is": 243,
      "qu": 244,
      "##th": 245,
      "quot": 246,
      "be": 247,
      "##os": 248,
      "##ers": 249,
      "con": 250,
      "com": 251,
      "id": 252,
      "##ith": 253,
      "##ists": 254,
      "##ter": 255,
      "##un": 256,
      "##gh": 257,
      "with": 258,
      "><": 259,
      "Th": 260,
      "pr": 261,
      "that": 262,
      "##ur": 263,
      "''": 264,
      "##ce": 265,
      "##id": 266,
      "Anarch": 267,
      "##ay": 268,
      "wh": 269,
      "##ul": 270,
      "for": 271,
      "##em": 272,
      "##ir": 273,
      "##ion": 274,
      "]],": 275,
      "##age": 276,
      "##ate": 277,
      "##oci": 278,
      "ht": 279,
      "##est": 280,
      "ref": 281,
      "##iv": 282,
      "##ow": 283,
      "st": 284,
      "##im": 285,
      "##et": 286,
      "anarchism": 287,
      "##ec": 288,
      "##if": 289,
      "##us": 290,
      "ex": 291,
      "on": 292,
      "##ain": 293,
      "The": 294,
      "al": 295,
      "##ual": 296,
      "mo": 297,
      "autism": 298,
      "##istic": 299,
      "##ess": 300,
      "##ome": 301,
      "su": 302,
      "us": 303,
      "##ts": 304,
      "In": 305,
      "lt": 306,
      "gt": 307,
      "##ity": 308,
      "##rou": 309,
      "##ver": 310,
      "==": 311,
      "de": 312,
      "##pp": 313,
      "##''": 314,
      "not": 315,
      "##ab": 316,
      "soci": 317,
      "##ian": 318,
      "]].": 319,
      "##ical": 320,
      "are": 321,
      "##mp": 322,
      "##ng": 323,
      "##mun": 324,
      "anarchist": 325,
      "ch": 326,
      "##ert": 327,
      "##ap": 328,
      "##ace": 329,
      "19": 330,
      "sp": 331,
      "##tp": 332,
      "##ad": 333,
      "##igh": 334,
      ":/": 335,
      "anarchists": 336,
      "http": 337,
      "://": 338,
      "##ee": 339,
      "cont": 340,
      "##ak": 341,
      "##od": 342,
      "##[[": 343,
      "le": 344,
      "sy": 345,
      "by": 346,
      "ac": 347,
      "fr": 348,
      "te": 349,
      "##ud": 350,
      "##um": 351,
      "autistic": 352,
      "##nd": 353,
      "##amp": 354,
      "##ave": 355,
      "##ary": 356,
      "##ere": 357,
      "ind": 358,
      "at": 359,
      "man": 360,
      "pe": 361,
      "##ib": 362,
      "##og": 363,
      "##vement": 364,
      "##rib": 365,
      "##ten": 366,
      "##esp": 367,
      "rev": 368,
      "##der": 369,
      "##ople": 370,
      "##ame": 371,
      "commun": 372,
      "##uc": 373,
      "##ting": 374,
      "##ory": 375,
      "wor": 376,
      "##ik": 377,
      "ar": 378,
      "have": 379,
      "tim": 380,
      "##gu": 381,
      "they": 382,
      "from": 383,
      "people": 384,
      "##ml": 385,
      "##ild": 386,
      "movement": 387,
      "##ld": 388,
      "##ost": 389,
      "##00": 390,
      "##xt": 391,
      "##ous": 392,
      "Anarchism": 393,
      "was": 394,
      "##ie": 395,
      "##ence": 396,
      "##ated": 397,
      "##ther": 398,
      "=\"": 399,
      "ab": 400,
      "page": 401,
      "##ig": 402,
      "##iz": 403,
      "org": 404,
      "##ivid": 405,
      "social": 406,
      "cl": 407,
      "##ision": 408,
      "##ore": 409,
      "##ww": 410,
      "##arian": 411,
      "##tive": 412,
      "inc": 413,
      "##ribut": 414,
      "en": 415,
      "it": 416,
      "nam": 417,
      "www": 418,
      "##ividual": 419,
      "namesp": 420,
      "##ted": 421,
      "##ia": 422,
      "##vel": 423,
      "exp": 424,
      "such": 425,
      "\">": 426,
      "dis": 427,
      "some": 428,
      "##ution": 429,
      "whi": 430,
      "contribut": 431,
      "text": 432,
      "namespace": 433,
      "tit": 434,
      "}}": 435,
      "##and": 436,
      "inter": 437,
      "##emin": 438,
      "##estamp": 439,
      "revision": 440,
      "timestamp": 441,
      "contributor": 442,
      "title": 443,
      "ag": 444,
      "##av": 445,
      "##ction": 446,
      "##so": 447,
      "##fer": 448,
      "their": 449,
      "individual": 450,
      "18": 451,
      "Ch": 452,
      "dif": 453,
      "par": 454,
      "{{": 455,
      "##hor": 456,
      "##ren": 457,
      "##]]": 458,
      "##ose": 459,
      "child": 460,
      "ad": 461,
      "amp": 462,
      "##se": 463,
      "##ish": 464,
      "##ard": 465,
      "##our": 466,
      "##ough": 467,
      "##olog": 468,
      "##ill": 469,
      "comment": 470,
      "ne": 471,
      "##ern": 472,
      "this": 473,
      "##agn": 474,
      "##tern": 475,
      "many": 476,
      "can": 477,
      "di": 478,
      "see": 479,
      "##ue": 480,
      "##ust": 481,
      "##alism": 482,
      "##ans": 483,
      "##oth": 484,
      "##ass": 485,
      "##ight": 486,
      "St": 487,
      "##ress": 488,
      "##ive": 489,
      "##ations": 490,
      "also": 491,
      "work": 492,
      "##iti": 493,
      "##ies": 494,
      "##angu": 495,
      "often": 496,
      "author": 497,
      "synd": 498,
      "which": 499,
      "As": 500,
      "Sp": 501,
      "femin": 502,
      "has": 503,
      "ph": 504,
      "##hon": 505,
      "##ition": 506,
      "##89": 507,
      "##ould": 508,
      "##act": 509,
      "one": 510,
      "usern": 511,
      "##erty": 512,
      "##umb": 513,
      "##agnos": 514,
      "username": 515,
      "Aut": 516,
      "bel": 517,
      "langu": 518,
      "other": 519,
      "tr": 520,
      "##ey": 521,
      "##orm": 522,
      "inf": 523,
      "##olution": 524,
      "pres": 525,
      "##ety": 526,
      "##velop": 527,
      "200": 528,
      "may": 529,
      "##ev": 530,
      "##ip": 531,
      "##lud": 532,
      "##out": 533,
      "##ft": 534,
      "##erm": 535,
      "##arly": 536,
      "##ase": 537,
      "language": 538,
      "cap": 539,
      "more": 540,
      "##ob": 541,
      "##enc": 542,
      "##end": 543,
      "form": 544,
      "##roup": 545,
      "develop": 546,
      ".&": 547,
      "15": 548,
      "app": 549,
      "gen": 550,
      "##ail": 551,
      "##ever": 552,
      "##ub": 553,
      "anarcho": 554,
      "rel": 555,
      "##ational": 556,
      "ide": 557,
      "prop": 558,
      "##irst": 559,
      "includ": 560,
      "capit": 561,
      "group": 562,
      "he": 563,
      "lab": 564,
      "sh": 565,
      "xml": 566,
      "##te": 567,
      "##ct": 568,
      "##dhon": 569,
      "##ure": 570,
      "##ger": 571,
      "##onom": 572,
      "##all": 573,
      "rep": 574,
      "who": 575,
      "state": 576,
      "all": 577,
      ";/": 578,
      "his": 579,
      "key": 580,
      "me": 581,
      "min": 582,
      "so": 583,
      "##iol": 584,
      "##lic": 585,
      "##yp": 586,
      "them": 587,
      "##ort": 588,
      "##istan": 589,
      "##ack": 590,
      "str": 591,
      "Af": 592,
      "Prou": 593,
      "Some": 594,
      "its": 595,
      "imp": 596,
      "res": 597,
      "##ach": 598,
      "##per": 599,
      "##ong": 600,
      "##ell": 601,
      "cons": 602,
      "##ult": 603,
      "##ect": 604,
      "differ": 605,
      "##ology": 606,
      "diagnos": 607,
      "belie": 608,
      "Proudhon": 609,
      "do": 610,
      "ev": 611,
      "go": 612,
      "opp": 613,
      "term": 614,
      "##ks": 615,
      "##vers": 616,
      "##eral": 617,
      "##itarian": 618,
      "##ents": 619,
      "##asc": 620,
      "##ree": 621,
      "##elf": 622,
      "comp": 623,
      "'''": 624,
      "html": 625,
      "use": 626,
      "===": 627,
      "class": 628,
      ">]]": 629,
      "##ear": 630,
      "##ro": 631,
      "##ial": 632,
      "##les": 633,
      "##ph": 634,
      "##fic": 635,
      "##ED": 636,
      "##arx": 637,
      "##tiv": 638,
      "##ant": 639,
      "##ainst": 640,
      "left": 641,
      "preser": 642,
      "ec": 643,
      "first": 644,
      "fasc": 645,
      "high": 646,
      "##ris": 647,
      "##rop": 648,
      "##ior": 649,
      "##mage": 650,
      "##lish": 651,
      "##ys": 652,
      "####": 653,
      "##edia": 654,
      "ass": 655,
      "most": 656,
      "society": 657,
      "##ign": 658,
      "disor": 659,
      "syndical": 660,
      ";[": 661,
      "Al": 662,
      "Com": 663,
      "Image": 664,
      "RED": 665,
      "Wh": 666,
      "non": 667,
      "pri": 668,
      "pers": 669,
      "right": 670,
      "se": 671,
      "##hav": 672,
      "##of": 673,
      "##CT": 674,
      "##ECT": 675,
      "##RECT": 676,
      "##IRECT": 677,
      "##ited": 678,
      "##ings": 679,
      "##ols": 680,
      "##tical": 681,
      "##unin": 682,
      "##cep": 683,
      "##ular": 684,
      "refer": 685,
      "space": 686,
      "##akunin": 687,
      "movements": 688,
      "Asper": 689,
      "preserve": 690,
      "REDIRECT": 691,
      "##havior": 692,
      "Asperger": 693,
      "Bakunin": 694,
      "Man": 695,
      "Wor": 696,
      "lib": 697,
      "pre": 698,
      "pub": 699,
      "viol": 700,
      "##ge": 701,
      "##ved": 702,
      "##qu": 703,
      "##ark": 704,
      "##tim": 705,
      "##anistan": 706,
      "##ics": 707,
      "##oll": 708,
      "##oph": 709,
      "##thers": 710,
      "behavior": 711,
      "##unction": 712,
      "##ghanistan": 713,
      "Anarcho": 714,
      "Anarchist": 715,
      "what": 716,
      "##'''": 717,
      "authoritarian": 718,
      "ideas": 719,
      "Afghanistan": 720,
      "/>": 721,
      "CN": 722,
      "Con": 723,
      "but": 724,
      "cri": 725,
      "main": 726,
      "pl": 727,
      "sch": 728,
      "up": 729,
      "##ative": 730,
      "##her": 731,
      "##ner": 732,
      "##ious": 733,
      "##oo": 734,
      "##0s": 735,
      "##</": 736,
      "than": 737,
      "anti": 738,
      "]]''": 739,
      "ins": 740,
      "##oli": 741,
      "##ilos": 742,
      "been": 743,
      "This": 744,
      "##ays": 745,
      "##ific": 746,
      "##uss": 747,
      "acc": 748,
      "\">#": 749,
      "against": 750,
      "children": 751,
      "property": 752,
      "capitalism": 753,
      "groups": 754,
      "minor": 755,
      "##ilosoph": 756,
      "Am": 757,
      "Lib": 758,
      "War": 759,
      "ed": 760,
      "early": 761,
      "fact": 762,
      "foll": 763,
      "out": 764,
      "sit": 765,
      "##aus": 766,
      "##cc": 767,
      "##eti": 768,
      "##now": 769,
      "##ker": 770,
      "##man": 771,
      "##oin": 772,
      "##px": 773,
      "thumb": 774,
      "under": 775,
      "##ance": 776,
      "##ast": 777,
      "##old": 778,
      "##ely": 779,
      "''[[": 780,
      "##owever": 781,
      "examp": 782,
      "used": 783,
      "artic": 784,
      "development": 785,
      "general": 786,
      "econom": 787,
      "CNT": 788,
      "follow": 789,
      "It": 790,
      "Le": 791,
      "]&": 792,
      "no": 793,
      "over": 794,
      "tend": 795,
      "were": 796,
      "would": 797,
      "##ier": 798,
      "##eric": 799,
      "there": 800,
      "##tin": 801,
      "these": 802,
      "##ens": 803,
      "##action": 804,
      "bec": 805,
      "##urr": 806,
      "##ide": 807,
      "htm": 808,
      "##able": 809,
      "communic": 810,
      "##uct": 811,
      "##ucker": 812,
      "##ization": 813,
      "individuals": 814,
      "Stat": 815,
      "philosoph": 816,
      "Autism": 817,
      "different": 818,
      "Commun": 819,
      "person": 820,
      "*[[": 821,
      ":<": 822,
      "He": 823,
      "Soci": 824,
      "des": 825,
      "know": 826,
      "nat": 827,
      "numb": 828,
      "others": 829,
      "post": 830,
      "self": 831,
      "tw": 832,
      "tak": 833,
      "will": 834,
      "##aw": 835,
      "##ile": 836,
      "those": 837,
      "though": 838,
      "##tit": 839,
      "int": 840,
      "rec": 841,
      "##ility": 842,
      "##though": 843,
      "within": 844,
      "prof": 845,
      "##ural": 846,
      "Anarchists": 847,
      "##emp": 848,
      "##ivil": 849,
      "att": 850,
      "organ": 851,
      "Chris": 852,
      "adv": 853,
      "##8989": 854,
      "2002": 855,
      "158989": 856,
      "oppos": 857,
      "disorder": 858,
      ";[[": 859,
      "Eng": 860,
      "Fr": 861,
      "However": 862,
      "Marx": 863,
      "Ne": 864,
      "Russ": 865,
      "Un": 866,
      "call": 867,
      "del": 868,
      "jp": 869,
      "lin": 870,
      "lack": 871,
      "pop": 872,
      "##oy": 873,
      "##T1": 874,
      "##til": 875,
      "##tian": 876,
      "##ors": 877,
      "##edi": 878,
      "##utual": 879,
      "reg": 880,
      "##stem": 881,
      "##ures": 882,
      "##ider": 883,
      "stud": 884,
      "supp": 885,
      "Intern": 886,
      "revolution": 887,
      "##ike": 888,
      "argu": 889,
      "##iew": 890,
      "about": 891,
      "interest": 892,
      "diffic": 893,
      "part": 894,
      "partic": 895,
      "##ustri": 896,
      "##ities": 897,
      "feminist": 898,
      "consider": 899,
      "Christian": 900,
      "*'''": 901,
      ";&": 902,
      ">.": 903,
      "Dis": 904,
      "Pe": 905,
      "Rev": 906,
      "See": 907,
      "Tr": 908,
      "am": 909,
      "cr": 910,
      "co": 911,
      "function": 912,
      "mak": 913,
      "poli": 914,
      "sc": 915,
      "view": 916,
      "we": 917,
      "year": 918,
      "|[[": 919,
      "##rome": 920,
      "##vir": 921,
      "##0px": 922,
      "##ised": 923,
      "##onment": 924,
      "]])": 925,
      "]]'": 926,
      "]]</": 927,
      "##istory": 928,
      "##ict": 929,
      "anarchy": 930,
      "##ound": 931,
      "##ope": 932,
      "##els": 933,
      "##tics": 934,
      "There": 935,
      "##ateg": 936,
      "##ifest": 937,
      "sub": 938,
      "##rough": 939,
      "def": 940,
      "##ertarian": 941,
      "system": 942,
      "teach": 943,
      "envir": 944,
      "age": 945,
      "##oseph": 946,
      "##ression": 947,
      "feminism": 948,
      "even": 949,
      "associ": 950,
      "violence": 951,
      "scho": 952,
      "Americ": 953,
      "##ause": 954,
      "example": 955,
      "number": 956,
      "advoc": 957,
      "called": 958,
      "jpg": 959,
      "popular": 960,
      "International": 961,
      "Revolution": 962,
      "functioning": 963,
      "environment": 964,
      "),": 965,
      "Bols": 966,
      "Eur": 967,
      "For": 968,
      "Post": 969,
      "af": 970,
      "both": 971,
      "cert": 972,
      "ever": 973,
      "hel": 974,
      "list": 975,
      "like": 976,
      "ob": 977,
      "sim": 978,
      "war": 979,
      "##ax": 980,
      "##aim": 981,
      "##ating": 982,
      "##crib": 983,
      "##hev": 984,
      "##ding": 985,
      "##ders": 986,
      "##ry": 987,
      "##red": 988,
      "##ric": 989,
      "##mon": 990,
      "##li": 991,
      "##go": 992,
      "##jec": 993,
      "##bard": 994,
      "##ise": 995,
      "##ari": 996,
      "##enti": 997,
      "##ince": 998,
      "##ese": 999,
      "##orted": 1000,
      "[[<": 1001,
      "##alk": 1002,
      "##ally": 1003,
      "##anish": 1004,
      "##ite": 1005,
      "##oms": 1006,
      "##tions": 1007,
      "##lec": 1008,
      "##oun": 1009,
      "##rect": 1010,
      "conf": 1011,
      "##ury": 1012,
      "when": 1013,
      "191": 1014,
      "192": 1015,
      "##ody": 1016,
      "least": 1017,
      "activ": 1018,
      "manifest": 1019,
      "##ible": 1020,
      "word": 1021,
      "##iki": 1022,
      "##othbard": 1023,
      "syndrome": 1024,
      "Spain": 1025,
      "Spanish": 1026,
      "##ormal": 1027,
      "##ences": 1028,
      "include": 1029,
      "##ypical": 1030,
      "believe": 1031,
      "syndicalism": 1032,
      "years": 1033,
      "Bolshev": 1034,
      "Europe": 1035,
      "certain": 1036,
      ").": 1037,
      ">/": 1038,
      "Joseph": 1039,
      "Re": 1040,
      "Tucker": 1041,
      "boo": 1042,
      "cent": 1043,
      "col": 1044,
      "fe": 1045,
      "fam": 1046,
      "if": 1047,
      "lit": 1048,
      "md": 1049,
      "pat": 1050,
      "pos": 1051,
      "sign": 1052,
      "##aj": 1053,
      "##hop": 1054,
      "##uch": 1055,
      "##gr": 1056,
      "##gin": 1057,
      "##ood": 1058,
      "##ves": 1059,
      "##jam": 1060,
      "##eri": 1061,
      "through": 1062,
      "##inc": 1063,
      "##ash": 1064,
      "##ased": 1065,
      "##acif": 1066,
      "##ily": 1067,
      "bet": 1068,
      "without": 1069,
      "Ind": 1070,
      "##vern": 1071,
      "##ade": 1072,
      "incre": 1073,
      "need": 1074,
      "##other": 1075,
      "##itions": 1076,
      "including": 1077,
      "should": 1078,
      "means": 1079,
      "govern": 1080,
      "Many": 1081,
      "Work": 1082,
      "underst": 1083,
      "##oldman": 1084,
      "##ensory": 1085,
      "communication": 1086,
      "philosophy": 1087,
      "describ": 1088,
      "two": 1089,
      "##ustrial": 1090,
      "American": 1091,
      "mdash": 1092,
      "11": 1093,
      "17": 1094,
      "Ben": 1095,
      "De": 1096,
      "Ec": 1097,
      "Goldman": 1098,
      "Most": 1099,
      "On": 1100,
      "Prop": 1101,
      "Rothbard": 1102,
      "car": 1103,
      "cult": 1104,
      "dec": 1105,
      "fac": 1106,
      "free": 1107,
      "found": 1108,
      "mon": 1109,
      "net": 1110,
      "poin": 1111,
      "resp": 1112,
      "talk": 1113,
      "##air": 1114,
      "##ex": 1115,
      "##day": 1116,
      "##rum": 1117,
      "##mb": 1118,
      "##gg": 1119,
      "##ov": 1120,
      "##pre": 1121,
      "##bers": 1122,
      "##fore": 1123,
      "##form": 1124,
      "##wn": 1125,
      "##ward": 1126,
      "##que": 1127,
      "##erv": 1128,
      "##ont": 1129,
      "##arac": 1130,
      "theory": 1131,
      "##ine": 1132,
      "##ination": 1133,
      "##chn": 1134,
      "##reen": 1135,
      "Anar": 1136,
      "being": 1137,
      "convers": 1138,
      "concep": 1139,
      "princ": 1140,
      "''&": 1141,
      "##embers": 1142,
      "##ives": 1143,
      "193": 1144,
      "spec": 1145,
      "level": 1146,
      "communism": 1147,
      "claim": 1148,
      "expl": 1149,
      "interaction": 1150,
      "individualist": 1151,
      "150px": 1152,
      "relig": 1153,
      "capital": 1154,
      "##tegr": 1155,
      "mean": 1156,
      "struct": 1157,
      "##ectrum": 1158,
      "diagnosis": 1159,
      "comple": 1160,
      "fascism": 1161,
      "##lished": 1162,
      "public": 1163,
      "instit": 1164,
      "situ": 1165,
      "Leo": 1166,
      "nature": 1167,
      "thought": 1168,
      "1589895": 1169,
      "difficult": 1170,
      "every": 1171,
      "Bolshevik": 1172,
      "century": 1173,
      "##jamin": 1174,
      "government": 1175,
      "understand": 1176,
      "Benjamin": 1177,
      "##aracter": 1178,
      "princip": 1179,
      "25": 1180,
      "94": 1181,
      ";.": 1182,
      ";,": 1183,
      "Ar": 1184,
      "Civil": 1185,
      "DS": 1186,
      "History": 1187,
      "Par": 1188,
      "Pier": 1189,
      "US": 1190,
      "body": 1191,
      "based": 1192,
      "dur": 1193,
      "div": 1194,
      "eth": 1195,
      "fi": 1196,
      "foc": 1197,
      "had": 1198,
      "im": 1199,
      "ip": 1200,
      "lar": 1201,
      "must": 1202,
      "might": 1203,
      "mark": 1204,
      "members": 1205,
      "occ": 1206,
      "own": 1207,
      "pacif": 1208,
      "sk": 1209,
      "set": 1210,
      "sec": 1211,
      "typical": 1212,
      "wr": 1213,
      "##tle": 1214,
      "##top": 1215,
      "##hn": 1216,
      "##eak": 1217,
      "##lu": 1218,
      "##lack": 1219,
      "##oting": 1220,
      "##par": 1221,
      "##ble": 1222,
      "##{{": 1223,
      "##eration": 1224,
      "##arn": 1225,
      "##ties": 1226,
      "any": 1227,
      "theor": 1228,
      "##ale": 1229,
      "##alth": 1230,
      "##ather": 1231,
      "##archy": 1232,
      "##lect": 1233,
      "##ental": 1234,
      "##reat": 1235,
      "##rection": 1236,
      "##olst": 1237,
      "And": 1238,
      "Anark": 1239,
      "##oshop": 1240,
      "cond": 1241,
      "Anarchy": 1242,
      "where": 1243,
      "only": 1244,
      "note": 1245,
      "character": 1246,
      "##aph": 1247,
      "spectrum": 1248,
      "speak": 1249,
      "##ights": 1250,
      "contr": 1251,
      "contro": 1252,
      "##oduc": 1253,
      "community": 1254,
      "arm": 1255,
      "time": 1256,
      "##ized": 1257,
      "while": 1258,
      "187": 1259,
      "Child": 1260,
      "authority": 1261,
      "phys": 1262,
      "influ": 1263,
      "labor": 1264,
      "seem": 1265,
      "##times": 1266,
      "play": 1267,
      "edu": 1268,
      "article": 1269,
      "articles": 1270,
      "economic": 1271,
      "known": 1272,
      "profess": 1273,
      "United": 1274,
      "revolutionary": 1275,
      "considered": 1276,
      "Disor": 1277,
      "Peter": 1278,
      "political": 1279,
      "##ategory": 1280,
      "help": 1281,
      "simil": 1282,
      "collec": 1283,
      "##ajor": 1284,
      "##pret": 1285,
      "institution": 1286,
      "DSM": 1287,
      "Pierre": 1288,
      "during": 1289,
      "focus": 1290,
      "##olstoy": 1291,
      "controvers": 1292,
      "--": 1293,
      "/<": 1294,
      "03": 1295,
      "10": 1296,
      "20": 1297,
      ":''": 1298,
      "By": 1299,
      "Category": 1300,
      "Di": 1301,
      "Em": 1302,
      "Jo": 1303,
      "Mik": 1304,
      "Murr": 1305,
      "Mutual": 1306,
      "Other": 1307,
      "Since": 1308,
      "Tolstoy": 1309,
      "cre": 1310,
      "curr": 1311,
      "det": 1312,
      "es": 1313,
      "how": 1314,
      "lif": 1315,
      "marx": 1316,
      "major": 1317,
      "##ty": 1318,
      "##az": 1319,
      "##cl": 1320,
      "##han": 1321,
      "##hail": 1322,
      "##eb": 1323,
      "##earch": 1324,
      "##eign": 1325,
      "##dom": 1326,
      "##nc": 1327,
      "##ra": 1328,
      "##rner": 1329,
      "##raph": 1330,
      "##kin": 1331,
      "##king": 1332,
      "##ma": 1333,
      "##ming": 1334,
      "##mall": 1335,
      "##ful": 1336,
      "##one": 1337,
      "##arth": 1338,
      "##tirner": 1339,
      "another": 1340,
      "union": 1341,
      "unus": 1342,
      "]]&": 1343,
      "##anner": 1344,
      "##ater": 1345,
      "##ismo": 1346,
      "##ute": 1347,
      "##lem": 1348,
      "##lection": 1349,
      "##ently": 1350,
      "##ote": 1351,
      "##ice": 1352,
      "##olved": 1353,
      "##riting": 1354,
      "common": 1355,
      "pred": 1356,
      "prob": 1357,
      "##urn": 1358,
      "force": 1359,
      "stat": 1360,
      "exten": 1361,
      "although": 1362,
      "moder": 1363,
      "Ins": 1364,
      "##round": 1365,
      "##ians": 1366,
      "199": 1367,
      "lead": 1368,
      "learn": 1369,
      "symp": 1370,
      "accep": 1371,
      "industrial": 1372,
      "able": 1373,
      "clin": 1374,
      "expression": 1375,
      "sometimes": 1376,
      "##anda": 1377,
      "interpret": 1378,
      "##ological": 1379,
      "workers": 1380,
      "##itiv": 1381,
      "##ormation": 1382,
      "information": 1383,
      "present": 1384,
      "##ails": 1385,
      "research": 1386,
      "good": 1387,
      "fascist": 1388,
      "Although": 1389,
      "What": 1390,
      "prim": 1391,
      "World": 1392,
      "published": 1393,
      "critic": 1394,
      "Warren": 1395,
      "##etitive": 1396,
      "following": 1397,
      "tendenc": 1398,
      "Statistic": 1399,
      "Social": 1400,
      "take": 1401,
      "into": 1402,
      "Engels": 1403,
      "New": 1404,
      "delay": 1405,
      "links": 1406,
      "student": 1407,
      "argue": 1408,
      "conflic": 1409,
      "activity": 1410,
      "Workers": 1411,
      "described": 1412,
      "imag": 1413,
      "skill": 1414,
      "similar": 1415,
      "institutions": 1416,
      "Mikhail": 1417,
      "Murray": 1418,
      "life": 1419,
      "unusual": 1420,
      "modern": 1421,
      ".'''": 1422,
      "Ex": 1423,
      "Fren": 1424,
      "First": 1425,
      "Green": 1426,
      "IQ": 1427,
      "Kanner": 1428,
      "List": 1429,
      "No": 1430,
      "Stirner": 1431,
      "aw": 1432,
      "br": 1433,
      "civil": 1434,
      "dom": 1435,
      "day": 1436,
      "dem": 1437,
      "el": 1438,
      "ego": 1439,
      "fl": 1440,
      "hist": 1441,
      "hum": 1442,
      "hand": 1443,
      "join": 1444,
      "late": 1445,
      "mil": 1446,
      "mutual": 1447,
      "normal": 1448,
      "rise": 1449,
      "rather": 1450,
      "rights": 1451,
      "sing": 1452,
      "sensory": 1453,
      "trou": 1454,
      "turn": 1455,
      "way": 1456,
      "writing": 1457,
      "##tary": 1458,
      "##toms": 1459,
      "##app": 1460,
      "##ci": 1461,
      "##ces": 1462,
      "##hip": 1463,
      "##hood": 1464,
      "##nal": 1465,
      "##ru": 1466,
      "##ror": 1467,
      "##rary": 1468,
      "##ke": 1469,
      "##su": 1470,
      "##sive": 1471,
      "##side": 1472,
      "##min": 1473,
      "##lan": 1474,
      "##yn": 1475,
      "##ok": 1476,
      "##function": 1477,
      "##68": 1478,
      "##eria": 1479,
      "thin": 1480,
      "##ond": 1481,
      "##aring": 1482,
      "##ense": 1483,
      "##ind": 1484,
      "##orary": 1485,
      "##anarch": 1486,
      "inv": 1487,
      "inst": 1488,
      "inten": 1489,
      "##ates": 1490,
      "##atform": 1491,
      "##iteria": 1492,
      "##isme": 1493,
      "##omp": 1494,
      "today": 1495,
      "anarcha": 1496,
      "real": 1497,
      "##ases": 1498,
      "##olic": 1499,
      "##olun": 1500,
      "##eless": 1501,
      "##ellect": 1502,
      "before": 1503,
      "##unk": 1504,
      "##urther": 1505,
      "##urrection": 1506,
      "##ults": 1507,
      "##ularly": 1508,
      "##iving": 1509,
      "##ower": 1510,
      "##ected": 1511,
      "They": 1512,
      "##vereign": 1513,
      "##aplan": 1514,
      "194": 1515,
      "##eech": 1516,
      "action": 1517,
      "##ogn": 1518,
      "world": 1519,
      "ability": 1520,
      "##ize": 1521,
      "enc": 1522,
      "experi": 1523,
      "189": 1524,
      "Chin": 1525,
      "##ressive": 1526,
      "working": 1527,
      "Autistic": 1528,
      "trans": 1529,
      "infan": 1530,
      "appear": 1531,
      "label": 1532,
      "labour": 1533,
      "##istance": 1534,
      "belief": 1535,
      "disorders": 1536,
      "priv": 1537,
      "reference": 1538,
      "Manual": 1539,
      "libertarian": 1540,
      "library": 1541,
      "violent": 1542,
      "Libertarian": 1543,
      "##ccess": 1544,
      "developmental": 1545,
      "States": 1546,
      "##emporary": 1547,
      "attach": 1548,
      "opposed": 1549,
      "English": 1550,
      "Russian": 1551,
      "##till": 1552,
      "supported": 1553,
      "interests": 1554,
      "criteria": 1555,
      "defin": 1556,
      "associated": 1557,
      "school": 1558,
      "schools": 1559,
      "advocate": 1560,
      "after": 1561,
      "feel": 1562,
      "Eco": 1563,
      "Property": 1564,
      "point": 1565,
      "##chnology": 1566,
      "specific": 1567,
      "religious": 1568,
      "structures": 1569,
      "situation": 1570,
      "principles": 1571,
      "945": 1572,
      "large": 1573,
      "##topian": 1574,
      "physical": 1575,
      "collectiv": 1576,
      "controversial": 1577,
      "--&": 1578,
      "Diagnos": 1579,
      "details": 1580,
      "problem": 1581,
      "symptoms": 1582,
      "conflict": 1583,
      "imagin": 1584,
      "skills": 1585,
      "French": 1586,
      "trouble": 1587,
      "##oluntary": 1588,
      "##ellectual": 1589,
      "',": 1590,
      ")|": 1591,
      ",&": 1592,
      "09": 1593,
      "02": 1594,
      "13": 1595,
      "16": 1596,
      "14": 1597,
      "43": 1598,
      ";''": 1599,
      "Bry": 1600,
      "CG": 1601,
      "Cent": 1602,
      "Caplan": 1603,
      "Dr": 1604,
      "God": 1605,
      "IV": 1606,
      "King": 1607,
      "Krop": 1608,
      "La": 1609,
      "Mental": 1610,
      "National": 1611,
      "Ple": 1612,
      "Sy": 1613,
      "Wes": 1614,
      "Will": 1615,
      "black": 1616,
      "cle": 1617,
      "dist": 1618,
      "dest": 1619,
      "due": 1620,
      "et": 1621,
      "em": 1622,
      "eas": 1623,
      "ful": 1624,
      "fail": 1625,
      "further": 1626,
      "gr": 1627,
      "gl": 1628,
      "gest": 1629,
      "her": 1630,
      "him": 1631,
      "hier": 1632,
      "il": 1633,
      "led": 1634,
      "let": 1635,
      "less": 1636,
      "law": 1637,
      "later": 1638,
      "mus": 1639,
      "media": 1640,
      "much": 1641,
      "name": 1642,
      "ori": 1643,
      "pa": 1644,
      "power": 1645,
      "rou": 1646,
      "redi": 1647,
      "ster": 1648,
      "sever": 1649,
      "stim": 1650,
      "small": 1651,
      "still": 1652,
      "tri": 1653,
      "vict": 1654,
      "vari": 1655,
      "well": 1656,
      "##he": 1657,
      "##hib": 1658,
      "##eg": 1659,
      "##een": 1660,
      "##eot": 1661,
      "##ron": 1662,
      "##res": 1663,
      "##rac": 1664,
      "##ky": 1665,
      "##ih": 1666,
      "##sy": 1667,
      "##sw": 1668,
      "##sel": 1669,
      "##sible": 1670,
      "##ugg": 1671,
      "##ycl": 1672,
      "##ven": 1673,
      "##pt": 1674,
      "##pr": 1675,
      "##pl": 1676,
      "##ject": 1677,
      "##--": 1678,
      "##ween": 1679,
      "##}}": 1680,
      "##erb": 1681,
      "things": 1682,
      "##oni": 1683,
      "##ons": 1684,
      "##art": 1685,
      "##are": 1686,
      "##arl": 1687,
      "##arity": 1688,
      "]]}}": 1689,
      "##chives": 1690,
      "##ang": 1691,
      "##ange": 1692,
      "##ederation": 1693,
      "initi": 1694,
      "##ately": 1695,
      "##its": 1696,
      "##ites": 1697,
      "##istent": 1698,
      "##omin": 1699,
      "##tional": 1700,
      "##let": 1701,
      "##otkin": 1702,
      "##ices": 1703,
      "##icians": 1704,
      "rece": 1705,
      "##read": 1706,
      "##olid": 1707,
      "autonom": 1708,
      "Anti": 1709,
      "##ments": 1710,
      "contin": 1711,
      "##und": 1712,
      "produc": 1713,
      "Anarcha": 1714,
      "##ulate": 1715,
      "##ional": 1716,
      "##own": 1717,
      "##ecess": 1718,
      "exist": 1719,
      "exhib": 1720,
      "altern": 1721,
      "along": 1722,
      "mod": 1723,
      "deg": 1724,
      "##abap": 1725,
      "##ability": 1726,
      "197": 1727,
      "##eek": 1728,
      "symb": 1729,
      "autistics": 1730,
      "##tention": 1731,
      "communist": 1732,
      "communities": 1733,
      "##ikip": 1734,
      "abs": 1735,
      "disc": 1736,
      "##eminism": 1737,
      "##aving": 1738,
      "##avid": 1739,
      "adults": 1740,
      "##sequ": 1741,
      "##ournal": 1742,
      "new": 1743,
      "##terns": 1744,
      "direct": 1745,
      "State": 1746,
      "works": 1747,
      "Ass": 1748,
      "feminists": 1749,
      "below": 1750,
      "trad": 1751,
      "true": 1752,
      "2006": 1753,
      "##obal": 1754,
      "##enced": 1755,
      "related": 1756,
      "relations": 1757,
      "reported": 1758,
      "repetitive": 1759,
      "allow": 1760,
      "sovereign": 1761,
      "##yped": 1762,
      "themsel": 1763,
      "##ortant": 1764,
      "strugg": 1765,
      "impos": 1766,
      "resistance": 1767,
      "diagnosed": 1768,
      "does": 1769,
      "terms": 1770,
      "##ropri": 1771,
      "##ysfunction": 1772,
      "syndicalist": 1773,
      "While": 1774,
      "prior": 1775,
      "referred": 1776,
      "references": 1777,
      "behaviors": 1778,
      "##ificant": 1779,
      "Liberty": 1780,
      "educ": 1781,
      "economics": 1782,
      "became": 1783,
      "because": 1784,
      "natural": 1785,
      "recogn": 1786,
      "attemp": 1787,
      "1589894": 1788,
      "From": 1789,
      "##T15": 1790,
      "students": 1791,
      "particular": 1792,
      "particularly": 1793,
      "among": 1794,
      "views": 1795,
      "]]).": 1796,
      "environmental": 1797,
      "aff": 1798,
      "objec": 1799,
      "##ential": 1800,
      "##omsky": 1801,
      "European": 1802,
      "book": 1803,
      "books": 1804,
      "famous": 1805,
      "little": 1806,
      "patterns": 1807,
      "significant": 1808,
      "better": 1809,
      "between": 1810,
      "increase": 1811,
      "culture": 1812,
      "Anarqu": 1813,
      "concepts": 1814,
      "capitalist": 1815,
      "complete": 1816,
      "Bolsheviks": 1817,
      "Arm": 1818,
      "ethics": 1819,
      "market": 1820,
      "occur": 1821,
      "Andre": 1822,
      "conditions": 1823,
      "Disorders": 1824,
      "Emma": 1825,
      "marxists": 1826,
      "extensive": 1827,
      "learning": 1828,
      "interpretations": 1829,
      "Statistical": 1830,
      "Noam": 1831,
      "democ": 1832,
      "human": 1833,
      "single": 1834,
      "##oken": 1835,
      "think": 1836,
      "##anarchism": 1837,
      "involved": 1838,
      "Diagnostic": 1839,
      "problems": 1840,
      "Bryan": 1841,
      "CGT": 1842,
      "Kropotkin": 1843,
      "Western": 1844,
      "origin": 1845,
      "routin": 1846,
      "redirect": 1847,
      "stereot": 1848,
      "##sych": 1849,
      "##yclop": 1850,
      "continu": 1851,
      "##abapt": 1852,
      "##ikipedia": 1853,
      "sovereignty": 1854,
      "themselves": 1855,
      "stereotyped": 1856,
      "'.": 1857,
      "([[": 1858,
      "*[": 1859,
      ".,": 1860,
      ".]]": 1861,
      "000": 1862,
      "12": 1863,
      "27": 1864,
      "300": 1865,
      "80": 1866,
      "96": 1867,
      ";!": 1868,
      "=&": 1869,
      "Aid": 1870,
      "App": 1871,
      "Action": 1872,
      "Apr": 1873,
      "Cle": 1874,
      "Cam": 1875,
      "Ego": 1876,
      "Enc": 1877,
      "Germ": 1878,
      "Hans": 1879,
      "IC": 1880,
      "Its": 1881,
      "Mak": 1882,
      "Media": 1883,
      "Max": 1884,
      "Pl": 1885,
      "Pri": 1886,
      "Poli": 1887,
      "Sensory": 1888,
      "Zap": 1889,
      "around": 1890,
      "bir": 1891,
      "could": 1892,
      "case": 1893,
      "cited": 1894,
      "cause": 1895,
      "cases": 1896,
      "ef": 1897,
      "fed": 1898,
      "fav": 1899,
      "giv": 1900,
      "give": 1901,
      "here": 1902,
      "hold": 1903,
      "having": 1904,
      "just": 1905,
      "lim": 1906,
      "long": 1907,
      "living": 1908,
      "mis": 1909,
      "now": 1910,
      "per": 1911,
      "pit": 1912,
      "punk": 1913,
      "psych": 1914,
      "ru": 1915,
      "ro": 1916,
      "rac": 1917,
      "rul": 1918,
      "rest": 1919,
      "rad": 1920,
      "same": 1921,
      "says": 1922,
      "since": 1923,
      "sense": 1924,
      "ta": 1925,
      "ter": 1926,
      "tucker": 1927,
      "treat": 1928,
      "utopian": 1929,
      "var": 1930,
      "voc": 1931,
      "voting": 1932,
      "veg": 1933,
      "ws": 1934,
      "wing": 1935,
      "wid": 1936,
      "##tan": 1937,
      "##tre": 1938,
      "##tain": 1939,
      "##cu": 1940,
      "##eat": 1941,
      "##eas": 1942,
      "##eth": 1943,
      "##ease": 1944,
      "##eology": 1945,
      "##dd": 1946,
      "##national": 1947,
      "##normal": 1948,
      "##iat": 1949,
      "##ire": 1950,
      "##iam": 1951,
      "##itive": 1952,
      "##sh": 1953,
      "##set": 1954,
      "##mac": 1955,
      "##ling": 1956,
      "##ym": 1957,
      "##giti": 1958,
      "##ox": 1959,
      "##ovement": 1960,
      "##volution": 1961,
      "##viol": 1962,
      "##pation": 1963,
      "##Case": 1964,
      "##jac": 1965,
      "##bell": 1966,
      "##foshop": 1967,
      "##wiki": 1968,
      "##T0": 1969,
      "##isation": 1970,
      "##erc": 1971,
      "##ery": 1972,
      "##erg": 1973,
      "##tile": 1974,
      "##tique": 1975,
      "anx": 1976,
      "answ": 1977,
      "##ene": 1978,
      "until": 1979,
      "##orth": 1980,
      "]]]]": 1981,
      "##alph": 1982,
      "##any": 1983,
      "##isms": 1984,
      "##omated": 1985,
      "too": 1986,
      "tox": 1987,
      "toward": 1988,
      "##ots": 1989,
      "##ico": 1990,
      "rem": 1991,
      "rebell": 1992,
      "##reed": 1993,
      "##oly": 1994,
      "##ilit": 1995,
      "##elCase": 1996,
      "##ages": 1997,
      "##aganda": 1998,
      "##riarchy": 1999,
      "##ript": 2000,
      "##ock": 2001,
      "##lying": 2002,
      "##ths": 2003,
      "##thing": 2004,
      "begin": 2005,
      "##ersity": 2006,
      "conc": 2007,
      "comb": 2008,
      "These": 2009,
      "prot": 2010,
      "''.": 2011,
      "Anarchiz": 2012,
      "##ulties": 2013,
      "##ired": 2014,
      "stri": 2015,
      "stress": 2016,
      "##ets": 2017,
      "##ection": 2018,
      "##use": 2019,
      "##ually": 2020,
      "using": 2021,
      "Integr": 2022,
      "Infoshop": 2023,
      "noted": 2024,
      "##ably": 2025,
      "##ically": 2026,
      "areas": 2027,
      "chang": 2028,
      "19th": 2029,
      "speech": 2030,
      "syn": 2031,
      "act": 2032,
      "acts": 2033,
      "active": 2034,
      "front": 2035,
      "##udd": 2036,
      "attention": 2037,
      "##ograph": 2038,
      "communists": 2039,
      "arch": 2040,
      "abnormal": 2041,
      "##igg": 2042,
      "##arianism": 2043,
      "enter": 2044,
      "explic": 2045,
      "}}</": 2046,
      "188": 2047,
      "184": 2048,
      "Chomsky": 2049,
      "adding": 2050,
      "##ought": 2051,
      "neur": 2052,
      "Automated": 2053,
      "trade": 2054,
      "infoshop": 2055,
      "appar": 2056,
      "appropri": 2057,
      "gene": 2058,
      "##aily": 2059,
      "idea": 2060,
      "labels": 2061,
      "show": 2062,
      "repres": 2063,
      "strong": 2064,
      "strateg": 2065,
      "After": 2066,
      "impair": 2067,
      "important": 2068,
      "resist": 2069,
      "difference": 2070,
      "diagnoses": 2071,
      "believed": 2072,
      "going": 2073,
      "##version": 2074,
      "competi": 2075,
      "##roy": 2076,
      "##ficial": 2077,
      "fascists": 2078,
      "highly": 2079,
      "assert": 2080,
      "prefer": 2081,
      "Anarchist_": 2082,
      "Conversion": 2083,
      "critics": 2084,
      "critique": 2085,
      "upon": 2086,
      "##atively": 2087,
      "insp": 2088,
      "##ification": 2089,
      "factors": 2090,
      "examples": 2091,
      "Communists": 2092,
      "Health": 2093,
      "Socialism": 2094,
      "intellectual": 2095,
      "opposition": 2096,
      "France": 2097,
      "Marxist": 2098,
      "Russell": 2099,
      "delays": 2100,
      "regard": 2101,
      "argued": 2102,
      "difficulties": 2103,
      "make": 2104,
      "makes": 2105,
      "making": 2106,
      "sci": 2107,
      "script": 2108,
      "web": 2109,
      "teacher": 2110,
      "##lied": 2111,
      "1910": 2112,
      "words": 2113,
      ">/<": 2114,
      "patriarchy": 2115,
      "throughout": 2116,
      "Individual": 2117,
      "11Z": 2118,
      "Def": 2119,
      "One": 2120,
      "cultural": 2121,
      "Anarh": 2122,
      "conversion": 2123,
      "1936": 2124,
      "explain": 2125,
      "difficulty": 2126,
      "understanding": 2127,
      "25T15": 2128,
      "Paris": 2129,
      "section": 2130,
      "wrote": 2131,
      "theorists": 2132,
      "Anarkisme": 2133,
      "control": 2134,
      "Children": 2135,
      "Insurrection": 2136,
      "accepted": 2137,
      "clinicians": 2138,
      "##itivism": 2139,
      "tendency": 2140,
      "civilization": 2141,
      "histor": 2142,
      "##cient": 2143,
      "Chinese": 2144,
      "infantile": 2145,
      "private": 2146,
      "attachment": 2147,
      ";''&": 2148,
      "Kingdom": 2149,
      "Synd": 2150,
      "William": 2151,
      "emo": 2152,
      "easily": 2153,
      "mediawiki": 2154,
      "stimul": 2155,
      "##ihil": 2156,
      "##onialism": 2157,
      "##olidarity": 2158,
      "autonomous": 2159,
      "degree": 2160,
      "discuss": 2161,
      "##obalization": 2162,
      "struggle": 2163,
      ";!--": 2164,
      "April": 2165,
      "CamelCase": 2166,
      "Encyclop": 2167,
      "ICD": 2168,
      "Makhn": 2169,
      "Platform": 2170,
      "Zapat": 2171,
      "birth": 2172,
      "given": 2173,
      "terror": 2174,
      "treatment": 2175,
      "##jacque": 2176,
      "rebellion": 2177,
      "Anarchizm": 2178,
      "explicit": 2179,
      "appropriate": 2180,
      "competition": 2181,
      "Insurrectionary": 2182,
      ".<": 2183,
      "07": 2184,
      "04": 2185,
      "100": 2186,
      "21": 2187,
      "39": 2188,
      "42": 2189,
      ">-": 2190,
      ">,": 2191,
      "At": 2192,
      "Ad": 2193,
      "Austri": 2194,
      "Access": 2195,
      "Ber": 2196,
      "But": 2197,
      "Bec": 2198,
      "Bey": 2199,
      "Black": 2200,
      "Cri": 2201,
      "Carl": 2202,
      "Due": 2203,
      "David": 2204,
      "Dysfunction": 2205,
      "Digg": 2206,
      "Er": 2207,
      "Earth": 2208,
      "Evolution": 2209,
      "Fact": 2210,
      "Feb": 2211,
      "Federation": 2212,
      "Feminism": 2213,
      "Gen": 2214,
      "Gust": 2215,
      "Gree": 2216,
      "Hak": 2217,
      "Herb": 2218,
      "Id": 2219,
      "Jes": 2220,
      "Jan": 2221,
      "Journal": 2222,
      "Kron": 2223,
      "Lin": 2224,
      "Lab": 2225,
      "Landa": 2226,
      "Mc": 2227,
      "Mol": 2228,
      "May": 2229,
      "Magn": 2230,
      "Mans": 2231,
      "Movement": 2232,
      "Or": 2233,
      "Oct": 2234,
      "Others": 2235,
      "Ph": 2236,
      "Ra": 2237,
      "Rob": 2238,
      "Ralph": 2239,
      "Solidarity": 2240,
      "Ta": 2241,
      "Te": 2242,
      "UK": 2243,
      "Vict": 2244,
      "Voluntary": 2245,
      "With": 2246,
      "Wikipedia": 2247,
      "Yar": 2248,
      "ach": 2249,
      "aid": 2250,
      "aide": 2251,
      "best": 2252,
      "band": 2253,
      "bour": 2254,
      "base": 2255,
      "bene": 2256,
      "ca": 2257,
      "cur": 2258,
      "cul": 2259,
      "caus": 2260,
      "did": 2261,
      "divid": 2262,
      "dward": 2263,
      "daily": 2264,
      "ey": 2265,
      "est": 2266,
      "eng": 2267,
      "end": 2268,
      "ete": 2269,
      "emb": 2270,
      "earth": 2271,
      "election": 2272,
      "fin": 2273,
      "fri": 2274,
      "fem": 2275,
      "fought": 2276,
      "green": 2277,
      "great": 2278,
      "har": 2279,
      "however": 2280,
      "history": 2281,
      "jus": 2282,
      "kind": 2283,
      "lot": 2284,
      "low": 2285,
      "loo": 2286,
      "lives": 2287,
      "my": 2288,
      "mid": 2289,
      "medi": 2290,
      "made": 2291,
      "necess": 2292,
      "old": 2293,
      "oper": 2294,
      "pur": 2295,
      "peri": 2296,
      "polic": 2297,
      "si": 2298,
      "sl": 2299,
      "ser": 2300,
      "saw": 2301,
      "ton": 2302,
      "ut": 2303,
      "vo": 2304,
      "vis": 2305,
      "vary": 2306,
      "vision": 2307,
      "voluntary": 2308,
      "wave": 2309,
      "wish": 2310,
      "ways": 2311,
      "wiki": 2312,
      "xs": 2313,
      "##tr": 2314,
      "##tal": 2315,
      "##temporary": 2316,
      "##aos": 2317,
      "##eed": 2318,
      "##ead": 2319,
      "##ness": 2320,
      "##ral": 2321,
      "##ram": 2322,
      "##ration": 2323,
      "##ros": 2324,
      "##ray": 2325,
      "##rase": 2326,
      "##ruct": 2327,
      "##roduc": 2328,
      "##rchives": 2329,
      "##khan": 2330,
      "##iar": 2331,
      "##ien": 2332,
      "##ied": 2333,
      "##iting": 2334,
      "##iety": 2335,
      "##sp": 2336,
      "##ser": 2337,
      "##mate": 2338,
      "##most": 2339,
      "##ug": 2340,
      "##uer": 2341,
      "##uly": 2342,
      "##ler": 2343,
      "##lin": 2344,
      "##led": 2345,
      "##log": 2346,
      "##yre": 2347,
      "##gan": 2348,
      "##oa": 2349,
      "##ois": 2350,
      "##oism": 2351,
      "##oid": 2352,
      "##ving": 2353,
      "##pan": 2354,
      "##ple": 2355,
      "##ply": 2356,
      "##pid": 2357,
      "##port": 2358,
      "##19": 2359,
      "##15": 2360,
      "##fy": 2361,
      "##fort": 2362,
      "##wh": 2363,
      "##37": 2364,
      "##zer": 2365,
      "##Wiki": 2366,
      "##Archives": 2367,
      "##iss": 2368,
      "##isting": 2369,
      "##erat": 2370,
      "##erap": 2371,
      "##eralism": 2372,
      "thing": 2373,
      "##onse": 2374,
      "##onents": 2375,
      "ann": 2376,
      "anabapt": 2377,
      "theore": 2378,
      "##enn": 2379,
      "##ines": 2380,
      "##inari": 2381,
      "##initions": 2382,
      "unc": 2383,
      "##esis": 2384,
      "##ortion": 2385,
      "##ories": 2386,
      "##ording": 2387,
      "]]{{": 2388,
      "##ches": 2389,
      "##ality": 2390,
      "##ank": 2391,
      "##ander": 2392,
      "offer": 2393,
      "##edical": 2394,
      "inher": 2395,
      "integr": 2396,
      "inability": 2397,
      "##ators": 2398,
      "##itative": 2399,
      "##ista": 2400,
      "##omb": 2401,
      "##omen": 2402,
      "##tionary": 2403,
      "total": 2404,
      "##lex": 2405,
      "##leed": 2406,
      "##ented": 2407,
      "##inger": 2408,
      "##ick": 2409,
      "anarchistic": 2410,
      "ret": 2411,
      "reas": 2412,
      "reaction": 2413,
      "rejec": 2414,
      "##asive": 2415,
      "##ream": 2416,
      "##olonialism": 2417,
      "##state": 2418,
      "##stain": 2419,
      "##stad": 2420,
      "##aces": 2421,
      "##ament": 2422,
      "##iliar": 2423,
      "##eld": 2424,
      "##tice": 2425,
      "##ague": 2426,
      "##agaz": 2427,
      "Ancient": 2428,
      "##occu": 2429,
      "##ocolonialism": 2430,
      "##mental": 2431,
      "issu": 2432,
      "##thod": 2433,
      "##thics": 2434,
      "##theless": 2435,
      "##thesis": 2436,
      "##ersion": 2437,
      "conn": 2438,
      "identi": 2439,
      "##ither": 2440,
      "prou": 2441,
      "proc": 2442,
      "prax": 2443,
      "promin": 2444,
      "##emic": 2445,
      "##irit": 2446,
      "##ions": 2447,
      "##ociation": 2448,
      "##ived": 2449,
      "sty": 2450,
      "onset": 2451,
      "Theory": 2452,
      "alien": 2453,
      "moved": 2454,
      "##istics": 2455,
      "##essed": 2456,
      "success": 2457,
      "sustain": 2458,
      "uses": 2459,
      "Int": 2460,
      "deed": 2461,
      "deter": 2462,
      "notes": 2463,
      "##abb": 2464,
      "societi": 2465,
      "##iance": 2466,
      "chur": 2467,
      "chaos": 2468,
      "190": 2469,
      "spoken": 2470,
      "##ads": 2471,
      "technology": 2472,
      "indic": 2473,
      "manage": 2474,
      "##osts": 2475,
      "wasn": 2476,
      "##izes": 2477,
      "##izations": 2478,
      "socialism": 2479,
      "export": 2480,
      "displ": 2481,
      "something": 2482,
      "}}.": 2483,
      "international": 2484,
      "agg": 2485,
      "agit": 2486,
      "##ference": 2487,
      "##hort": 2488,
      "##ourt": 2489,
      "##ours": 2490,
      "##oured": 2491,
      "##ources": 2492,
      "neo": 2493,
      "##ternal": 2494,
      "seek": 2495,
      "seeks": 2496,
      "##ansport": 2497,
      "Stud": 2498,
      "##ressed": 2499,
      "worker": 2500,
      "php": 2501,
      "phrase": 2502,
      "##hontan": 2503,
      "truly": 2504,
      "2005": 2505,
      "##ftism": 2506,
      "##ober": 2507,
      "developed": 2508,
      "developing": 2509,
      "relatively": 2510,
      "included": 2511,
      "method": 2512,
      "mind": 2513,
      "itself": 2514,
      "impact": 2515,
      "resources": 2516,
      "consistent": 2517,
      "diagnostic": 2518,
      "event": 2519,
      "events": 2520,
      "oppose": 2521,
      "classical": 2522,
      "classification": 2523,
      "##tives": 2524,
      "leftist": 2525,
      "higher": 2526,
      "syndicalists": 2527,
      "Also": 2528,
      "nonviol": 2529,
      "##tically": 2530,
      "preoccu": 2531,
      "##geois": 2532,
      "Conf": 2533,
      "Contemporary": 2534,
      "place": 2535,
      "sched": 2536,
      "##ooks": 2537,
      "accoun": 2538,
      "outside": 2539,
      "site": 2540,
      "generally": 2541,
      "followers": 2542,
      "tends": 2543,
      "become": 2544,
      "communicate": 2545,
      "philosophies": 2546,
      "Commune": 2547,
      "Communic": 2548,
      "desir": 2549,
      "taking": 2550,
      "profit": 2551,
      "##empl": 2552,
      "Russia": 2553,
      "link": 2554,
      "##T13": 2555,
      "##ediat": 2556,
      "support": 2557,
      "party": 2558,
      "particip": 2559,
      "coerc": 2560,
      "politics": 2561,
      "subject": 2562,
      "defend": 2563,
      "teachers": 2564,
      "teachings": 2565,
      "association": 2566,
      "advocated": 2567,
      "advocates": 2568,
      "held": 2569,
      "listed": 2570,
      "##ricted": 2571,
      "##liament": 2572,
      "##ounc": 2573,
      "1917": 2574,
      "1921": 2575,
      "1926": 2576,
      "manifested": 2577,
      "Rep": 2578,
      "few": 2579,
      "possible": 2580,
      "Industrial": 2581,
      "describe": 2582,
      "facial": 2583,
      "months": 2584,
      "##ervasive": 2585,
      "conversation": 2586,
      "conception": 2587,
      "claims": 2588,
      "religion": 2589,
      "capitalists": 2590,
      "meaning": 2591,
      "complex": 2592,
      "publicly": 2593,
      "situations": 2594,
      "principle": 2595,
      "marked": 2596,
      "pacifism": 2597,
      "pacifists": 2598,
      "second": 2599,
      "typically": 2600,
      "##part": 2601,
      "theories": 2602,
      "characterised": 2603,
      "1872": 2604,
      "Childhood": 2605,
      "influenced": 2606,
      "influential": 2607,
      "professional": 2608,
      "Disorder": 2609,
      "helped": 2610,
      "John": 2611,
      "Johan": 2612,
      "create": 2613,
      "current": 2614,
      "esp": 2615,
      "##ratic": 2616,
      "unionism": 2617,
      "statist": 2618,
      "accept": 2619,
      "expressions": 2620,
      "researchers": 2621,
      "goods": 2622,
      "criticised": 2623,
      "tendencies": 2624,
      "Newman": 2625,
      "away": 2626,
      "domination": 2627,
      "egoism": 2628,
      "joined": 2629,
      "mutualism": 2630,
      "##ruary": 2631,
      "##ynam": 2632,
      "instead": 2633,
      "1940s": 2634,
      "1895": 2635,
      "defined": 2636,
      "feelings": 2637,
      "imaginative": 2638,
      "Center": 2639,
      "Lahontan": 2640,
      "Please": 2641,
      "destroy": 2642,
      "fully": 2643,
      "grow": 2644,
      "gestures": 2645,
      "hierarchy": 2646,
      "ill": 2647,
      "lesser": 2648,
      "music": 2649,
      "pati": 2650,
      "victory": 2651,
      "variety": 2652,
      "initially": 2653,
      "##leton": 2654,
      "production": 2655,
      "existed": 2656,
      "exhibit": 2657,
      "alternative": 2658,
      "alongside": 2659,
      "1970s": 2660,
      "symbolic": 2661,
      "Association": 2662,
      "tradition": 2663,
      "education": 2664,
      "recognize": 2665,
      "amongst": 2666,
      "objects": 2667,
      "Anarquismo": 2668,
      "extensively": 2669,
      "Cleyre": 2670,
      "Germany": 2671,
      "MediaWiki": 2672,
      "Political": 2673,
      "mises": 2674,
      "pitzer": 2675,
      "psychiat": 2676,
      "rule": 2677,
      "restricted": 2678,
      "radical": 2679,
      "various": 2680,
      "widely": 2681,
      "##gitimate": 2682,
      "anxiety": 2683,
      "answer": 2684,
      "toxin": 2685,
      "towards": 2686,
      "remain": 2687,
      "strike": 2688,
      "Integration": 2689,
      "changes": 2690,
      "synthesis": 2691,
      "##ography": 2692,
      "archive": 2693,
      "represented": 2694,
      "strategy": 2695,
      "impairment": 2696,
      "Anarchist_Archives": 2697,
      "regarded": 2698,
      "Definitions": 2699,
      "Syndical": 2700,
      "emotional": 2701,
      "discussion": 2702,
      "Zapatista": 2703,
      "terrorism": 2704,
      "Because": 2705,
      "Diggers": 2706,
      "February": 2707,
      "General": 2708,
      "Gustave": 2709,
      "Greek": 2710,
      "Hakim": 2711,
      "Herbert": 2712,
      "Jesus": 2713,
      "Kronstad": 2714,
      "Landauer": 2715,
      "Molinari": 2716,
      "Magnus": 2717,
      "Manske": 2718,
      "October": 2719,
      "Raico": 2720,
      "Robert": 2721,
      "Victor": 2722,
      "Yarros": 2723,
      "achie": 2724,
      "bourgeois": 2725,
      "beneficial": 2726,
      "divided": 2727,
      "dwardmac": 2728,
      "eye": 2729,
      "estab": 2730,
      "etext": 2731,
      "friend": 2732,
      "justi": 2733,
      "period": 2734,
      "policy": 2735,
      "visual": 2736,
      "##khanov": 2737,
      "##logs": 2738,
      "theoretical": 2739,
      "praxeology": 2740,
      "prominent": 2741,
      "societies": 2742,
      "preoccupation": 2743,
      "professionals": 2744,
      "Johann": 2745,
      "Kronstadt": 2746,
      "(<": 2747,
      "(''": 2748,
      "**": 2749,
      ".{{": 2750,
      "08": 2751,
      "05": 2752,
      "29": 2753,
      "22": 2754,
      "36": 2755,
      "41": 2756,
      "47": 2757,
      "44": 2758,
      "50": 2759,
      "58": 2760,
      "75": 2761,
      "9_": 2762,
      "95": 2763,
      ";)": 2764,
      ";{{": 2765,
      ">)": 2766,
      "?&": 2767,
      "Ag": 2768,
      "Alex": 2769,
      "Bar": 2770,
      "Bob": 2771,
      "Cr": 2772,
      "Co": 2773,
      "Cong": 2774,
      "Dé": 2775,
      "Don": 2776,
      "Dut": 2777,
      "Doc": 2778,
      "Dave": 2779,
      "Early": 2780,
      "Ethics": 2781,
      "Fi": 2782,
      "Fl": 2783,
      "FA": 2784,
      "Fore": 2785,
      "Fasc": 2786,
      "Ge": 2787,
      "Gu": 2788,
      "Gl": 2789,
      "GM": 2790,
      "Hel": 2791,
      "Hague": 2792,
      "If": 2793,
      "IW": 2794,
      "Jos": 2795,
      "Jenn": 2796,
      "Lou": 2797,
      "Mon": 2798,
      "Mal": 2799,
      "Main": 2800,
      "Much": 2801,
      "Mex": 2802,
      "Milit": 2803,
      "Not": 2804,
      "Nest": 2805,
      "Never": 2806,
      "Of": 2807,
      "PS": 2808,
      "Pre": 2809,
      "Pay": 2810,
      "Port": 2811,
      "Pacif": 2812,
      "Ri": 2813,
      "Rac": 2814,
      "Ret": 2815,
      "Rec": 2816,
      "Rome": 2817,
      "Rand": 2818,
      "Rese": 2819,
      "Sa": 2820,
      "Sm": 2821,
      "So": 2822,
      "Sam": 2823,
      "Sub": 2824,
      "Such": 2825,
      "Small": 2826,
      "She": 2827,
      "Tw": 2828,
      "TR": 2829,
      "Tim": 2830,
      "Talk": 2831,
      "Typical": 2832,
      "Templ": 2833,
      "Utop": 2834,
      "User": 2835,
      "Viol": 2836,
      "Voting": 2837,
      "WT": 2838,
      "Wired": 2839,
      "You": 2840,
      "Zen": 2841,
      "av": 2842,
      "ath": 2843,
      "aim": 2844,
      "apart": 2845,
      "bn": 2846,
      "bi": 2847,
      "bul": 2848,
      "big": 2849,
      "bill": 2850,
      "back": 2851,
      "bro": 2852,
      "brough": 2853,
      "bleed": 2854,
      "ce": 2855,
      "cg": 2856,
      "cor": 2857,
      "cal": 2858,
      "cou": 2859,
      "cir": 2860,
      "camp": 2861,
      "came": 2862,
      "cost": 2863,
      "cure": 2864,
      "coun": 2865,
      "cudd": 2866,
      "ded": 2867,
      "doc": 2868,
      "dysfunction": 2869,
      "dynam": 2870,
      "eq": 2871,
      "ear": 2872,
      "emp": 2873,
      "each": 2874,
      "epid": 2875,
      "either": 2876,
      "fa": 2877,
      "far": 2878,
      "fil": 2879,
      "fig": 2880,
      "fight": 2881,
      "five": 2882,
      "fall": 2883,
      "faction": 2884,
      "file": 2885,
      "fair": 2886,
      "fund": 2887,
      "freed": 2888,
      "finger": 2889,
      "gut": 2890,
      "get": 2891,
      "gif": 2892,
      "gain": 2893,
      "god": 2894,
      "gard": 2895,
      "gall": 2896,
      "gather": 2897,
      "gaz": 2898,
      "geek": 2899,
      "hun": 2900,
      "hous": 2901,
      "hours": 2902,
      "journal": 2903,
      "king": 2904,
      "land": 2905,
      "mat": 2906,
      "mom": 2907,
      "mot": 2908,
      "mul": 2909,
      "mir": 2910,
      "mill": 2911,
      "mass": 2912,
      "mainst": 2913,
      "mys": 2914,
      "male": 2915,
      "mental": 2916,
      "medical": 2917,
      "magaz": 2918,
      "nihil": 2919,
      "om": 2920,
      "op": 2921,
      "our": 2922,
      "ple": 2923,
      "pay": 2924,
      "pap": 2925,
      "pass": 2926,
      "past": 2927,
      "pediat": 2928,
      "pervasive": 2929,
      "ri": 2930,
      "red": 2931,
      "rothbard": 2932,
      "rock": 2933,
      "sa": 2934,
      "sv": 2935,
      "say": 2936,
      "sus": 2937,
      "sour": 2938,
      "sans": 2939,
      "sev": 2940,
      "song": 2941,
      "sound": 2942,
      "serv": 2943,
      "size": 2944,
      "short": 2945,
      "tre": 2946,
      "tac": 2947,
      "typ": 2948,
      "tax": 2949,
      "uk": 2950,
      "util": 2951,
      "val": 2952,
      "vot": 2953,
      "vac": 2954,
      "varian": 2955,
      "vote": 2956,
      "verb": 2957,
      "very": 2958,
      "version": 2959,
      "want": 2960,
      "wide": 2961,
      "wikipedia": 2962,
      "zh": 2963,
      "##to": 2964,
      "##try": 2965,
      "##ati": 2966,
      "##aedia": 2967,
      "##atives": 2968,
      "##cel": 2969,
      "##cess": 2970,
      "##cray": 2971,
      "##hap": 2972,
      "##ep": 2973,
      "##ef": 2974,
      "##ew": 2975,
      "##eous": 2976,
      "##eated": 2977,
      "##ether": 2978,
      "##dle": 2979,
      "##ne": 2980,
      "##ns": 2981,
      "##nic": 2982,
      "##ners": 2983,
      "##rs": 2984,
      "##rat": 2985,
      "##rist": 2986,
      "##roc": 2987,
      "##ruc": 2988,
      "##rated": 2989,
      "##rics": 2990,
      "##kl": 2991,
      "##kman": 2992,
      "##iet": 2993,
      "##iated": 2994,
      "##ss": 2995,
      "##s8": 2996,
      "##sib": 2997,
      "##sue": 2998,
      "##sure": 2999,
      "##self": 3000,
      "##site": 3001,
      "##me": 3002,
      "##men": 3003,
      "##mend": 3004,
      "##mark": 3005,
      "##mitivism": 3006,
      "##uary": 3007,
      "##uting": 3008,
      "##lit": 3009,
      "##lop": 3010,
      "##lers": 3011,
      "##lated": 3012,
      "##lass": 3013,
      "##lies": 3014,
      "##like": 3015,
      "##laim": 3016,
      "##_d": 3017,
      "##_v": 3018,
      "##_ch": 3019,
      "##_id": 3020,
      "##_te": 3021,
      "##_of": 3022,
      "##_anarchism": 3023,
      "##_kl": 3024,
      "##gger": 3025,
      "##glop": 3026,
      "##oic": 3027,
      "##ove": 3028,
      "##oved": 3029,
      "##oeb": 3030,
      "##vant": 3031,
      "##pic": 3032,
      "##pop": 3033,
      "##page": 3034,
      "##10": 3035,
      "##13": 3036,
      "##14": 3037,
      "##03": 3038,
      "##06": 3039,
      "##by": 3040,
      "##body": 3041,
      "##berg": 3042,
      "##books": 3043,
      "##fa": 3044,
      "##fo": 3045,
      "##fec": 3046,
      "##face": 3047,
      "##fred": 3048,
      "##win": 3049,
      "##ways": 3050,
      "##wide": 3051,
      "##worth": 3052,
      "##]&": 3053,
      "##87": 3054,
      "##70": 3055,
      "##93": 3056,
      "##32": 3057,
      "##Tr": 3058,
      "##T2": 3059,
      "##ze": 3060,
      "##zee": 3061,
      "##RC": 3062,
      "##69": 3063,
      "##43": 3064,
      "##20": 3065,
      "##29": 3066,
      "##200": 3067,
      "##5px": 3068,
      "##ID": 3069,
      "##ising": 3070,
      "##istive": 3071,
      "##erun": 3072,
      "##erations": 3073,
      "thus": 3074,
      "therap": 3075,
      "##ona": 3076,
      "##ones": 3077,
      "##onent": 3078,
      "##onym": 3079,
      "##aren": 3080,
      "##arily": 3081,
      "##tire": 3082,
      "##tiple": 3083,
      "then": 3084,
      "##ened": 3085,
      "##ention": 3086,
      "##ename": 3087,
      "##enberg": 3088,
      "##int": 3089,
      "##ina": 3090,
      "##inn": 3091,
      "##inist": 3092,
      "##iness": 3093,
      "##inology": 3094,
      "##integr": 3095,
      "##info": 3096,
      "unf": 3097,
      "univ": 3098,
      "unity": 3099,
      "united": 3100,
      "unable": 3101,
      "unite": 3102,
      "##estion": 3103,
      "##ord": 3104,
      "##ork": 3105,
      "##oral": 3106,
      "##order": 3107,
      "##orious": 3108,
      "##cher": 3109,
      "##change": 3110,
      "##china": 3111,
      "##alle": 3112,
      "##also": 3113,
      "##alitative": 3114,
      "##anism": 3115,
      "##ants": 3116,
      "##ances": 3117,
      "##anches": 3118,
      "##aneous": 3119,
      "##ath": 3120,
      "##atest": 3121,
      "##itor": 3122,
      "##ital": 3123,
      "##itant": 3124,
      "##itler": 3125,
      "##istor": 3126,
      "##oming": 3127,
      "##uted": 3128,
      "##utter": 3129,
      "tots": 3130,
      "##leb": 3131,
      "##lely": 3132,
      "##lets": 3133,
      "##legitimate": 3134,
      "##enty": 3135,
      "##entally": 3136,
      "##entral": 3137,
      "##ott": 3138,
      "##ingness": 3139,
      "##ingmen": 3140,
      "##icated": 3141,
      "##icpop": 3142,
      "read": 3143,
      "react": 3144,
      "reject": 3145,
      "relying": 3146,
      "##olt": 3147,
      "##olf": 3148,
      "##oles": 3149,
      "##olute": 3150,
      "##ollection": 3151,
      "##ston": 3152,
      "##struct": 3153,
      "##ops": 3154,
      "##opag": 3155,
      "##opted": 3156,
      "##opoly": 3157,
      "##actice": 3158,
      "##ilst": 3159,
      "##ilities": 3160,
      "##elming": 3161,
      "##ticisms": 3162,
      "##aged": 3163,
      "##agree": 3164,
      "##agraph": 3165,
      "Another": 3166,
      "Anabapt": 3167,
      "Anglop": 3168,
      "##ries": 3169,
      "##ried": 3170,
      "##rive": 3171,
      "##ocal": 3172,
      "##ocris": 3173,
      "order": 3174,
      "issue": 3175,
      "quite": 3176,
      "question": 3177,
      "qualitative": 3178,
      "##thr": 3179,
      "beings": 3180,
      "##osing": 3181,
      "##erse": 3182,
      "conce": 3183,
      "consequ": 3184,
      "comes": 3185,
      "comfort": 3186,
      "##terly": 3187,
      "##terod": 3188,
      "##ght": 3189,
      "></": 3190,
      "prod": 3191,
      "prog": 3192,
      "prov": 3193,
      "price": 3194,
      "practice": 3195,
      "##urb": 3196,
      "##urately": 3197,
      "'',": 3198,
      "whate": 3199,
      "whose": 3200,
      "##ules": 3201,
      "##ulation": 3202,
      "forerun": 3203,
      "##ema": 3204,
      "##emy": 3205,
      "##ests": 3206,
      "##ested": 3207,
      "##estones": 3208,
      "refuse": 3209,
      "##ivable": 3210,
      "##iversity": 3211,
      "##oward": 3212,
      "stay": 3213,
      "start": 3214,
      "stoic": 3215,
      "##ime": 3216,
      "##impan": 3217,
      "##ete": 3218,
      "##ective": 3219,
      "##ecial": 3220,
      "##ifically": 3221,
      "##used": 3222,
      "##usions": 3223,
      "extre": 3224,
      "existing": 3225,
      "excess": 3226,
      "ones": 3227,
      "alone": 3228,
      "almost": 3229,
      "always": 3230,
      "##uality": 3231,
      "##istically": 3232,
      "sugg": 3233,
      "sudd": 3234,
      "usually": 3235,
      "Inc": 3236,
      "deb": 3237,
      "##'',": 3238,
      "notable": 3239,
      "##abaj": 3240,
      "]].]]": 3241,
      "cho": 3242,
      "chance": 3243,
      "chimpan": 3244,
      "1900": 3245,
      "1968": 3246,
      "spend": 3247,
      "spont": 3248,
      "spread": 3249,
      "spirit": 3250,
      "##eeting": 3251,
      "contemporary": 3252,
      "##ode": 3253,
      "acting": 3254,
      "actions": 3255,
      "frame": 3256,
      "techn": 3257,
      "##udiated": 3258,
      "##ums": 3259,
      "index": 3260,
      "indeed": 3261,
      "manner": 3262,
      "peas": 3263,
      "##ucial": 3264,
      "##iktionary": 3265,
      "arrive": 3266,
      "times": 3267,
      "##gure": 3268,
      "##oston": 3269,
      "##ouses": 3270,
      "Anarchisme": 3271,
      "Anarchismus": 3272,
      "=\"-": 3273,
      "abol": 3274,
      "abuse": 3275,
      "above": 3276,
      "incid": 3277,
      "enough": 3278,
      "ensure": 3279,
      "entire": 3280,
      "namespaces": 3281,
      "##iah": 3282,
      "##vellers": 3283,
      "express": 3284,
      "distin": 3285,
      "disease": 3286,
      "disagree": 3287,
      "someone": 3288,
      "##andstate": 3289,
      "interact": 3290,
      "interven": 3291,
      "186": 3292,
      "182": 3293,
      "185": 3294,
      "1806": 3295,
      "parliament": 3296,
      "childhood": 3297,
      "add": 3298,
      "adher": 3299,
      "adopted": 3300,
      "##ouraged": 3301,
      "##ologists": 3302,
      "##ologue": 3303,
      "##illing": 3304,
      "next": 3305,
      "neocolonialism": 3306,
      "##erns": 3307,
      "cann": 3308,
      "direction": 3309,
      "seeking": 3310,
      "seealso": 3311,
      "##assination": 3312,
      "Stal": 3313,
      "##ively": 3314,
      "Speech": 3315,
      "##hone": 3316,
      "train": 3317,
      "##velopmental": 3318,
      "2001": 3319,
      "2003": 3320,
      "2004": 3321,
      "##iproc": 3322,
      "##oblogs": 3323,
      "##ency": 3324,
      "forms": 3325,
      "formed": 3326,
      "develops": 3327,
      "applying": 3328,
      "applied": 3329,
      "appleton": 3330,
      "generat": 3331,
      "##ublic": 3332,
      "relating": 3333,
      "ideology": 3334,
      "ideological": 3335,
      "proper": 3336,
      "propaganda": 3337,
      "proportion": 3338,
      "includes": 3339,
      "hear": 3340,
      "head": 3341,
      "hearing": 3342,
      "heterod": 3343,
      "she": 3344,
      "shar": 3345,
      "sharing": 3346,
      "xmlns": 3347,
      "##onomy": 3348,
      "repressive": 3349,
      "repeat": 3350,
      "repeated": 3351,
      "repudiated": 3352,
      ";/&": 3353,
      "minarch": 3354,
      "soon": 3355,
      "solely": 3356,
      "##ypocris": 3357,
      "##ortun": 3358,
      "strict": 3359,
      "resul": 3360,
      "##elled": 3361,
      "##ellig": 3362,
      "##ultural": 3363,
      "differing": 3364,
      "doing": 3365,
      "evolved": 3366,
      "opportun": 3367,
      "classro": 3368,
      "##antly": 3369,
      "##lishing": 3370,
      "assassination": 3371,
      "All": 3372,
      "Alger": 3373,
      "Alfred": 3374,
      "Who": 3375,
      "When": 3376,
      "persistent": 3377,
      "seen": 3378,
      "##ofeminism": 3379,
      "liberty": 3380,
      "prec": 3381,
      "publishing": 3382,
      "##ques": 3383,
      "##quate": 3384,
      "##timate": 3385,
      "behavioral": 3386,
      "authoritarianism": 3387,
      "AfghanistanTr": 3388,
      "Concep": 3389,
      "Conference": 3390,
      "mainly": 3391,
      "maintain": 3392,
      "platform": 3393,
      "upris": 3394,
      "]]''.": 3395,
      "insurrection": 3396,
      "##ifications": 3397,
      "access": 3398,
      "accomp": 3399,
      "according": 3400,
      "accurately": 3401,
      "##ilosophy": 3402,
      "Ams8": 3403,
      "Amoeb": 3404,
      "Libert": 3405,
      "Liberation": 3406,
      "factory": 3407,
      "outsp": 3408,
      "sitename": 3409,
      "economy": 3410,
      "Ital": 3411,
      "Leftism": 3412,
      "Levellers": 3413,
      "notion": 3414,
      "overwh": 3415,
      "overthr": 3416,
      "##ericourt": 3417,
      "therefore": 3418,
      "becoming": 3419,
      "communicating": 3420,
      "Communism": 3421,
      "Communist": 3422,
      "persons": 3423,
      "Society": 3424,
      "numbers": 3425,
      "postanarchism": 3426,
      "twenti": 3427,
      "taken": 3428,
      "takes": 3429,
      "##aware": 3430,
      "thoughts": 3431,
      "##titute": 3432,
      "introduc": 3433,
      "recent": 3434,
      "recollection": 3435,
      "reciproc": 3436,
      "attribut": 3437,
      "organization": 3438,
      "organised": 3439,
      "organized": 3440,
      "organisation": 3441,
      "organizations": 3442,
      "advance": 3443,
      "opposes": 3444,
      "opposing": 3445,
      "Fred": 3446,
      "Marxism": 3447,
      "Marxists": 3448,
      "Neal": 3449,
      "Unlike": 3450,
      "##oyment": 3451,
      "##T11": 3452,
      "regressive": 3453,
      "regulate": 3454,
      "revolutions": 3455,
      "partly": 3456,
      ">.<": 3457,
      "People": 3458,
      "Trad": 3459,
      "Trav": 3460,
      "True": 3461,
      "Transport": 3462,
      "Trabaj": 3463,
      "amoun": 3464,
      "crucial": 3465,
      "viewed": 3466,
      "wealth": 3467,
      "]]),": 3468,
      "subtle": 3469,
      "teaching": 3470,
      "popularity": 3471,
      "environments": 3472,
      "obs": 3473,
      "simply": 3474,
      "##liest": 3475,
      "1920s": 3476,
      "activities": 3477,
      "manifesto": 3478,
      "Bolshevism": 3479,
      "family": 3480,
      "familiar": 3481,
      "liter": 3482,
      "position": 3483,
      "positive": 3484,
      "signs": 3485,
      "##hops": 3486,
      "increased": 3487,
      "increases": 3488,
      "needs": 3489,
      "Workingmen": 3490,
      "175px": 3491,
      "Propaganda": 3492,
      "care": 3493,
      "carry": 3494,
      "decreed": 3495,
      "decentral": 3496,
      "founder": 3497,
      "founded": 3498,
      "monologue": 3499,
      "points": 3500,
      "respect": 3501,
      "respond": 3502,
      "response": 3503,
      "##ggers": 3504,
      "##ervous": 3505,
      "converse": 3506,
      "1934": 3507,
      "specifically": 3508,
      "levels": 3509,
      "explo": 3510,
      "explos": 3511,
      "meanings": 3512,
      "structure": 3513,
      "everyday": 3514,
      "25T2": 3515,
      "943": 3516,
      "division": 3517,
      "diversity": 3518,
      "diverse": 3519,
      "ethnic": 3520,
      "fix": 3521,
      "field": 3522,
      "figure": 3523,
      "larg": 3524,
      "membership": 3525,
      "pacifist": 3526,
      "setting": 3527,
      "writes": 3528,
      "anybody": 3529,
      "Anarkism": 3530,
      "condition": 3531,
      "whereby": 3532,
      "speaking": 3533,
      "arms": 3534,
      "army": 3535,
      "armed": 3536,
      "armoured": 3537,
      "1871": 3538,
      "seems": 3539,
      "professor": 3540,
      "collective": 3541,
      "focuses": 3542,
      "controversy": 3543,
      "03T0": 3544,
      "03T11": 3545,
      "20th": 3546,
      "Emile": 3547,
      "Mutualism": 3548,
      "creation": 3549,
      "created": 3550,
      "currents": 3551,
      "currently": 3552,
      "estimate": 3553,
      "unions": 3554,
      "commonly": 3555,
      "predic": 3556,
      "predict": 3557,
      "predomin": 3558,
      "statism": 3559,
      "stateless": 3560,
      "Institute": 3561,
      "1999": 3562,
      "leaders": 3563,
      "##itivists": 3564,
      "primitivism": 3565,
      "primitivists": 3566,
      "criticizes": 3567,
      "Statistics": 3568,
      "delayed": 3569,
      "similarities": 3570,
      "unusually": 3571,
      "Exp": 3572,
      "External": 3573,
      "Greene": 3574,
      "awaren": 3575,
      "bring": 3576,
      "branches": 3577,
      "elim": 3578,
      "egoist": 3579,
      "flag": 3580,
      "flapp": 3581,
      "militant": 3582,
      "milestones": 3583,
      "turns": 3584,
      "writings": 3585,
      "##hips": 3586,
      "##ruism": 3587,
      "##mining": 3588,
      "instance": 3589,
      "intense": 3590,
      "intentions": 3591,
      "##omputing": 3592,
      "reality": 3593,
      "1943": 3594,
      "worldwide": 3595,
      "encouraged": 3596,
      "experience": 3597,
      "China": 3598,
      "translated": 3599,
      "infants": 3600,
      "appeared": 3601,
      "beliefs": 3602,
      "attached": 3603,
      "definition": 3604,
      "imaginary": 3605,
      "09T13": 3606,
      "166": 3607,
      "Latin": 3608,
      "Plekhanov": 3609,
      "blackcray": 3610,
      "clear": 3611,
      "disturb": 3612,
      "destruc": 3613,
      "etc": 3614,
      "failure": 3615,
      "globalization": 3616,
      "himself": 3617,
      "hierarch": 3618,
      "illegitimate": 3619,
      "paid": 3620,
      "severe": 3621,
      "several": 3622,
      "smaller": 3623,
      "trigger": 3624,
      "triggers": 3625,
      "victorious": 3626,
      "##racy": 3627,
      "initiate": 3628,
      "receive": 3629,
      "received": 3630,
      "##undred": 3631,
      "exhibits": 3632,
      "modes": 3633,
      "absence": 3634,
      "absolute": 3635,
      "##sequent": 3636,
      "directly": 3637,
      "Assistive": 3638,
      "relationships": 3639,
      "allows": 3640,
      "impossible": 3641,
      "educational": 3642,
      "attempt": 3643,
      "attempted": 3644,
      "affected": 3645,
      "Armed": 3646,
      "Armand": 3647,
      "occurs": 3648,
      "democrat": 3649,
      "democracy": 3650,
      "thinkers": 3651,
      "originated": 3652,
      "routine": 3653,
      "routines": 3654,
      "continues": 3655,
      "continuum": 3656,
      "8029": 3657,
      "961": 3658,
      "967": 3659,
      "Applied": 3660,
      "Egoism": 3661,
      "Primitivism": 3662,
      "federations": 3663,
      "favor": 3664,
      "holds": 3665,
      "limit": 3666,
      "limited": 3667,
      "perform": 3668,
      "perhap": 3669,
      "racist": 3670,
      "ruling": 3671,
      "tau": 3672,
      "vocal": 3673,
      "vocab": 3674,
      "veget": 3675,
      "conclud": 3676,
      "concerns": 3677,
      "combination": 3678,
      "protest": 3679,
      "actually": 3680,
      "entering": 3681,
      "1884": 3682,
      "1840": 3683,
      "1848": 3684,
      "neurological": 3685,
      "apparent": 3686,
      "apparently": 3687,
      "genetic": 3688,
      "strongly": 3689,
      "inspire": 3690,
      "inspired": 3691,
      "science": 3692,
      "website": 3693,
      "Anarhism": 3694,
      "Anarhiz": 3695,
      "historical": 3696,
      "Encyclopedia": 3697,
      "Encyclopaedia": 3698,
      "ICD9": 3699,
      "Makhno": 3700,
      "Makhnov": 3701,
      "Anarchizmus": 3702,
      "explicitly": 3703,
      ">-<": 3704,
      "Austrian": 3705,
      "Accessible": 3706,
      "Berkman": 3707,
      "Criticisms": 3708,
      "Factor": 3709,
      "Ideas": 3710,
      "January": 3711,
      "Links": 3712,
      "Labour": 3713,
      "Organ": 3714,
      "Philosophy": 3715,
      "Taoism": 3716,
      "Teach": 3717,
      "Voluntaryist": 3718,
      "Within": 3719,
      "cur_id": 3720,
      "causes": 3721,
      "engage": 3722,
      "embrac": 3723,
      "earthly": 3724,
      "elections": 3725,
      "final": 3726,
      "female": 3727,
      "look": 3728,
      "middle": 3729,
      "necessarily": 3730,
      "operation": 3731,
      "pursu": 3732,
      "six": 3733,
      "slight": 3734,
      "utterly": 3735,
      "voice": 3736,
      "xsi": 3737,
      "##ramming": 3738,
      "##lined": 3739,
      "annihil": 3740,
      "uncon": 3741,
      "inherent": 3742,
      "reasons": 3743,
      "issues": 3744,
      "connection": 3745,
      "proudhon": 3746,
      "style": 3747,
      "alienation": 3748,
      "Intellectual": 3749,
      "determining": 3750,
      "church": 3751,
      "management": 3752,
      "display": 3753,
      "internationals": 3754,
      "aggression": 3755,
      "Studies": 3756,
      "eventual": 3757,
      "nonviolent": 3758,
      "Confederation": 3759,
      "schedules": 3760,
      "accounted": 3761,
      "siteinfo": 3762,
      "Communication": 3763,
      "desirable": 3764,
      "participated": 3765,
      "coercion": 3766,
      "##ounced": 3767,
      "Repetitive": 3768,
      "Johns": 3769,
      "patients": 3770,
      "psychiatrist": 3771,
      "Syndicalism": 3772,
      "achievement": 3773,
      "established": 3774,
      "justify": 3775,
      "periodical": 3776,
      "***": 3777,
      "299": 3778,
      "44Z": 3779,
      "7543": 3780,
      "9_2": 3781,
      "957": 3782,
      "Against": 3783,
      "Alexander": 3784,
      "Barcel": 3785,
      "Congress": 3786,
      "Déjacque": 3787,
      "Dutch": 3788,
      "Docu": 3789,
      "Foreign": 3790,
      "Globalization": 3791,
      "Help": 3792,
      "IWW": 3793,
      "Josiah": 3794,
      "Jenny": 3795,
      "Louis": 3796,
      "Malatest": 3797,
      "Nestor": 3798,
      "Nevertheless": 3799,
      "Portal": 3800,
      "Pacifism": 3801,
      "Racist": 3802,
      "Rett": 3803,
      "Research": 3804,
      "Saul": 3805,
      "Subsequent": 3806,
      "Template": 3807,
      "Utopia": 3808,
      "Violence": 3809,
      "WTO": 3810,
      "Zeno": 3811,
      "aiming": 3812,
      "bullets": 3813,
      "broad": 3814,
      "brought": 3815,
      "celeb": 3816,
      "cgi": 3817,
      "calming": 3818,
      "coup": 3819,
      "camps": 3820,
      "cuddling": 3821,
      "dedicated": 3822,
      "doctr": 3823,
      "earliest": 3824,
      "epidemic": 3825,
      "figures": 3826,
      "freedom": 3827,
      "gutenberg": 3828,
      "godandstate": 3829,
      "gallery": 3830,
      "gatherer": 3831,
      "gaze": 3832,
      "hunter": 3833,
      "moment": 3834,
      "motor": 3835,
      "multiple": 3836,
      "mirror": 3837,
      "million": 3838,
      "mainstream": 3839,
      "paper": 3840,
      "said": 3841,
      "susp": 3842,
      "source": 3843,
      "seven": 3844,
      "sounds": 3845,
      "tremend": 3846,
      "value": 3847,
      "votes": 3848,
      "variant": 3849,
      "verbal": 3850,
      "##_kl2": 3851,
      "##fects": 3852,
      "##onymous": 3853,
      "##integrative": 3854,
      "##allel": 3855,
      "totse": 3856,
      "Anglophone": 3857,
      "conceivable": 3858,
      "product": 3859,
      "programming": 3860,
      "whatever": 3861,
      "forerunners": 3862,
      "suggested": 3863,
      "sudden": 3864,
      "chimpanzee": 3865,
      "spontaneous": 3866,
      "entirely": 3867,
      "distinct": 3868,
      "disagreement": 3869,
      "180637": 3870,
      "parliamentary": 3871,
      "generator": 3872,
      "heterodox": 3873,
      "repeatedly": 3874,
      "##ypocrisy": 3875,
      "classroom": 3876,
      "Ams80": 3877,
      "Amoeboid": 3878,
      "outspoken": 3879,
      "overwhelming": 3880,
      "twentieth": 3881,
      "introduced": 3882,
      "recollectionbooks": 3883,
      "Transportation": 3884,
      "Trabajo": 3885,
      "25T22": 3886,
      "predominantly": 3887,
      "awareness": 3888,
      "flapping": 3889,
      "blackcrayon": 3890,
      "destruction": 3891,
      "triggering": 3892,
      "democrats": 3893,
      "perhaps": 3894,
      "Barcelona": 3895,
      "Malatesta": 3896,
      "tremendous": 3897,
      "'<": 3898,
      "'[[": 3899,
      "(&": 3900,
      "):": 3901,
      ")]]": 3902,
      ")'',": 3903,
      "-<": 3904,
      ".]": 3905,
      ".)": 3906,
      ".''": 3907,
      "/]": 3908,
      "/&": 3909,
      "/\"": 3910,
      "/~": 3911,
      "01": 3912,
      "00": 3913,
      "068": 3914,
      "23": 3915,
      "26": 3916,
      "24": 3917,
      "20s": 3918,
      "30": 3919,
      "38": 3920,
      "37": 3921,
      "32": 3922,
      "35": 3923,
      "30s": 3924,
      "46": 3925,
      "400": 3926,
      "570": 3927,
      "60": 3928,
      "6alph": 3929,
      "614": 3930,
      "70s": 3931,
      "85": 3932,
      "832": 3933,
      "91": 3934,
      ":&": 3935,
      ";]": 3936,
      ";'": 3937,
      ">&": 3938,
      ">|": 3939,
      ">#": 3940,
      ">##": 3941,
      ">--": 3942,
      "?]": 3943,
      "?]]": 3944,
      "Aa": 3945,
      "Ac": 3946,
      "Au": 3947,
      "Ab": 3948,
      "AS": 3949,
      "AN": 3950,
      "AA": 3951,
      "Aub": 3952,
      "Acc": 3953,
      "Ayn": 3954,
      "Avant": 3955,
      "Be": 3956,
      "BY": 3957,
      "Bon": 3958,
      "Bal": 3959,
      "Ble": 3960,
      "Bour": 3961,
      "Both": 3962,
      "Bible": 3963,
      "Bread": 3964,
      "Budd": 3965,
      "Bank": 3966,
      "Bomb": 3967,
      "Bleed": 3968,
      "Bours": 3969,
      "Books": 3970,
      "Blogs": 3971,
      "Boston": 3972,
      "Cal": 3973,
      "Can": 3974,
      "Cat": 3975,
      "Col": 3976,
      "Cop": 3977,
      "Citi": 3978,
      "Cyp": 3979,
      "Cogn": 3980,
      "Cerc": 3981,
      "Counc": 3982,
      "Class": 3983,
      "Cultural": 3984,
      "Den": 3985,
      "Des": 3986,
      "Dic": 3987,
      "Del": 3988,
      "Dem": 3989,
      "Daily": 3990,
      "Dynam": 3991,
      "Distor": 3992,
      "Ed": 3993,
      "El": 3994,
      "Ep": 3995,
      "Eb": 3996,
      "Ef": 3997,
      "Eas": 3998,
      "Ever": 3999,
      "Eight": 4000,
      "Even": 4001,
      "Eug": 4002,
      "Epid": 4003,
      "Ess": 4004,
      "F8": 4005,
      "Fé": 4006,
      "Fre": 4007,
      "Fac": 4008,
      "Femin": 4009,
      "Form": 4010,
      "Free": 4011,
      "Food": 4012,
      "Further": 4013,
      "Fabb": 4014,
      "Few": 4015,
      "Fried": 4016,
      "Gr": 4017,
      "G8": 4018,
      "GN": 4019,
      "Gé": 4020,
      "GO": 4021,
      "Gary": 4022,
      "Gill": 4023,
      "Group": 4024,
      "Gra": 4025,
      "Geek": 4026,
      "Hu": 4027,
      "Hé": 4028,
      "Har": 4029,
      "Hop": 4030,
      "Hos": 4031,
      "Hay": 4032,
      "Hum": 4033,
      "Hust": 4034,
      "Hear": 4035,
      "Hart": 4036,
      "Holy": 4037,
      "Hitler": 4038,
      "Histor": 4039,
      "Hutter": 4040,
      "Howard": 4041,
      "Hericourt": 4042,
      "Hundred": 4043,
      "Hypocrisy": 4044,
      "Is": 4045,
      "IS": 4046,
      "II": 4047,
      "Ire": 4048,
      "Iain": 4049,
      "Imp": 4050,
      "Je": 4051,
      "Js": 4052,
      "JP": 4053,
      "Jas": 4054,
      "Jac": 4055,
      "Jul": 4056,
      "Jus": 4057,
      "Just": 4058,
      "Joy": 4059,
      "Kr": 4060,
      "Karl": 4061,
      "Komb": 4062,
      "Killing": 4063,
      "Lu": 4064,
      "Lor": 4065,
      "Lom": 4066,
      "Ling": 4067,
      "Lac": 4068,
      "Low": 4069,
      "Let": 4070,
      "Land": 4071,
      "Langu": 4072,
      "Lys": 4073,
      "Law": 4074,
      "Later": 4075,
      "Ludd": 4076,
      "Local": 4077,
      "Me": 4078,
      "Mb": 4079,
      "MR": 4080,
      "MI": 4081,
      "Mas": 4082,
      "Mod": 4083,
      "Mary": 4084,
      "Mill": 4085,
      "Members": 4086,
      "Major": 4087,
      "Meth": 4088,
      "Miss": 4089,
      "Medical": 4090,
      "Magaz": 4091,
      "Minist": 4092,
      "Meeting": 4093,
      "NE": 4094,
      "NO": 4095,
      "Non": 4096,
      "Nar": 4097,
      "Nat": 4098,
      "Nac": 4099,
      "Name": 4100,
      "Naz": 4101,
      "None": 4102,
      "Nih": 4103,
      "North": 4104,
      "Nervous": 4105,
      "Ox": 4106,
      "Ow": 4107,
      "Opp": 4108,
      "Occ": 4109,
      "Own": 4110,
      "Ohn": 4111,
      "Pu": 4112,
      "PD": 4113,
      "Pan": 4114,
      "Pat": 4115,
      "Pou": 4116,
      "Pol": 4117,
      "Pers": 4118,
      "Pap": 4119,
      "Press": 4120,
      "Pear": 4121,
      "Poin": 4122,
      "Past": 4123,
      "Psych": 4124,
      "Poly": 4125,
      "Produc": 4126,
      "Pediat": 4127,
      "Pervasive": 4128,
      "Public": 4129,
      "Qu": 4130,
      "Ro": 4131,
      "Ric": 4132,
      "Rel": 4133,
      "Roc": 4134,
      "Ros": 4135,
      "Rain": 4136,
      "Rud": 4137,
      "Rum": 4138,
      "Rous": 4139,
      "Sc": 4140,
      "Se": 4141,
      "Sw": 4142,
      "SI": 4143,
      "SO": 4144,
      "Ser": 4145,
      "San": 4146,
      "Sing": 4147,
      "Sir": 4148,
      "Sec": 4149,
      "Sever": 4150,
      "Sect": 4151,
      "Self": 4152,
      "Sov": 4153,
      "Sci": 4154,
      "Still": 4155,
      "Seat": 4156,
      "Section": 4157,
      "Short": 4158,
      "TH": 4159,
      "Tor": 4160,
      "Tac": 4161,
      "Tod": 4162,
      "Term": 4163,
      "Typ": 4164,
      "Tens": 4165,
      "Tex": 4166,
      "Tox": 4167,
      "Toward": 4168,
      "Uk": 4169,
      "Use": 4170,
      "Utopian": 4171,
      "Urs": 4172,
      "VI": 4173,
      "Vangu": 4174,
      "Version": 4175,
      "Volt": 4176,
      "Would": 4177,
      "Wend": 4178,
      "Woll": 4179,
      "Wiki": 4180,
      "Wood": 4181,
      "Writing": 4182,
      "Women": 4183,
      "Wolf": 4184,
      "Wiktionary": 4185,
      "Xu": 4186,
      "XM": 4187,
      "York": 4188,
      "Zer": 4189,
      "Zinn": 4190,
      "[,": 4191,
      "],": 4192,
      "ai": 4193,
      "au": 4194,
      "aan": 4195,
      "aol": 4196,
      "ast": 4197,
      "aud": 4198,
      "apx": 4199,
      "aries": 4200,
      "bc": 4201,
      "bs": 4202,
      "bu": 4203,
      "bl": 4204,
      "bg": 4205,
      "bo": 4206,
      "ber": 4207,
      "bon": 4208,
      "ban": 4209,
      "bit": 4210,
      "bil": 4211,
      "bri": 4212,
      "bay": 4213,
      "bus": 4214,
      "bab": 4215,
      "bad": 4216,
      "bure": 4217,
      "ball": 4218,
      "bakunin": 4219,
      "bank": 4220,
      "bomb": 4221,
      "babb": 4222,
      "border": 4223,
      "bath": 4224,
      "cs": 4225,
      "cu": 4226,
      "cy": 4227,
      "cf": 4228,
      "cas": 4229,
      "cop": 4230,
      "city": 4231,
      "cris": 4232,
      "coo": 4233,
      "cope": 4234,
      "cite": 4235,
      "category": 4236,
      "cease": 4237,
      "cock": 4238,
      "da": 4239,
      "dh": 4240,
      "du": 4241,
      "dv": 4242,
      "df": 4243,
      "der": 4244,
      "don": 4245,
      "den": 4246,
      "dan": 4247,
      "dism": 4248,
      "dam": 4249,
      "dri": 4250,
      "dog": 4251,
      "dig": 4252,
      "dans": 4253,
      "dress": 4254,
      "dates": 4255,
      "distance": 4256,
      "down": 4257,
      "david": 4258,
      "dram": 4259,
      "eu": 4260,
      "eg": 4261,
      "eo": 4262,
      "eti": 4263,
      "ech": 4264,
      "ele": 4265,
      "eur": 4266,
      "elec": 4267,
      "earn": 4268,
      "elect": 4269,
      "ety": 4270,
      "era": 4271,
      "earl": 4272,
      "ers": 4273,
      "equate": 4274,
      "fer": 4275,
      "fic": 4276,
      "fre": 4277,
      "fol": 4278,
      "fel": 4279,
      "fun": 4280,
      "fet": 4281,
      "figh": 4282,
      "four": 4283,
      "font": 4284,
      "find": 4285,
      "gh": 4286,
      "ge": 4287,
      "gm": 4288,
      "gu": 4289,
      "gor": 4290,
      "gre": 4291,
      "gun": 4292,
      "germ": 4293,
      "gold": 4294,
      "goldman": 4295,
      "gives": 4296,
      "graph": 4297,
      "ground": 4298,
      "giving": 4299,
      "hu": 4300,
      "hin": 4301,
      "hol": 4302,
      "hop": 4303,
      "hur": 4304,
      "hid": 4305,
      "home": 4306,
      "hard": 4307,
      "hip": 4308,
      "happ": 4309,
      "hart": 4310,
      "hug": 4311,
      "hosts": 4312,
      "hitler": 4313,
      "hericourt": 4314,
      "hundred": 4315,
      "hypocrisy": 4316,
      "ig": 4317,
      "iww": 4318,
      "image": 4319,
      "ja": 4320,
      "jo": 4321,
      "joy": 4322,
      "joseph": 4323,
      "jsp": 4324,
      "ko": 4325,
      "kee": 4326,
      "kanner": 4327,
      "lu": 4328,
      "lou": 4329,
      "las": 4330,
      "lth": 4331,
      "ligh": 4332,
      "light": 4333,
      "last": 4334,
      "lower": 4335,
      "lang": 4336,
      "linger": 4337,
      "loved": 4338,
      "local": 4339,
      "losing": 4340,
      "ms": 4341,
      "mer": 4342,
      "mut": 4343,
      "mac": 4344,
      "mel": 4345,
      "met": 4346,
      "mess": 4347,
      "mere": 4348,
      "mild": 4349,
      "magn": 4350,
      "mother": 4351,
      "mater": 4352,
      "mute": 4353,
      "merg": 4354,
      "mention": 4355,
      "moral": 4356,
      "mentally": 4357,
      "mime": 4358,
      "meeting": 4359,
      "nn": 4360,
      "ns": 4361,
      "nl": 4362,
      "nor": 4363,
      "nan": 4364,
      "nation": 4365,
      "nuc": 4366,
      "national": 4367,
      "nice": 4368,
      "north": 4369,
      "node": 4370,
      "nervous": 4371,
      "ol": 4372,
      "overs": 4373,
      "odd": 4374,
      "pt": 4375,
      "pd": 4376,
      "po": 4377,
      "pan": 4378,
      "put": 4379,
      "pot": 4380,
      "pol": 4381,
      "png": 4382,
      "pse": 4383,
      "port": 4384,
      "pair": 4385,
      "panarch": 4386,
      "pages": 4387,
      "portion": 4388,
      "pinn": 4389,
      "ra": 4390,
      "rv": 4391,
      "ren": 4392,
      "rit": 4393,
      "rom": 4394,
      "ram": 4395,
      "riv": 4396,
      "rif": 4397,
      "rose": 4398,
      "rout": 4399,
      "rob": 4400,
      "rub": 4401,
      "rural": 4402,
      "range": 4403,
      "rank": 4404,
      "rising": 4405,
      "roles": 4406,
      "sr": 4407,
      "sm": 4408,
      "sat": 4409,
      "sel": 4410,
      "soc": 4411,
      "sun": 4412,
      "sur": 4413,
      "samp": 4414,
      "sig": 4415,
      "semin": 4416,
      "sect": 4417,
      "squ": 4418,
      "sens": 4419,
      "sally": 4420,
      "sights": 4421,
      "stirner": 4422,
      "sought": 4423,
      "solidarity": 4424,
      "ten": 4425,
      "tas": 4426,
      "tell": 4427,
      "tree": 4428,
      "table": 4429,
      "tone": 4430,
      "temporary": 4431,
      "tests": 4432,
      "ul": 4433,
      "uph": 4434,
      "vl": 4435,
      "vit": 4436,
      "vul": 4437,
      "vir": 4438,
      "vain": 4439,
      "voy": 4440,
      "vaz": 4441,
      "vague": 4442,
      "wa": 4443,
      "w3": 4444,
      "went": 4445,
      "wild": 4446,
      "wigg": 4447,
      "women": 4448,
      "wants": 4449,
      "wiktionary": 4450,
      "you": 4451,
      "yet": 4452,
      "your": 4453,
      "zm": 4454,
      "zete": 4455,
      "|'": 4456,
      "|*": 4457,
      "élit": 4458,
      "##tu": 4459,
      "##tist": 4460,
      "##ters": 4461,
      "##tate": 4462,
      "##tog": 4463,
      "##tail": 4464,
      "##tely": 4465,
      "##tari": 4466,
      "##tra": 4467,
      "##toni": 4468,
      "##town": 4469,
      "##t19": 4470,
      "##tography": 4471,
      "##tries": 4472,
      "##truism": 4473,
      "##ah": 4474,
      "##au": 4475,
      "##aac": 4476,
      "##atic": 4477,
      "##aud": 4478,
      "##auc": 4479,
      "##aev": 4480,
      "##aire": 4481,
      "##atically": 4482,
      "##cy": 4483,
      "##co": 4484,
      "##cle": 4485,
      "##cent": 4486,
      "##cas": 4487,
      "##cri": 4488,
      "##cce": 4489,
      "##cest": 4490,
      "##cap": 4491,
      "##cum": 4492,
      "##cence": 4493,
      "##ctive": 4494,
      "##cern": 4495,
      "##cies": 4496,
      "##cious": 4497,
      "##cination": 4498,
      "##conomy": 4499,
      "##computing": 4500,
      "##hs": 4501,
      "##hen": 4502,
      "##hed": 4503,
      "##hist": 4504,
      "##has": 4505,
      "##hag": 4506,
      "##hous": 4507,
      "##haw": 4508,
      "##hind": 4509,
      "##hingness": 4510,
      "##eal": 4511,
      "##eent": 4512,
      "##eople": 4513,
      "##ext": 4514,
      "##eph": 4515,
      "##echnology": 4516,
      "##eography": 4517,
      "##equate": 4518,
      "##dr": 4519,
      "##di": 4520,
      "##dé": 4521,
      "##den": 4522,
      "##dly": 4523,
      "##dity": 4524,
      "##dated": 4525,
      "##deb": 4526,
      "##darity": 4527,
      "##na": 4528,
      "##no": 4529,
      "##né": 4530,
      "##nle": 4531,
      "##noc": 4532,
      "##net": 4533,
      "##nore": 4534,
      "##nia": 4535,
      "##nip": 4536,
      "##nings": 4537,
      "##nected": 4538,
      "##necess": 4539,
      "##ntry": 4540,
      "##rom": 4541,
      "##ring": 4542,
      "##rain": 4543,
      "##resp": 4544,
      "##rand": 4545,
      "##ract": 4546,
      "##rors": 4547,
      "##rale": 4548,
      "##rits": 4549,
      "##rock": 4550,
      "##rnle": 4551,
      "##kent": 4552,
      "##iA": 4553,
      "##ient": 4554,
      "##iment": 4555,
      "##ios": 4556,
      "##iap": 4557,
      "##igu": 4558,
      "##iology": 4559,
      "##irect": 4560,
      "##ique": 4561,
      "##iismo": 4562,
      "##iological": 4563,
      "##icher": 4564,
      "##iologists": 4565,
      "##iques": 4566,
      "##sor": 4567,
      "##sil": 4568,
      "##sid": 4569,
      "##sess": 4570,
      "##sity": 4571,
      "##sell": 4572,
      "##scrib": 4573,
      "##ssu": 4574,
      "##schina": 4575,
      "##mm": 4576,
      "##mod": 4577,
      "##mology": 4578,
      "##marx": 4579,
      "##mely": 4580,
      "##mise": 4581,
      "##mine": 4582,
      "##meth": 4583,
      "##movement": 4584,
      "##m200": 4585,
      "##ux": 4586,
      "##ule": 4587,
      "##uation": 4588,
      "##uce": 4589,
      "##uum": 4590,
      "##uations": 4591,
      "##uell": 4592,
      "##uine": 4593,
      "##upation": 4594,
      "##uistics": 4595,
      "##uze": 4596,
      "##lo": 4597,
      "##lar": 4598,
      "##liv": 4599,
      "##lap": 4600,
      "##lik": 4601,
      "##land": 4602,
      "##lant": 4603,
      "##law": 4604,
      "##line": 4605,
      "##lroy": 4606,
      "##loyment": 4607,
      "##y_": 4608,
      "##ying": 4609,
      "##you": 4610,
      "##ync": 4611,
      "##yond": 4612,
      "##_P": 4613,
      "##_b": 4614,
      "##_f": 4615,
      "##_7": 4616,
      "##_3": 4617,
      "##_or": 4618,
      "##_re": 4619,
      "##_pre": 4620,
      "##_to": 4621,
      "##_tu": 4622,
      "##_computing": 4623,
      "##_marx": 4624,
      "##_y_": 4625,
      "##People": 4626,
      "##gs": 4627,
      "##gen": 4628,
      "##get": 4629,
      "##god": 4630,
      "##group": 4631,
      "##ground": 4632,
      "##gatively": 4633,
      "##Geography": 4634,
      "##oS": 4635,
      "##oon": 4636,
      "##oti": 4637,
      "##oan": 4638,
      "##oil": 4639,
      "##oits": 4640,
      "##oots": 4641,
      "##oops": 4642,
      "##vin": 4643,
      "##val": 4644,
      "##vation": 4645,
      "##vate": 4646,
      "##vious": 4647,
      "##view": 4648,
      "##vinc": 4649,
      "##voting": 4650,
      "##vices": 4651,
      "##por": 4652,
      "##ption": 4653,
      "##put": 4654,
      "##pos": 4655,
      "##pted": 4656,
      "##pub": 4657,
      "##pro": 4658,
      "##pics": 4659,
      "##poli": 4660,
      "##peti": 4661,
      "##pute": 4662,
      "##punk": 4663,
      "##posts": 4664,
      "##pressed": 4665,
      "##pital": 4666,
      "##pective": 4667,
      "##CW": 4668,
      "##Com": 4669,
      "##Cul": 4670,
      "##Computing": 4671,
      "##Dis": 4672,
      "##11": 4673,
      "##18": 4674,
      "##16": 4675,
      "##1net": 4676,
      "##1pub": 4677,
      "##019": 4678,
      "##020": 4679,
      "##jp": 4680,
      "##jó": 4681,
      "##jud": 4682,
      "##just": 4683,
      "##jury": 4684,
      "##jug": 4685,
      "##joyment": 4686,
      "##xist": 4687,
      "##xing": 4688,
      "##xts": 4689,
      "##ber": 4690,
      "##bor": 4691,
      "##bal": 4692,
      "##bit": 4693,
      "##bur": 4694,
      "##bility": 4695,
      "##bigu": 4696,
      "##fac": 4697,
      "##fers": 4698,
      "##fies": 4699,
      "##fect": 4700,
      "##faction": 4701,
      "##fsh": 4702,
      "##fied": 4703,
      "##fessed": 4704,
      "##filling": 4705,
      "##ws": 4706,
      "##way": 4707,
      "##well": 4708,
      "##wood": 4709,
      "##ware": 4710,
      "##work": 4711,
      "##wrock": 4712,
      "##woS": 4713,
      "##),": 4714,
      "##82": 4715,
      "##832": 4716,
      "##77": 4717,
      "##770": 4718,
      "##720": 4719,
      "##96": 4720,
      "##94": 4721,
      "##95": 4722,
      "##31": 4723,
      "##33": 4724,
      "##382": 4725,
      "##TE": 4726,
      "##TS": 4727,
      "##Tucker": 4728,
      "##Tax": 4729,
      "##Tolstoy": 4730,
      "##Truism": 4731,
      "##Technology": 4732,
      "##TwoS": 4733,
      "##zo": 4734,
      "##zan": 4735,
      "##zick": 4736,
      "##Ethics": 4737,
      "##Economy": 4738,
      "##Elroy": 4739,
      "##Sch": 4740,
      "##Sam": 4741,
      "##STS": 4742,
      "##RS": 4743,
      "##60s": 4744,
      "##615": 4745,
      "##41": 4746,
      "##4832": 4747,
      "##213": 4748,
      "##59": 4749,
      "##52": 4750,
      "##ée": 4751,
      "##édé": 4752,
      "##Inc": 4753,
      "##Issu": 4754,
      "##ISTS": 4755,
      "##Utopian": 4756,
      "##URC": 4757,
      "##AT": 4758,
      "##Aut": 4759,
      "##ARC": 4760,
      "##History": 4761,
      "##HISTS": 4762,
      "##Kay": 4763,
      "##Most": 4764,
      "##Milit": 4765,
      "##LD": 4766,
      "##Loc": 4767,
      "##LSch": 4768,
      "##óng": 4769,
      "##Joseph": 4770,
      "##isst": 4771,
      "##isations": 4772,
      "##isational": 4773,
      "##isons": 4774,
      "##iscent": 4775,
      "##isfaction": 4776,
      "##eron": 4777,
      "##erim": 4778,
      "##erial": 4779,
      "##erates": 4780,
      "thri": 4781,
      "thir": 4782,
      "three": 4783,
      "thick": 4784,
      "thóng": 4785,
      "##oned": 4786,
      "##oning": 4787,
      "##onia": 4788,
      "##onding": 4789,
      "##onale": 4790,
      "##onets": 4791,
      "##artic": 4792,
      "##arised": 4793,
      "##arhaw": 4794,
      "##ar_y_": 4795,
      "##tiations": 4796,
      "##tite": 4797,
      "##tially": 4798,
      "anom": 4799,
      "anth": 4800,
      "anger": 4801,
      "ancient": 4802,
      "anonymous": 4803,
      "ancest": 4804,
      "theft": 4805,
      "thelaw": 4806,
      "##enal": 4807,
      "##enage": 4808,
      "##enous": 4809,
      "##entive": 4810,
      "##enomen": 4811,
      "##enhag": 4812,
      "##enpro": 4813,
      "##enzo": 4814,
      "##inal": 4815,
      "##inle": 4816,
      "##inists": 4817,
      "##inter": 4818,
      "##inion": 4819,
      "##inate": 4820,
      "##inity": 4821,
      "##intern": 4822,
      "##inance": 4823,
      "##inese": 4824,
      "unre": 4825,
      "unst": 4826,
      "unex": 4827,
      "unwin": 4828,
      "unint": 4829,
      "unaware": 4830,
      "unnecess": 4831,
      "ungod": 4832,
      "##esoci": 4833,
      "##estically": 4834,
      "##oron": 4835,
      "##ores": 4836,
      "##orists": 4837,
      "##orate": 4838,
      "##orum": 4839,
      "##orting": 4840,
      "##oralism": 4841,
      "##orph": 4842,
      "##orge": 4843,
      "##orification": 4844,
      "##ornia": 4845,
      "##orpor": 4846,
      "]]-": 4847,
      "]];": 4848,
      "##chan": 4849,
      "##ched": 4850,
      "##chard": 4851,
      "##chair": 4852,
      "##chaev": 4853,
      "##als": 4854,
      "##alia": 4855,
      "##alition": 4856,
      "##alitarian": 4857,
      "##alised": 4858,
      "##altimes": 4859,
      "##alistically": 4860,
      "##aluation": 4861,
      "##alonia": 4862,
      "unknow": 4863,
      "##anle": 4864,
      "##anation": 4865,
      "##aners": 4866,
      "##anity": 4867,
      "##anied": 4868,
      "##anions": 4869,
      "##anco": 4870,
      "##anno": 4871,
      "official": 4872,
      "offsh": 4873,
      "##eding": 4874,
      "##ediance": 4875,
      "inev": 4876,
      "inapp": 4877,
      "ings": 4878,
      "input": 4879,
      "injury": 4880,
      "##ator": 4881,
      "##atter": 4882,
      "##atory": 4883,
      "##atures": 4884,
      "##attari": 4885,
      "##at_pre": 4886,
      "##ité": 4887,
      "##itly": 4888,
      "##itud": 4889,
      "##itten": 4890,
      "##itory": 4891,
      "##itable": 4892,
      "##itt19": 4893,
      "##ismu": 4894,
      "##ismic": 4895,
      "##ismov": 4896,
      "##istem": 4897,
      "##istency": 4898,
      "##ommon": 4899,
      "##ommod": 4900,
      "##omesoci": 4901,
      "##omorph": 4902,
      "toy": 4903,
      "toes": 4904,
      "toys": 4905,
      "toge": 4906,
      "touch": 4907,
      "took": 4908,
      "todd": 4909,
      "topic": 4910,
      "topics": 4911,
      "##lear": 4912,
      "##letic": 4913,
      "##left": 4914,
      "##leftism": 4915,
      "##levant": 4916,
      "##leuze": 4917,
      "##ente": 4918,
      "##entist": 4919,
      "##entri": 4920,
      "##entric": 4921,
      "##otence": 4922,
      "##otte": 4923,
      "##otypical": 4924,
      "##otar_y_": 4925,
      "##ican": 4926,
      "##ications": 4927,
      "##icapp": 4928,
      "##icron": 4929,
      "##icators": 4930,
      "anarchoblogs": 4931,
      "reem": 4932,
      "remin": 4933,
      "retain": 4934,
      "relevant": 4935,
      "##asp": 4936,
      "##asing": 4937,
      "##asion": 4938,
      "##asian": 4939,
      "##aste": 4940,
      "##asional": 4941,
      "##rees": 4942,
      "##reac": 4943,
      "##retic": 4944,
      "##rease": 4945,
      "##reets": 4946,
      "##repan": 4947,
      "##rective": 4948,
      "##reicher": 4949,
      "##olism": 4950,
      "##olph": 4951,
      "##olves": 4952,
      "##olalia": 4953,
      "##sts": 4954,
      "##stention": 4955,
      "##stances": 4956,
      "##streicher": 4957,
      "##operation": 4958,
      "##acy": 4959,
      "##acle": 4960,
      "##acic": 4961,
      "##acus": 4962,
      "##acres": 4963,
      "##acott": 4964,
      "##ams": 4965,
      "##amed": 4966,
      "##amental": 4967,
      "##amiliar": 4968,
      "##iles": 4969,
      "##ilies": 4970,
      "autos": 4971,
      "##elo": 4972,
      "##elle": 4973,
      "##eling": 4974,
      "##eline": 4975,
      "asp": 4976,
      "##ticians": 4977,
      "Antoni": 4978,
      "##riet": 4979,
      "##riev": 4980,
      "##rities": 4981,
      "##right": 4982,
      "##ocols": 4983,
      "##ocentric": 4984,
      "quick": 4985,
      "##thouses": 4986,
      "began": 4987,
      "behind": 4988,
      "beyond": 4989,
      "##osely": 4990,
      "##os_d": 4991,
      "##ersal": 4992,
      "conver": 4993,
      "concl": 4994,
      "construct": 4995,
      "coming": 4996,
      "idios": 4997,
      "##tered": 4998,
      "##tering": 4999,
      "##terpar": 5000,
      "##uns": 5001,
      "##unct": 5002,
      "##unismo": 5003,
      "withdr": 5004,
      "Thus": 5005,
      "Those": 5006,
      "Though": 5007,
      "Therap": 5008,
      "proved": 5009,
      "prisons": 5010,
      "##urity": 5011,
      "##uralism": 5012,
      "##urdity": 5013,
      "##ursor": 5014,
      "''[": 5015,
      "'']": 5016,
      "'':": 5017,
      "'']&": 5018,
      "''),": 5019,
      "##cemb": 5020,
      "##iden": 5021,
      "##ided": 5022,
      "##idst": 5023,
      "##iders": 5024,
      "##identally": 5025,
      "Anarchoblogs": 5026,
      "whether": 5027,
      "whilst": 5028,
      "whm200": 5029,
      "##ula": 5030,
      "##uler": 5031,
      "##ulary": 5032,
      "##ulated": 5033,
      "##ulating": 5034,
      "##ulsive": 5035,
      "##ulaware": 5036,
      "forum": 5037,
      "forward": 5038,
      "foreign": 5039,
      "##ems": 5040,
      "##emies": 5041,
      "##emID": 5042,
      "##emiologists": 5043,
      "##ocious": 5044,
      "##ocities": 5045,
      "refers": 5046,
      "reform": 5047,
      "reflec": 5048,
      "refuted": 5049,
      "refused": 5050,
      "##owd": 5051,
      "##owed": 5052,
      "stop": 5053,
      "stab": 5054,
      "story": 5055,
      "stated": 5056,
      "stand": 5057,
      "stages": 5058,
      "step": 5059,
      "stew": 5060,
      "stances": 5061,
      "##imax": 5062,
      "##imized": 5063,
      "##etal": 5064,
      "##etown": 5065,
      "##ecting": 5066,
      "##ecra": 5067,
      "##ecuted": 5068,
      "##eciden": 5069,
      "##iffer": 5070,
      "##ifies": 5071,
      "##ified": 5072,
      "##ifornia": 5073,
      "##usation": 5074,
      "##usion": 5075,
      "##usive": 5076,
      "##ushed": 5077,
      "exists": 5078,
      "exile": 5079,
      "excl": 5080,
      "extr": 5081,
      "external": 5082,
      "exempl": 5083,
      "exchange": 5084,
      "extra": 5085,
      "exiles": 5086,
      "online": 5087,
      "Their": 5088,
      "Theorists": 5089,
      "alph": 5090,
      "alread": 5091,
      "altog": 5092,
      "##uals": 5093,
      "motion": 5094,
      "move": 5095,
      "motions": 5096,
      "moves": 5097,
      "autismnoc": 5098,
      "##essment": 5099,
      "sure": 5100,
      "super": 5101,
      "succe": 5102,
      "summ": 5103,
      "usual": 5104,
      "usher": 5105,
      "##vered": 5106,
      "##verbal": 5107,
      "deal": 5108,
      "dejacque": 5109,
      "depart": 5110,
      "deep": 5111,
      "depic": 5112,
      "devices": 5113,
      "depressed": 5114,
      "notably": 5115,
      "nothingness": 5116,
      "##abilities": 5117,
      "##aborate": 5118,
      "sociology": 5119,
      "socities": 5120,
      "societal": 5121,
      "##iant": 5122,
      "##iances": 5123,
      "]].)": 5124,
      "]].&": 5125,
      "]].''": 5126,
      "##mpenpro": 5127,
      "##munications": 5128,
      "anarchiste": 5129,
      "chat": 5130,
      "chie": 5131,
      "change": 5132,
      "cheek": 5133,
      "ch03": 5134,
      "chinese": 5135,
      "##apon": 5136,
      "##apter": 5137,
      "##aphor": 5138,
      "##apjp": 5139,
      "##aceful": 5140,
      "1969": 5141,
      "1960s": 5142,
      "1959": 5143,
      "spain": 5144,
      "sp00": 5145,
      "spunk": 5146,
      "split": 5147,
      "spoil": 5148,
      "##tp3": 5149,
      "##ada": 5150,
      "##ades": 5151,
      "##adings": 5152,
      "##ademic": 5153,
      "##ademy": 5154,
      "##ighbor": 5155,
      "content": 5156,
      "contact": 5157,
      "contents": 5158,
      "contex": 5159,
      "context": 5160,
      "##akened": 5161,
      "##odology": 5162,
      "##odiversity": 5163,
      "leav": 5164,
      "leaving": 5165,
      "legiti": 5166,
      "legitimate": 5167,
      "lewrock": 5168,
      "sync": 5169,
      "academic": 5170,
      "frust": 5171,
      "teenage": 5172,
      "teams": 5173,
      "##uda": 5174,
      "##udo": 5175,
      "##udes": 5176,
      "##umulated": 5177,
      "indig": 5178,
      "indirect": 5179,
      "indiffer": 5180,
      "attit": 5181,
      "mandated": 5182,
      "peer": 5183,
      "peers": 5184,
      "petite": 5185,
      "##ibility": 5186,
      "##ogyn": 5187,
      "##tend": 5188,
      "##espread": 5189,
      "revolt": 5190,
      "commune": 5191,
      "communes": 5192,
      "communal": 5193,
      "communistic": 5194,
      "communitarian": 5195,
      "##ucasian": 5196,
      "##iker": 5197,
      "arise": 5198,
      "archives": 5199,
      "artist": 5200,
      "arbit": 5201,
      "##gust": 5202,
      "##ilding": 5203,
      "##xteent": 5204,
      "##oused": 5205,
      "Anarchismo": 5206,
      "##ieu": 5207,
      "abund": 5208,
      "abilities": 5209,
      "abstention": 5210,
      "##igi": 5211,
      "##igious": 5212,
      "##izers": 5213,
      "##izational": 5214,
      "##izoph": 5215,
      "socialist": 5216,
      "socially": 5217,
      "socialization": 5218,
      "close": 5219,
      "clutter": 5220,
      "clums": 5221,
      "closely": 5222,
      "climax": 5223,
      "incomp": 5224,
      "inclined": 5225,
      "incentive": 5226,
      "incorpor": 5227,
      "##ributed": 5228,
      "entit": 5229,
      "entry": 5230,
      "enemy": 5231,
      "enters": 5232,
      "enjoyment": 5233,
      "enemies": 5234,
      "items": 5235,
      "expose": 5236,
      "expans": 5237,
      "expect": 5238,
      "expound": 5239,
      "expense": 5240,
      "expected": 5241,
      "exponents": 5242,
      "exponent": 5243,
      "experim": 5244,
      "\">&": 5245,
      "\">{{": 5246,
      "disapp": 5247,
      "disintegrative": 5248,
      "dissid": 5249,
      "dislik": 5250,
      "dispute": 5251,
      "somewh": 5252,
      "##utionary": 5253,
      "contribute": 5254,
      "interfer": 5255,
      "internal": 5256,
      "##eminists": 5257,
      "agree": 5258,
      "agric": 5259,
      "##avily": 5260,
      "##fered": 5261,
      "##ferences": 5262,
      "individualists": 5263,
      "individualistically": 5264,
      "1868": 5265,
      "1814": 5266,
      "1833": 5267,
      "Character": 5268,
      "Change": 5269,
      "Chiap": 5270,
      "Chapter": 5271,
      "parent": 5272,
      "parts": 5273,
      "parents": 5274,
      "parties": 5275,
      "paragraph": 5276,
      "parallel": 5277,
      "partially": 5278,
      "##hority": 5279,
      "##renia": 5280,
      "##rencies": 5281,
      "adult": 5282,
      "adjec": 5283,
      "adpage": 5284,
      "adoles": 5285,
      "adequate": 5286,
      "adjust": 5287,
      "##seau": 5288,
      "##ished": 5289,
      "##ards": 5290,
      "##ardo": 5291,
      "##ardation": 5292,
      "##ardized": 5293,
      "##ologie": 5294,
      "##illa": 5295,
      "never": 5296,
      "nearly": 5297,
      "nego": 5298,
      "neither": 5299,
      "neopag": 5300,
      "negatively": 5301,
      "nefac": 5302,
      "neighbor": 5303,
      "diet": 5304,
      "dilet": 5305,
      "directive": 5306,
      "seeing": 5307,
      "##ustrated": 5308,
      "##ansnational": 5309,
      "##assing": 5310,
      "##assion": 5311,
      "Stories": 5312,
      "Steph": 5313,
      "Strand": 5314,
      "Stjó": 5315,
      "Starhaw": 5316,
      "Stanle": 5317,
      "Streets": 5318,
      "##resses": 5319,
      "worked": 5320,
      "workpl": 5321,
      "##itias": 5322,
      "##iesm": 5323,
      "authors": 5324,
      "Ashan": 5325,
      "Spenc": 5326,
      "Spect": 5327,
      "Spectrum": 5328,
      "Spirit": 5329,
      "Special": 5330,
      "Spoon": 5331,
      "phenomen": 5332,
      "##8993": 5333,
      "##actarianism": 5334,
      "##agnosed": 5335,
      "Autonom": 5336,
      "Autreat": 5337,
      "Authen": 5338,
      "Authority": 5339,
      "belong": 5340,
      "languages": 5341,
      "try": 5342,
      "troops": 5343,
      "infob": 5344,
      "informal": 5345,
      "inflection": 5346,
      "inflex": 5347,
      "presents": 5348,
      "##ipher": 5349,
      "##ftware": 5350,
      "capable": 5351,
      "##obos": 5352,
      "##obedi": 5353,
      "##objec": 5354,
      "##encing": 5355,
      "##end11": 5356,
      "former": 5357,
      "formal": 5358,
      "forming": 5359,
      "formation": 5360,
      "formet": 5361,
      "formulate": 5362,
      "formulation": 5363,
      "157": 5364,
      "apply": 5365,
      "applic": 5366,
      "appro": 5367,
      "applies": 5368,
      "appeal": 5369,
      "append11": 5370,
      "genes": 5371,
      "gender": 5372,
      "genuine": 5373,
      "generates": 5374,
      "##ailed": 5375,
      "##everation": 5376,
      "##ubacic": 5377,
      "relation": 5378,
      "relatives": 5379,
      "propose": 5380,
      "propriet": 5381,
      "grouped": 5382,
      "groupings": 5383,
      "health": 5384,
      "heads": 5385,
      "heavily": 5386,
      "labelled": 5387,
      "shell": 5388,
      "shyn": 5389,
      "share": 5390,
      "shown": 5391,
      "shuns": 5392,
      "##techn": 5393,
      "##gerous": 5394,
      "##onomic": 5395,
      "repeti": 5396,
      "repression": 5397,
      "reponse": 5398,
      "whole": 5399,
      "whoops": 5400,
      "statement": 5401,
      "alliance": 5402,
      "alliances": 5403,
      "mechan": 5404,
      "mealtimes": 5405,
      "minimized": 5406,
      "software": 5407,
      "##licating": 5408,
      "##ypto": 5409,
      "##yptography": 5410,
      "themes": 5411,
      "##ortance": 5412,
      "##ackets": 5413,
      "Afric": 5414,
      "imply": 5415,
      "impro": 5416,
      "impris": 5417,
      "imperi": 5418,
      "implies": 5419,
      "impulsive": 5420,
      "importance": 5421,
      "resort": 5422,
      "results": 5423,
      "##aches": 5424,
      "##ellos_d": 5425,
      "consens": 5426,
      "constit": 5427,
      "conserv": 5428,
      "consci": 5429,
      "consolid": 5430,
      "conscious": 5431,
      "consistency": 5432,
      "##ulty": 5433,
      "differences": 5434,
      "differential": 5435,
      "diagnosing": 5436,
      "diagnostics": 5437,
      "believes": 5438,
      "believing": 5439,
      "evil": 5440,
      "evaluation": 5441,
      "goals": 5442,
      "oppression": 5443,
      "oppressive": 5444,
      "oppressed": 5445,
      "terminology": 5446,
      "##kshops": 5447,
      "##erals": 5448,
      "##erally": 5449,
      "##itarians": 5450,
      "##itarianism": 5451,
      "compens": 5452,
      "company": 5453,
      "compati": 5454,
      "component": 5455,
      "compete": 5456,
      "comprom": 5457,
      "companions": 5458,
      "compassion": 5459,
      "complicating": 5460,
      "'''[[": 5461,
      "useful": 5462,
      "classes": 5463,
      "classic": 5464,
      "classified": 5465,
      ">]].": 5466,
      ">]],": 5467,
      ">]]</": 5468,
      "##ears": 5469,
      "##fication": 5470,
      "##ficient": 5471,
      "##ficiant": 5472,
      "##EDS": 5473,
      "##tivity": 5474,
      "leftists": 5475,
      "preserving": 5476,
      "preservation": 5477,
      "ecology": 5478,
      "eclec": 5479,
      "ecofeminism": 5480,
      "ecrits": 5481,
      "##ropologists": 5482,
      "##lishment": 5483,
      "##ysiology": 5484,
      "##ysisst": 5485,
      "##edia_7": 5486,
      "assist": 5487,
      "assessment": 5488,
      "Alston": 5489,
      "Altruism": 5490,
      "AlTruism": 5491,
      "Common": 5492,
      "Competi": 5493,
      "Comintern": 5494,
      "Comunismo": 5495,
      "Why": 5496,
      "Whites": 5497,
      "Whilst": 5498,
      "nonfunction": 5499,
      "nonvoting": 5500,
      "nonverbal": 5501,
      "priests": 5502,
      "perspective": 5503,
      "persecuted": 5504,
      "sees": 5505,
      "search": 5506,
      "separ": 5507,
      "select": 5508,
      "seize": 5509,
      "sept": 5510,
      "sexist": 5511,
      "seismic": 5512,
      "##ceptional": 5513,
      "##ularies": 5514,
      "referenced": 5515,
      "referring": 5516,
      "##havioral": 5517,
      "Asperger_kl2": 5518,
      "Bakuninful": 5519,
      "Manifest": 5520,
      "Workshops": 5521,
      "liberalism": 5522,
      "libdeb": 5523,
      "liberals": 5524,
      "prepar": 5525,
      "preven": 5526,
      "premise": 5527,
      "preval": 5528,
      "prejud": 5529,
      "prefers": 5530,
      "pretend": 5531,
      "##quest": 5532,
      "##quee": 5533,
      "##quote": 5534,
      "##time": 5535,
      "##timore": 5536,
      "##timately": 5537,
      "##olled": 5538,
      "AfghanistanPeople": 5539,
      "AfghanistanGeography": 5540,
      "AfghanistanCom": 5541,
      "AfghanistanEconomy": 5542,
      "AfghanistanHistory": 5543,
      "AfghanistanMilit": 5544,
      "CNRS": 5545,
      "Consequ": 5546,
      "Concern": 5547,
      "Conquest": 5548,
      "critical": 5549,
      "crimin": 5550,
      "plain": 5551,
      "places": 5552,
      "plat_pre": 5553,
      "schema": 5554,
      "schizoph": 5555,
      "upset": 5556,
      "upenn": 5557,
      "upsil": 5558,
      "##herent": 5559,
      "##herpunk": 5560,
      "##nerabilities": 5561,
      "antifa": 5562,
      "]]'',": 5563,
      "insult": 5564,
      "insights": 5565,
      "accessed": 5566,
      "accord": 5567,
      "accommod": 5568,
      "accidentally": 5569,
      "accusation": 5570,
      "accumulated": 5571,
      "againstpoli": 5572,
      "Liberalism": 5573,
      "edition": 5574,
      "edited": 5575,
      "editor": 5576,
      "factories": 5577,
      "outlined": 5578,
      "outcas": 5579,
      "outposts": 5580,
      "outbur": 5581,
      "outright": 5582,
      "sites": 5583,
      "sitting": 5584,
      "undermin": 5585,
      "underdi": 5586,
      "underground": 5587,
      "underway": 5588,
      "underreac": 5589,
      "developments": 5590,
      "generalizations": 5591,
      "economical": 5592,
      "CNT_tu": 5593,
      "followed": 5594,
      "ItemID": 5595,
      "overlap": 5596,
      "tending": 5597,
      "##erick": 5598,
      "thereof": 5599,
      "##tina": 5600,
      "##ensitiv": 5601,
      "##urred": 5602,
      "##uctuations": 5603,
      "Statism": 5604,
      "Statists": 5605,
      "philosophers": 5606,
      "philosophical": 5607,
      "differently": 5608,
      "Community": 5609,
      "personal": 5610,
      "personality": 5611,
      "Heinle": 5612,
      "Sociology": 5613,
      "descri": 5614,
      "knows": 5615,
      "knowled": 5616,
      "postures": 5617,
      "poststruct": 5618,
      "postleft": 5619,
      "twisting": 5620,
      "twenty": 5621,
      "willingness": 5622,
      "##awal": 5623,
      "##ilege": 5624,
      "intro": 5625,
      "recently": 5626,
      "reclass": 5627,
      "record": 5628,
      "withinyou": 5629,
      "profile": 5630,
      "profits": 5631,
      "proffessed": 5632,
      "##uralist": 5633,
      "attract": 5634,
      "organise": 5635,
      "organising": 5636,
      "organisations": 5637,
      "organizational": 5638,
      "Front": 5639,
      "Franco": 5640,
      "Nearly": 5641,
      "Neocolonialism": 5642,
      "Neopag": 5643,
      "Nechaev": 5644,
      "Unity": 5645,
      "University": 5646,
      "Unité": 5647,
      "calls": 5648,
      "jpeg": 5649,
      "line": 5650,
      "lining": 5651,
      "linking": 5652,
      "lacked": 5653,
      "population": 5654,
      "##T10": 5655,
      "##T18": 5656,
      "##T16": 5657,
      "##tilization": 5658,
      "##edied": 5659,
      "region": 5660,
      "regularly": 5661,
      "regime": 5662,
      "regiment": 5663,
      "regulating": 5664,
      "##stems": 5665,
      "study": 5666,
      "suppression": 5667,
      "suppressed": 5668,
      "supplant": 5669,
      "supporting": 5670,
      "Internet": 5671,
      "argues": 5672,
      "arguing": 5673,
      "interested": 5674,
      "considerably": 5675,
      "Christianity": 5676,
      "Christiania": 5677,
      "Disability": 5678,
      "Disease": 5679,
      "Disintegrative": 5680,
      "Disobedi": 5681,
      "Peacott": 5682,
      "Peaceful": 5683,
      "Trade": 5684,
      "Truda": 5685,
      "ambigu": 5686,
      "amoralism": 5687,
      "amidst": 5688,
      "crying": 5689,
      "crowd": 5690,
      "crushed": 5691,
      "cryptography": 5692,
      "coex": 5693,
      "cochair": 5694,
      "coalition": 5695,
      "covered": 5696,
      "coherent": 5697,
      "politicians": 5698,
      "sco": 5699,
      "scale": 5700,
      "scream": 5701,
      "weapon": 5702,
      "weakened": 5703,
      "]])&": 5704,
      "]]'.": 5705,
      "Therefore": 5706,
      "subjec": 5707,
      "subhe": 5708,
      "subpage": 5709,
      "subscrib": 5710,
      "submovement": 5711,
      "subgroup": 5712,
      "subjug": 5713,
      "deflem": 5714,
      "defeat": 5715,
      "defunct": 5716,
      "systems": 5717,
      "systematic": 5718,
      "associations": 5719,
      "associating": 5720,
      "associée": 5721,
      "America": 5722,
      "Americans": 5723,
      "popularized": 5724,
      "Revolutionist": 5725,
      "Forum": 5726,
      "Postanarchism": 5727,
      "obey": 5728,
      "obser": 5729,
      "obvious": 5730,
      "obediance": 5731,
      "simple": 5732,
      "warhe": 5733,
      "##ry_d": 5734,
      "##redible": 5735,
      "##rico": 5736,
      "##ricourt": 5737,
      "##mony": 5738,
      "##monious": 5739,
      "##lix": 5740,
      "##liquee": 5741,
      "##ario": 5742,
      "##ariat": 5743,
      "##entific": 5744,
      "##tions_to": 5745,
      "##ountered": 5746,
      "confron": 5747,
      "confines": 5748,
      "confused": 5749,
      "confusion": 5750,
      "1918": 5751,
      "1914": 5752,
      "1912": 5753,
      "1910s": 5754,
      "1928": 5755,
      "1923": 5756,
      "1922": 5757,
      "##odying": 5758,
      "activism": 5759,
      "activists": 5760,
      "manifests": 5761,
      "manifestation": 5762,
      "manifestations": 5763,
      "certainly": 5764,
      "certainty": 5765,
      ").&": 5766,
      "Read": 5767,
      "Repr": 5768,
      "Repl": 5769,
      "Reads": 5770,
      "Reference": 5771,
      "Recher": 5772,
      "References": 5773,
      "central": 5774,
      "color": 5775,
      "colonialism": 5776,
      "features": 5777,
      "families": 5778,
      "ifeminists": 5779,
      "literal": 5780,
      "literat": 5781,
      "litency": 5782,
      "paths": 5783,
      "posited": 5784,
      "possib": 5785,
      "possess": 5786,
      "signficiant": 5787,
      "##graph": 5788,
      "##ginia": 5789,
      "##veson": 5790,
      "##jamie": 5791,
      "Indian": 5792,
      "Indym": 5793,
      "Indicators": 5794,
      "increasing": 5795,
      "needed": 5796,
      "shouldn": 5797,
      "governance": 5798,
      "understood": 5799,
      "AmericanSam": 5800,
      "110px": 5801,
      "17Z": 5802,
      "17T15": 5803,
      "1703": 5804,
      "1787": 5805,
      "1793": 5806,
      "Dejacque": 5807,
      "Developmental": 5808,
      "Deleuze": 5809,
      "Decemb": 5810,
      "Economy": 5811,
      "Ecofeminism": 5812,
      "Economic": 5813,
      "GoldmanCW": 5814,
      "Once": 5815,
      "Proponents": 5816,
      "cars": 5817,
      "careless": 5818,
      "carried": 5819,
      "decide": 5820,
      "decade": 5821,
      "declar": 5822,
      "decades": 5823,
      "decipher": 5824,
      "faces": 5825,
      "faced": 5826,
      "facade": 5827,
      "facilit": 5828,
      "facets": 5829,
      "faculty": 5830,
      "freeze": 5831,
      "money": 5832,
      "monopoly": 5833,
      "montp3": 5834,
      "moniker": 5835,
      "network": 5836,
      "pointing": 5837,
      "respected": 5838,
      "respons": 5839,
      "respective": 5840,
      "##airine": 5841,
      "##formed": 5842,
      "##wards": 5843,
      "##ervation": 5844,
      "##onto": 5845,
      "concept": 5846,
      "1939": 5847,
      "1932": 5848,
      "1930s": 5849,
      "speculate": 5850,
      "claimed": 5851,
      "claiming": 5852,
      "explanation": 5853,
      "interactions": 5854,
      "structuralism": 5855,
      "completely": 5856,
      "fascism_or": 5857,
      "publicity": 5858,
      "publications": 5859,
      "institute": 5860,
      "LeoTolstoy": 5861,
      "15898951": 5862,
      "15898950": 5863,
      "15898958": 5864,
      "15898957": 5865,
      "15898953": 5866,
      "15898956": 5867,
      "15898954": 5868,
      "15898952": 5869,
      "15898955": 5870,
      "everyone": 5871,
      "governments": 5872,
      "BenjaminTucker": 5873,
      "25Z": 5874,
      ";.[": 5875,
      ";.&": 5876,
      ";.]]": 5877,
      "Arce": 5878,
      "Archives": 5879,
      "Argen": 5880,
      "Parents": 5881,
      "Parliament": 5882,
      "Paragraph": 5883,
      "Parallel": 5884,
      "USED": 5885,
      "ethos": 5886,
      "fiat": 5887,
      "imitative": 5888,
      "occupation": 5889,
      "occasion": 5890,
      "occurred": 5891,
      "owned": 5892,
      "owners": 5893,
      "secular": 5894,
      "write": 5895,
      "written": 5896,
      "##par2": 5897,
      "##paring": 5898,
      "anything": 5899,
      "theorist": 5900,
      "##althstate": 5901,
      "Anarkismo": 5902,
      "Anarkiismo": 5903,
      "condoning": 5904,
      "noteworth": 5905,
      "characteristic": 5906,
      "characterization": 5907,
      "characterized": 5908,
      "characteristics": 5909,
      "contrary": 5910,
      "contrast": 5911,
      "contractarianism": 5912,
      "controlled": 5913,
      "1870": 5914,
      "1876": 5915,
      "1870s": 5916,
      "physicians": 5917,
      "physiological": 5918,
      "influence": 5919,
      "influencing": 5920,
      "seemed": 5921,
      "played": 5922,
      "playing": 5923,
      "professing": 5924,
      "profession": 5925,
      "professors": 5926,
      "helps": 5927,
      "similarly": 5928,
      "focused": 5929,
      "03Z": 5930,
      "101": 5931,
      "20Z": 5932,
      ":''&": 5933,
      "Dielo": 5934,
      "Joe": 5935,
      "Mutualists": 5936,
      "detailed": 5937,
      "escap": 5938,
      "majority": 5939,
      "##eber": 5940,
      "##domnow": 5941,
      "##kins": 5942,
      "##maf": 5943,
      "##matic": 5944,
      "##arthomesoci": 5945,
      "unionist": 5946,
      "##lections": 5947,
      "predecess": 5948,
      "probably": 5949,
      "extend": 5950,
      "extending": 5951,
      "Insanity": 5952,
      "##rounding": 5953,
      "1990": 5954,
      "1997": 5955,
      "1994": 5956,
      "1995": 5957,
      "1990s": 5958,
      "leader": 5959,
      "leading": 5960,
      "sympath": 5961,
      "clinical": 5962,
      "clinically": 5963,
      "clinomorph": 5964,
      "interpretation": 5965,
      "presented": 5966,
      "primate": 5967,
      "primary": 5968,
      "primitive": 5969,
      "criticise": 5970,
      "Newsw": 5971,
      "conflicts": 5972,
      "images": 5973,
      "lifetime": 5974,
      "Exchange": 5975,
      "Nozick": 5976,
      "aware": 5977,
      "britt19": 5978,
      "brackets": 5979,
      "domain": 5980,
      "dominance": 5981,
      "domestically": 5982,
      "demand": 5983,
      "else": 5984,
      "elays": 5985,
      "elite": 5986,
      "elaborate": 5987,
      "egoists": 5988,
      "flat": 5989,
      "fluctuations": 5990,
      "hist_te": 5991,
      "humain": 5992,
      "handle": 5993,
      "handicapp": 5994,
      "milieu": 5995,
      "militias": 5996,
      "turned": 5997,
      "##rupted": 5998,
      "##minated": 5999,
      "##68770": 6000,
      "##6831": 6001,
      "thinking": 6002,
      "##aringhous": 6003,
      "##index": 6004,
      "involves": 6005,
      "instruct": 6006,
      "intentional": 6007,
      "intensity": 6008,
      "##ompassing": 6009,
      "realign": 6010,
      "1945": 6011,
      "worldview": 6012,
      "encart": 6013,
      "encyclop": 6014,
      "encountered": 6015,
      "encompassing": 6016,
      "experiment": 6017,
      "experiences": 6018,
      "experienced": 6019,
      "experimental": 6020,
      "1898": 6021,
      "1897": 6022,
      "1892": 6023,
      "transition": 6024,
      "transitions": 6025,
      "transfered": 6026,
      "transformed": 6027,
      "labeled": 6028,
      "privately": 6029,
      "privilege": 6030,
      "defines": 6031,
      "schooling": 6032,
      "afterleftism": 6033,
      "afterwards": 6034,
      "Ecole": 6035,
      "religiousity": 6036,
      "situationism": 6037,
      "situationist": 6038,
      "situationists": 6039,
      "physically": 6040,
      "collectives": 6041,
      "collectivism": 6042,
      "collectivization": 6043,
      "collectivised": 6044,
      "collectivized": 6045,
      "collectivisation": 6046,
      "controversially": 6047,
      "Diagnosis": 6048,
      "imaginable": 6049,
      "13Z": 6050,
      "13T13": 6051,
      "16th": 6052,
      "160px": 6053,
      "1615": 6054,
      "4341": 6055,
      "Centre": 6056,
      "Century": 6057,
      "Godwin": 6058,
      "Systems": 6059,
      "Willful": 6060,
      "blackened": 6061,
      "clearly": 6062,
      "clearing": 6063,
      "cleaners": 6064,
      "distrac": 6065,
      "distaste": 6066,
      "distributed": 6067,
      "emulate": 6068,
      "easier": 6069,
      "full": 6070,
      "fulfilling": 6071,
      "failed": 6072,
      "grabb": 6073,
      "grasp": 6074,
      "global": 6075,
      "glorification": 6076,
      "gestation": 6077,
      "gesture": 6078,
      "letter": 6079,
      "lettre": 6080,
      "lesson": 6081,
      "lessons": 6082,
      "laws": 6083,
      "musical": 6084,
      "muscle": 6085,
      "severely": 6086,
      "stimming": 6087,
      "triad": 6088,
      "varied": 6089,
      "variations": 6090,
      "##heads": 6091,
      "##letariat": 6092,
      "receiving": 6093,
      "autonomism": 6094,
      "Antifa": 6095,
      "produced": 6096,
      "products": 6097,
      "existence": 6098,
      "alternate": 6099,
      "alternatives": 6100,
      "model": 6101,
      "models": 6102,
      "modulaware": 6103,
      "degrees": 6104,
      "1977": 6105,
      "1973": 6106,
      "symbols": 6107,
      "symbolism": 6108,
      "absurdity": 6109,
      "discrepan": 6110,
      "Statements": 6111,
      "workshops": 6112,
      "trading": 6113,
      "traditions": 6114,
      "reportedly": 6115,
      "allowing": 6116,
      "struggles": 6117,
      "imposes": 6118,
      "imposing": 6119,
      "impossib": 6120,
      "##ropriately": 6121,
      "recognition": 6122,
      "recognise": 6123,
      "attempts": 6124,
      "15898948": 6125,
      "15898949": 6126,
      "15898943": 6127,
      "15898946": 6128,
      "15898945": 6129,
      "affect": 6130,
      "affection": 6131,
      "affinity": 6132,
      "objective": 6133,
      "objections": 6134,
      "Anarquisme": 6135,
      "Anarquismu": 6136,
      "Army": 6137,
      "ethics_of": 6138,
      "market_anarchism": 6139,
      "Andrej": 6140,
      "Andrews": 6141,
      "Noam_ch": 6142,
      "democratic": 6143,
      "originally": 6144,
      "routinely": 6145,
      "continuing": 6146,
      "'.]]": 6147,
      "270px": 6148,
      "27T0": 6149,
      "27T18": 6150,
      "Appleton": 6151,
      "Appliquee": 6152,
      "Clearinghous": 6153,
      "German": 6154,
      "Prior": 6155,
      "Private": 6156,
      "Politics": 6157,
      "effort": 6158,
      "effects": 6159,
      "effect": 6160,
      "efficient": 6161,
      "federalism": 6162,
      "federally": 6163,
      "favors": 6164,
      "favoured": 6165,
      "misinter": 6166,
      "pitched": 6167,
      "psychology": 6168,
      "room": 6169,
      "role": 6170,
      "roots": 6171,
      "races": 6172,
      "racial": 6173,
      "ruler": 6174,
      "rulers": 6175,
      "radically": 6176,
      "taoism": 6177,
      "taoan": 6178,
      "tucker37": 6179,
      "varies": 6180,
      "vegan": 6181,
      "veganism": 6182,
      "widespread": 6183,
      "##tante": 6184,
      "##tainer": 6185,
      "##cuiting": 6186,
      "##eastern": 6187,
      "##easible": 6188,
      "##iatry": 6189,
      "##shine": 6190,
      "##shchina": 6191,
      "##macy": 6192,
      "##ymoron": 6193,
      "##violence": 6194,
      "##T01": 6195,
      "##erged": 6196,
      "anxious": 6197,
      "answers": 6198,
      "toxicpop": 6199,
      "remedied": 6200,
      "begins": 6201,
      "beginnings": 6202,
      "combos": 6203,
      "combating": 6204,
      "proto": 6205,
      "protocols": 6206,
      "striking": 6207,
      "stressful": 6208,
      "Integralism": 6209,
      "changed": 6210,
      "synonymous": 6211,
      "##ographics": 6212,
      "archon": 6213,
      "entered": 6214,
      "entertainer": 6215,
      "1881": 6216,
      "1886": 6217,
      "neurode": 6218,
      "neurotypical": 6219,
      "genetics": 6220,
      "genetically": 6221,
      "showing": 6222,
      "showartic": 6223,
      "represents": 6224,
      "strategies": 6225,
      "impairments": 6226,
      "resisted": 6227,
      "preferred": 6228,
      "Anarchist_objec": 6229,
      "criticsed": 6230,
      "regarding": 6231,
      "scientist": 6232,
      "scientific": 6233,
      "Individuals": 6234,
      "Individualist": 6235,
      "Defense": 6236,
      "explains": 6237,
      "explained": 6238,
      "explaining": 6239,
      "historian": 6240,
      "historians": 6241,
      "Syndrome": 6242,
      "emotion": 6243,
      "stimulation": 6244,
      "stimulus": 6245,
      "stimulations": 6246,
      "stimulatory": 6247,
      "discussing": 6248,
      "ICD10": 6249,
      "Platformism": 6250,
      "Platformist": 6251,
      "Zapatismo": 6252,
      "birthday": 6253,
      "Anarchizmas": 6254,
      "04T01": 6255,
      "1000": 6256,
      "21Z": 6257,
      "21T10": 6258,
      "4213": 6259,
      "42019": 6260,
      "Attention": 6261,
      "Ada": 6262,
      "AdA": 6263,
      "Adam": 6264,
      "Austria": 6265,
      "Accessed": 6266,
      "Berlin": 6267,
      "Crimeth": 6268,
      "Errors": 6269,
      "Ervin": 6270,
      "Errico": 6271,
      "Factories": 6272,
      "FeminismTwoS": 6273,
      "Ideology": 6274,
      "Linux": 6275,
      "Labor": 6276,
      "McCul": 6277,
      "McElroy": 6278,
      "McKay": 6279,
      "Movements": 6280,
      "Physiology": 6281,
      "Tai": 6282,
      "Technology": 6283,
      "Voluntaryism": 6284,
      "aids": 6285,
      "bands": 6286,
      "caucasian": 6287,
      "cautionary": 6288,
      "currencies": 6289,
      "culott": 6290,
      "culotte": 6291,
      "culminated": 6292,
      "caused": 6293,
      "english": 6294,
      "ends": 6295,
      "embodying": 6296,
      "finest": 6297,
      "femelle": 6298,
      "harm": 6299,
      "harsh": 6300,
      "harmonious": 6301,
      "kinds": 6302,
      "looking": 6303,
      "mediation": 6304,
      "mediated": 6305,
      "mediums": 6306,
      "necessary": 6307,
      "olds": 6308,
      "operative": 6309,
      "purpos": 6310,
      "sixteent": 6311,
      "serve": 6312,
      "series": 6313,
      "serious": 6314,
      "tones": 6315,
      "tonal": 6316,
      "tonality": 6317,
      "utmost": 6318,
      "voices": 6319,
      "varying": 6320,
      "visions": 6321,
      "voluntaryist": 6322,
      "wishes": 6323,
      "wikiquote": 6324,
      "xsd": 6325,
      "##eeded": 6326,
      "##rayed": 6327,
      "##1918": 6328,
      "announced": 6329,
      "anabaptism": 6330,
      "anabaptist": 6331,
      "anabaptists": 6332,
      "uncommon": 6333,
      "offered": 6334,
      "inherently": 6335,
      "integration": 6336,
      "integrate": 6337,
      "integrated": 6338,
      "totalitarians": 6339,
      "return": 6340,
      "retriev": 6341,
      "retardation": 6342,
      "reason": 6343,
      "reactions": 6344,
      "reactionists": 6345,
      "rejection": 6346,
      "rejects": 6347,
      "rejected": 6348,
      "##elds": 6349,
      "issued": 6350,
      "connecting": 6351,
      "identify": 6352,
      "identified": 6353,
      "identification": 6354,
      "proudly": 6355,
      "proclaim": 6356,
      "procliv": 6357,
      "proceeded": 6358,
      "styles": 6359,
      "alienated": 6360,
      "successor": 6361,
      "successful": 6362,
      "sustaining": 6363,
      "sustainability": 6364,
      "Intellig": 6365,
      "determine": 6366,
      "churches": 6367,
      "1908": 6368,
      "1902": 6369,
      "1905": 6370,
      "indicating": 6371,
      "indicators": 6372,
      "indicator": 6373,
      "manageable": 6374,
      "displays": 6375,
      "internationally": 6376,
      "aggressive": 6377,
      "agitation": 6378,
      "agitating": 6379,
      "agitators": 6380,
      "##ansportations": 6381,
      "Students": 6382,
      "workerist": 6383,
      "phraseology": 6384,
      "methods": 6385,
      "methodological": 6386,
      "nonviolence": 6387,
      "Confédé": 6388,
      "schedule": 6389,
      "accounts": 6390,
      "Communications": 6391,
      "desires": 6392,
      "supporters": 6393,
      "participate": 6394,
      "coercive": 6395,
      "Republic": 6396,
      "complexity": 6397,
      "markedly": 6398,
      "especial": 6399,
      "espouses": 6400,
      "espoused": 6401,
      "destroying": 6402,
      "grows": 6403,
      "growing": 6404,
      "illusions": 6405,
      "illustrated": 6406,
      "patient": 6407,
      "traditional": 6408,
      "psychiatric": 6409,
      "remained": 6410,
      "Definitions_of": 6411,
      "Syndicalists": 6412,
      "achieved": 6413,
      "bourgeoisie": 6414,
      "establishment": 6415,
      "friends": 6416,
      "justifies": 6417,
      "periods": 6418,
      "JohannMost": 6419,
      "05Z": 6420,
      "22T16": 6421,
      "360": 6422,
      "47Z": 6423,
      "4796": 6424,
      "5077": 6425,
      "58Z": 6426,
      ">).": 6427,
      ">),": 6428,
      "Crass": 6429,
      "Crypto": 6430,
      "Cooperation": 6431,
      "Fixing": 6432,
      "Fields": 6433,
      "Flag": 6434,
      "Flores": 6435,
      "FAC": 6436,
      "FAQ": 6437,
      "Fascism": 6438,
      "Fascist": 6439,
      "Geography": 6440,
      "George": 6441,
      "Guin": 6442,
      "Guattari": 6443,
      "Months": 6444,
      "Monopoly": 6445,
      "Main_P": 6446,
      "Mexico": 6447,
      "Mexican": 6448,
      "Military": 6449,
      "Militant": 6450,
      "NotUtopian": 6451,
      "Often": 6452,
      "Preface": 6453,
      "Preparing": 6454,
      "Payne": 6455,
      "Riot": 6456,
      "Richard": 6457,
      "Recent": 6458,
      "Reclaim": 6459,
      "Randolph": 6460,
      "Smith": 6461,
      "Smile": 6462,
      "Sovereign": 6463,
      "Samoa": 6464,
      "Two": 6465,
      "Twenty": 6466,
      "Times": 6467,
      "Timeline": 6468,
      "Typically": 6469,
      "avoid": 6470,
      "avowed": 6471,
      "athletic": 6472,
      "athiesm": 6473,
      "bnat": 6474,
      "bnas": 6475,
      "bios": 6476,
      "biodiversity": 6477,
      "corresp": 6478,
      "corrupted": 6479,
      "circum": 6480,
      "circuiting": 6481,
      "countries": 6482,
      "counterpar": 6483,
      "dysfunctional": 6484,
      "dynamics": 6485,
      "dynamite": 6486,
      "equal": 6487,
      "equality": 6488,
      "emphas": 6489,
      "employment": 6490,
      "faq": 6491,
      "files": 6492,
      "filter": 6493,
      "falls": 6494,
      "factions": 6495,
      "fairly": 6496,
      "funded": 6497,
      "fundamental": 6498,
      "gift": 6499,
      "gifted": 6500,
      "gained": 6501,
      "garde": 6502,
      "garden": 6503,
      "geekdom": 6504,
      "house": 6505,
      "housing": 6506,
      "kingdomnow": 6507,
      "lands": 6508,
      "match": 6509,
      "matter": 6510,
      "massacres": 6511,
      "myself": 6512,
      "mysogyn": 6513,
      "magazine": 6514,
      "magazines": 6515,
      "nihilism": 6516,
      "nihilist": 6517,
      "omnip": 6518,
      "omicron": 6519,
      "open": 6520,
      "opinion": 6521,
      "please": 6522,
      "plekhanov": 6523,
      "passed": 6524,
      "passively": 6525,
      "pediatric": 6526,
      "pediatrics": 6527,
      "riot": 6528,
      "riots": 6529,
      "reduce": 6530,
      "svg": 6531,
      "saying": 6532,
      "service": 6533,
      "services": 6534,
      "tactical": 6535,
      "tacitly": 6536,
      "types": 6537,
      "typing": 6538,
      "taxation": 6539,
      "utility": 6540,
      "utilitarianism": 6541,
      "vaccination": 6542,
      "vacuum": 6543,
      "##atible": 6544,
      "##efna": 6545,
      "##iette": 6546,
      "##sson": 6547,
      "##methers": 6548,
      "##market": 6549,
      "##_voting": 6550,
      "##_votar_y_": 6551,
      "##_ch1": 6552,
      "##_technology": 6553,
      "##2005": 6554,
      "therapy": 6555,
      "therapies": 6556,
      "unfamiliar": 6557,
      "unfeasible": 6558,
      "universal": 6559,
      "reader": 6560,
      "##stonecra": 6561,
      "Anabaptist": 6562,
      "Anabaptists": 6563,
      "consequence": 6564,
      "consequences": 6565,
      "comfortably": 6566,
      "provide": 6567,
      "providers": 6568,
      "stoicism": 6569,
      "extreme": 6570,
      "extremely": 6571,
      "excessive": 6572,
      "excessively": 6573,
      "oneself": 6574,
      "Increase": 6575,
      "Incredible": 6576,
      "debate": 6577,
      "debated": 6578,
      "choices": 6579,
      "choosing": 6580,
      "spreading": 6581,
      "spirituality": 6582,
      "technological": 6583,
      "techniques": 6584,
      "mannerisms": 6585,
      "peasant": 6586,
      "peasants": 6587,
      "abolition": 6588,
      "abolished": 6589,
      "incidence": 6590,
      "incidences": 6591,
      "expressing": 6592,
      "intervene": 6593,
      "intervention": 6594,
      "1861": 6595,
      "1864": 6596,
      "1828": 6597,
      "1825": 6598,
      "1858": 6599,
      "1850s": 6600,
      "addition": 6601,
      "addresses": 6602,
      "adherence": 6603,
      "adherents": 6604,
      "cannon": 6605,
      "cannot": 6606,
      "directions": 6607,
      "Stalinist": 6608,
      "Stalinists": 6609,
      "trains": 6610,
      "appleton_b": 6611,
      "hears": 6612,
      "headed": 6613,
      "shares": 6614,
      "sharply": 6615,
      "minarchism": 6616,
      "minarchists": 6617,
      "strictly": 6618,
      "resulting": 6619,
      "resulted": 6620,
      "##elligent": 6621,
      "opportunity": 6622,
      "opportunities": 6623,
      "Alliance": 6624,
      "Algeria": 6625,
      "AlgeriA": 6626,
      "Alfredo": 6627,
      "Alfredsson": 6628,
      "Whoever": 6629,
      "precursor": 6630,
      "precocious": 6631,
      "AfghanistanTransnational": 6632,
      "AfghanistanTransportations": 6633,
      "Concepts": 6634,
      "Conceptions": 6635,
      "maintained": 6636,
      "uprising": 6637,
      "uprisings": 6638,
      "accomplish": 6639,
      "accompanied": 6640,
      "Libertaire": 6641,
      "Libertario": 6642,
      "Italy": 6643,
      "Italian": 6644,
      "overthrow": 6645,
      "overthrown": 6646,
      "reciprocity": 6647,
      "reciprocating": 6648,
      "attribute": 6649,
      "attributable": 6650,
      "Frederick": 6651,
      "Trading": 6652,
      "Tradition": 6653,
      "Travail": 6654,
      "Travails": 6655,
      "amount": 6656,
      "amounts": 6657,
      "crucially": 6658,
      "obsessed": 6659,
      "observation": 6660,
      "literate": 6661,
      "literacy": 6662,
      "carrying": 6663,
      "decentralized": 6664,
      "decentralisation": 6665,
      "responded": 6666,
      "exploited": 6667,
      "exploiting": 6668,
      "explosion": 6669,
      "explosive": 6670,
      "fields": 6671,
      "figureheads": 6672,
      "largest": 6673,
      "largely": 6674,
      "settings": 6675,
      "Anarkismi": 6676,
      "collectively": 6677,
      "03T01": 6678,
      "03T06": 6679,
      "predicted": 6680,
      "predictions": 6681,
      "predictable": 6682,
      "leadership": 6683,
      "Expert": 6684,
      "Expelled": 6685,
      "bringing": 6686,
      "elimination": 6687,
      "eliminate": 6688,
      "clearest": 6689,
      "disturbing": 6690,
      "disturbance": 6691,
      "hierarchical": 6692,
      "hierarchies": 6693,
      "AssistiveTechnology": 6694,
      "Assistive_technology": 6695,
      "AppliedEthics": 6696,
      "favorite": 6697,
      "taught": 6698,
      "vocabulary": 6699,
      "vocabularies": 6700,
      "vegetarian": 6701,
      "vegetarianism": 6702,
      "conclude": 6703,
      "concluded": 6704,
      "protesters": 6705,
      "Anarhizam": 6706,
      "Anarhizem": 6707,
      "Makhnovschina": 6708,
      "Makhnovshchina": 6709,
      "Accessible_computing": 6710,
      "AccessibleComputing": 6711,
      "Organization": 6712,
      "Organisational": 6713,
      "Teaching": 6714,
      "Teachers": 6715,
      "embraces": 6716,
      "embraced": 6717,
      "looked": 6718,
      "pursued": 6719,
      "pursuit": 6720,
      "annihilation": 6721,
      "annihilated": 6722,
      "unconnected": 6723,
      "unconvinc": 6724,
      "Intellectuals": 6725,
      "displaying": 6726,
      "Johnson": 6727,
      "achievements": 6728,
      "9_2_3": 6729,
      "broader": 6730,
      "celebrated": 6731,
      "celebrities": 6732,
      "doctrine": 6733,
      "doctrines": 6734,
      "godandstate_ch1": 6735,
      "galleryindex": 6736,
      "suspect": 6737,
      "suspected": 6738,
      "suddenly": 6739,
      "18063769": 6740,
      "18063795": 6741,
      "AmoeboidTax": 6742,
      "tremendously": 6743,
      ".).": 6744,
      "01Z": 6745,
      "0684832": 6746,
      "26Z": 6747,
      "38Z": 6748,
      "328993": 6749,
      "35Z": 6750,
      "400px": 6751,
      "5705": 6752,
      "6alpha": 6753,
      "614213": 6754,
      "832382": 6755,
      ";]'',": 6756,
      ">###": 6757,
      "?].": 6758,
      "?]]''": 6759,
      "AaA": 6760,
      "Academy": 6761,
      "August": 6762,
      "Abacus": 6763,
      "ASD": 6764,
      "ANARC": 6765,
      "AAA": 6766,
      "Auberon": 6767,
      "According": 6768,
      "Behavioral": 6769,
      "Bonanno": 6770,
      "Baltimore": 6771,
      "Bleuler": 6772,
      "Bourne": 6773,
      "Buddhist": 6774,
      "Bombs": 6775,
      "Bourses": 6776,
      "California": 6777,
      "Canada": 6778,
      "Catalonia": 6779,
      "Color": 6780,
      "Copenhag": 6781,
      "Citium": 6782,
      "Cypherpunk": 6783,
      "Cognitive": 6784,
      "Cercle": 6785,
      "Council": 6786,
      "Denmark": 6787,
      "Desire": 6788,
      "Dictionary": 6789,
      "Delays": 6790,
      "Demographics": 6791,
      "Dynamost": 6792,
      "Distortions": 6793,
      "Editor": 6794,
      "Elkin": 6795,
      "Epistem": 6796,
      "Ebeling": 6797,
      "Effects": 6798,
      "Eastern": 6799,
      "Every": 6800,
      "Eugene": 6801,
      "Epidemiologists": 6802,
      "Essays": 6803,
      "F84": 6804,
      "Félix": 6805,
      "Freetown": 6806,
      "Facial": 6807,
      "Feminist": 6808,
      "Forms": 6809,
      "Fabbri": 6810,
      "Friedman": 6811,
      "Grubacic": 6812,
      "GNU": 6813,
      "Géné": 6814,
      "GOLD": 6815,
      "Gilles": 6816,
      "Graeber": 6817,
      "Hui": 6818,
      "Héricourt": 6819,
      "Harmony": 6820,
      "Hopkins": 6821,
      "Hospital": 6822,
      "Haymarket": 6823,
      "Human": 6824,
      "Huston": 6825,
      "Hearing": 6826,
      "Historical": 6827,
      "Hutterites": 6828,
      "Hundreds": 6829,
      "Isaac": 6830,
      "Ireland": 6831,
      "Important": 6832,
      "Jean": 6833,
      "Jsmethers": 6834,
      "JPG": 6835,
      "Jason": 6836,
      "Jacques": 6837,
      "Juliette": 6838,
      "Justice": 6839,
      "Kraus": 6840,
      "Komboa": 6841,
      "Luigi": 6842,
      "Lorenzo": 6843,
      "Linguistics": 6844,
      "Lacan": 6845,
      "Lettre": 6846,
      "Landstreicher": 6847,
      "Language": 6848,
      "Lysander": 6849,
      "Luddites": 6850,
      "Means": 6851,
      "Mbah": 6852,
      "MIT": 6853,
      "Mastering": 6854,
      "Modern": 6855,
      "Millwood": 6856,
      "Methodology": 6857,
      "Magazine": 6858,
      "Ministerial": 6859,
      "NEEDS": 6860,
      "NOTE": 6861,
      "Nonviolence": 6862,
      "Narveson": 6863,
      "Natural": 6864,
      "Nacional": 6865,
      "Nazi": 6866,
      "Nonetheless": 6867,
      "NihAut": 6868,
      "Oxymoron": 6869,
      "Owen": 6870,
      "Opponents": 6871,
      "Occasional": 6872,
      "Ohnoits": 6873,
      "Puente": 6874,
      "PDD": 6875,
      "Panel": 6876,
      "Pataud": 6877,
      "Pouget": 6878,
      "Police": 6879,
      "Perseveration": 6880,
      "Papers": 6881,
      "Pearl": 6882,
      "Point": 6883,
      "Psychiatry": 6884,
      "Polytechn": 6885,
      "Production": 6886,
      "Pediatrics": 6887,
      "Quoti": 6888,
      "Role": 6889,
      "Ricardo": 6890,
      "Religious": 6891,
      "Rocker": 6892,
      "Rossell": 6893,
      "Rudolf": 6894,
      "Rumors": 6895,
      "Rousseau": 6896,
      "Scale": 6897,
      "Selections": 6898,
      "Swiss": 6899,
      "SOURC": 6900,
      "Series": 6901,
      "Security": 6902,
      "Several": 6903,
      "Sectarianism": 6904,
      "Soviet": 6905,
      "Sciences": 6906,
      "Seattle": 6907,
      "SectionID": 6908,
      "Shortly": 6909,
      "THAT": 6910,
      "Toronto": 6911,
      "Tacit": 6912,
      "Todd": 6913,
      "Terminology": 6914,
      "Types": 6915,
      "Tension": 6916,
      "Texas": 6917,
      "Toxicpop": 6918,
      "Ukrain": 6919,
      "Utopianism": 6920,
      "Ursula": 6921,
      "VII": 6922,
      "Vanguard": 6923,
      "Voltairine": 6924,
      "Wendy": 6925,
      "Wollstonecra": 6926,
      "Woodworth": 6927,
      "Writings": 6928,
      "Wolfi": 6929,
      "XMLSch": 6930,
      "Zerzan": 6931,
      "[,]&": 6932,
      "auditory": 6933,
      "apx1pub": 6934,
      "bcaplan": 6935,
      "building": 6936,
      "blamed": 6937,
      "boards": 6938,
      "berry_d": 6939,
      "bonobos": 6940,
      "banking": 6941,
      "bitter": 6942,
      "bilkent": 6943,
      "brief": 6944,
      "bayonets": 6945,
      "business": 6946,
      "babble": 6947,
      "bureauc": 6948,
      "ballots": 6949,
      "babbling": 6950,
      "bordering": 6951,
      "cues": 6952,
      "cyber": 6953,
      "cfm": 6954,
      "coping": 6955,
      "crisis": 6956,
      "cocktail": 6957,
      "dhi": 6958,
      "dv1": 6959,
      "derived": 6960,
      "denounced": 6961,
      "dangerous": 6962,
      "dismiss": 6963,
      "damage": 6964,
      "driven": 6965,
      "dogmatic": 6966,
      "digital": 6967,
      "dressing": 6968,
      "downtown": 6969,
      "dramatically": 6970,
      "egalitarian": 6971,
      "etiology": 6972,
      "echolalia": 6973,
      "elements": 6974,
      "eurocentric": 6975,
      "elected": 6976,
      "earned": 6977,
      "electoral": 6978,
      "etymology": 6979,
      "earlier": 6980,
      "fertilization": 6981,
      "fiction": 6982,
      "freely": 6983,
      "folk": 6984,
      "felt": 6985,
      "funding": 6986,
      "fetus": 6987,
      "fighting": 6988,
      "fourth": 6989,
      "ghosts": 6990,
      "geocities": 6991,
      "gmu": 6992,
      "guided": 6993,
      "gorilla": 6994,
      "grew": 6995,
      "germinal": 6996,
      "hinted": 6997,
      "holder": 6998,
      "hurled": 6999,
      "hidden": 7000,
      "happily": 7001,
      "hugs": 7002,
      "hericourt2": 7003,
      "ignore": 7004,
      "joys": 7005,
      "joyous": 7006,
      "keep": 7007,
      "kanner_kl2": 7008,
      "lumpenpro": 7009,
      "louder": 7010,
      "lasted": 7011,
      "lighthouses": 7012,
      "lingering": 7013,
      "msn": 7014,
      "merely": 7015,
      "mutuell": 7016,
      "melior": 7017,
      "metaphor": 7018,
      "message": 7019,
      "magnitud": 7020,
      "material": 7021,
      "merging": 7022,
      "ns52": 7023,
      "nationalism": 7024,
      "nuclear": 7025,
      "northeastern": 7026,
      "older": 7027,
      "oversensitiv": 7028,
      "odds": 7029,
      "pdf": 7030,
      "poor": 7031,
      "panarchy": 7032,
      "potential": 7033,
      "polarised": 7034,
      "pseudo": 7035,
      "portrayed": 7036,
      "pairs": 7037,
      "panarchists": 7038,
      "ra_f": 7039,
      "rituals": 7040,
      "ramifications": 7041,
      "rival": 7042,
      "rifles": 7043,
      "route": 7044,
      "robot": 7045,
      "rubric": 7046,
      "smile": 7047,
      "satisfaction": 7048,
      "seldom": 7049,
      "socy": 7050,
      "sunshine": 7051,
      "surrounding": 7052,
      "sample": 7053,
      "sigmaf": 7054,
      "seminal": 7055,
      "sectarian": 7056,
      "squatter": 7057,
      "senses": 7058,
      "sallydarity": 7059,
      "tasks": 7060,
      "telling": 7061,
      "ultimately": 7062,
      "uphold": 7063,
      "vlntry": 7064,
      "vitro": 7065,
      "vulnerabilities": 7066,
      "virginia": 7067,
      "voyages": 7068,
      "vaz1net": 7069,
      "waiting": 7070,
      "wildly": 7071,
      "wiggling": 7072,
      "wiktionarypar2": 7073,
      "zmag": 7074,
      "zetetics": 7075,
      "|*]]": 7076,
      "élitist": 7077,
      "##tatements": 7078,
      "##rnleysisst": 7079,
      "##loch": 7080,
      "##yncratic": 7081,
      "##_revolution": 7082,
      "##_marxism": 7083,
      "##Disorder": 7084,
      "##1689": 7085,
      "##61568770": 7086,
      "##Issues": 7087,
      "##Location": 7088,
      "thriving": 7089,
      "third": 7090,
      "anomie": 7091,
      "anthropologists": 7092,
      "ancestors": 7093,
      "unrealistically": 7094,
      "unstated": 7095,
      "unexceptional": 7096,
      "unwinding": 7097,
      "unintelligent": 7098,
      "unnecessary": 7099,
      "ungodly": 7100,
      "unknown": 7101,
      "offshoots": 7102,
      "inevitable": 7103,
      "inappropriately": 7104,
      "##ismov2005": 7105,
      "together": 7106,
      "toddler": 7107,
      "##entrionale": 7108,
      "reemerged": 7109,
      "reminiscent": 7110,
      "retaining": 7111,
      "Antonio": 7112,
      "quickest": 7113,
      "convert": 7114,
      "conclusions": 7115,
      "idiosyncratic": 7116,
      "withdrawal": 7117,
      "Therapies": 7118,
      "whm2003": 7119,
      "reformist": 7120,
      "reflecting": 7121,
      "stabalised": 7122,
      "standardized": 7123,
      "stewarthomesoci": 7124,
      "exclusive": 7125,
      "extract": 7126,
      "exemplifies": 7127,
      "alpha": 7128,
      "already": 7129,
      "altogether": 7130,
      "autismnocgraph": 7131,
      "succeeding": 7132,
      "summary": 7133,
      "departments": 7134,
      "depicted": 7135,
      "chief": 7136,
      "sp001689": 7137,
      "spoilt": 7138,
      "contexts": 7139,
      "leaves": 7140,
      "legitimacy": 7141,
      "lewrockwell": 7142,
      "syncretic": 7143,
      "frustration": 7144,
      "indigenous": 7145,
      "indifferent": 7146,
      "attitudes": 7147,
      "arbitration": 7148,
      "abundance": 7149,
      "clumsiness": 7150,
      "climaxed": 7151,
      "incompatible": 7152,
      "incorporated": 7153,
      "entitled": 7154,
      "expansion": 7155,
      "experimenal": 7156,
      "disappears": 7157,
      "dissident": 7158,
      "disliked": 7159,
      "somewhat": 7160,
      "interfering": 7161,
      "agricultural": 7162,
      "Characteristics": 7163,
      "Chiapas": 7164,
      "adjectives": 7165,
      "adolescence": 7166,
      "negotiations": 7167,
      "neopagan": 7168,
      "neighborhood": 7169,
      "dilettante": 7170,
      "Stephen": 7171,
      "Strands": 7172,
      "Stjórnleysisst": 7173,
      "Starhawk": 7174,
      "Stanley": 7175,
      "workplace": 7176,
      "Ashanti": 7177,
      "Spencer": 7178,
      "Spectacle": 7179,
      "Spooner": 7180,
      "phenomena": 7181,
      "Autonomist": 7182,
      "Authentic": 7183,
      "belongs": 7184,
      "infobox": 7185,
      "inflexible": 7186,
      "application": 7187,
      "approaches": 7188,
      "proprietor": 7189,
      "shyness": 7190,
      "repetitions": 7191,
      "mechanisms": 7192,
      "African": 7193,
      "improved": 7194,
      "imprisoned": 7195,
      "imperialism": 7196,
      "##ellos_deciden": 7197,
      "consensus": 7198,
      "constitution": 7199,
      "conservative": 7200,
      "conscience": 7201,
      "consolidate": 7202,
      "compensate": 7203,
      "compatibility": 7204,
      "compromised": 7205,
      "companionship": 7206,
      "eclectic": 7207,
      "##edia_761568770": 7208,
      "Competiting": 7209,
      "nonfunctional": 7210,
      "separate": 7211,
      "septentrionale": 7212,
      "Bakuninfull": 7213,
      "Manifesto": 7214,
      "libdebates": 7215,
      "prepare": 7216,
      "preventing": 7217,
      "prevalent": 7218,
      "prejudices": 7219,
      "AfghanistanCommunications": 7220,
      "AfghanistanMilitary": 7221,
      "Consequently": 7222,
      "Concerning": 7223,
      "criminality": 7224,
      "plat_preface": 7225,
      "schemaLocation": 7226,
      "schizophrenia": 7227,
      "upsilon": 7228,
      "accordance": 7229,
      "accommodations": 7230,
      "againstpolitics": 7231,
      "outcasts": 7232,
      "outbursts": 7233,
      "undermined": 7234,
      "underdiagnosed": 7235,
      "underreactivity": 7236,
      "CNT_tu_votar_y_": 7237,
      "Heinlein": 7238,
      "description": 7239,
      "knowledge": 7240,
      "poststructuralist": 7241,
      "reclassifications": 7242,
      "recorded": 7243,
      "Neopaganism": 7244,
      "regimentation": 7245,
      "DiseaseDisorder": 7246,
      "Disobedience": 7247,
      "ambiguous": 7248,
      "coexist": 7249,
      "subjective": 7250,
      "subheadings": 7251,
      "subscribe": 7252,
      "submovements": 7253,
      "subgroups": 7254,
      "subjugation": 7255,
      "observes": 7256,
      "warhealthstate": 7257,
      "##tions_to_marxism": 7258,
      "confronting": 7259,
      "Reprint": 7260,
      "Replies": 7261,
      "Recherce": 7262,
      "literature": 7263,
      "litencyc": 7264,
      "possibly": 7265,
      "possession": 7266,
      "Indymedia": 7267,
      "AmericanSamoa": 7268,
      "DejacqueJoseph": 7269,
      "December": 7270,
      "carelessness": 7271,
      "declared": 7272,
      "facilitate": 7273,
      "responsibility": 7274,
      "fascism_or_revolution": 7275,
      "Argentina": 7276,
      "Parliamentarianism": 7277,
      "occasionally": 7278,
      "noteworthy": 7279,
      "physiologically": 7280,
      "escape": 7281,
      "predecessors": 7282,
      "sympathizers": 7283,
      "clinomorphism": 7284,
      "Newsweek": 7285,
      "britt1910": 7286,
      "hist_texts": 7287,
      "handicapped": 7288,
      "instructor": 7289,
      "encarta": 7290,
      "encyclopedia_761568770": 7291,
      "161594": 7292,
      "distracted": 7293,
      "distasteful": 7294,
      "grabbing": 7295,
      "lettreapjp": 7296,
      "discrepancy": 7297,
      "impossibility": 7298,
      "ethics_of_voting": 7299,
      "Noam_chomsky": 7300,
      "27T03": 7301,
      "Clearinghouse": 7302,
      "misinterpret": 7303,
      "neurodevelopmental": 7304,
      "showarticle": 7305,
      "Anarchist_objections_to_marxism": 7306,
      "42136831": 7307,
      "42019020": 7308,
      "CrimethInc": 7309,
      "FeminismTwoStatements": 7310,
      "McCulloch": 7311,
      "culottes": 7312,
      "purposes": 7313,
      "sixteenth": 7314,
      "retrieved": 7315,
      "proclaimed": 7316,
      "proclivities": 7317,
      "Intelligence": 7318,
      "Confédération": 7319,
      "Republican": 7320,
      "especially": 7321,
      "Definitions_of_anarchism": 7322,
      "507787": 7323,
      "Main_Page": 7324,
      "corresponding": 7325,
      "circumstances": 7326,
      "counterparts": 7327,
      "emphasizes": 7328,
      "mysogyny": 7329,
      "omnipotence": 7330,
      "appleton_boston": 7331,
      "AfghanistanTransnationalIssues": 7332,
      "unconvinced": 7333,
      "AmoeboidTaxa": 7334,
      "0684832720": 7335,
      "32899315": 7336,
      "ANARCHISTS": 7337,
      "Copenhagen": 7338,
      "Epistemologie": 7339,
      "Générale": 7340,
      "NOTES": 7341,
      "NihAutismov2005": 7342,
      "Ohnoitsjamie": 7343,
      "Polytechnique": 7344,
      "Quotient": 7345,
      "Rosselló": 7346,
      "SOURCE": 7347,
      "Ukraine": 7348,
      "Wollstonecraft": 7349,
      "XMLSchema": 7350,
      "apx1pubs": 7351,
      "berry_david": 7352,
      "bureaucratic": 7353,
      "lumpenproletariat": 7354,
      "mutuellisme": 7355,
      "magnitude": 7356,
      "oversensitivity": 7357,
      "ra_forum": 7358,
      "vlntryst": 7359,
      "stewarthomesociety": 7360,
      "Stjórnleysisstefna": 7361,
      "CNT_tu_votar_y_ellos_deciden": 7362,
      "warhealthstate1918": 7363
    }
  }
}