{
  "version": "1.0",
  "truncation": null,
  "padding": null,
  "added_tokens": [
    {
      "id": 0,
      "content": "<unk>",
      "single_word": false,
      "lstrip": false,
      "rstrip": false,
      "normalized": false,
      "special": true
    },
    {
      "id": 1,
      "content": "<pad>",
      "single_word": false,
      "lstrip": false,
      "rstrip": false,
      "normalized": false,
      "special": true
    },
    {
      "id": 2,
      "content": "[CLS]",
      "single_word": false,
      "lstrip": false,
      "rstrip": false,
      "normalized": false,
      "special": true
    },
    {
      "id": 3,
      "content": "[SEP]",
      "single_word": false,
      "lstrip": false,
      "rstrip": false,
      "normalized": false,
      "special": true
    },
    {
      "id": 4,
      "content": "[MASK]",
      "single_word": false,
      "lstrip": false,
      "rstrip": false,
      "normalized": false,
      "special": true
    },
    {
      "id": 5,
      "content": "\n",
      "single_word": false,
      "lstrip": false,
      "rstrip": false,
      "normalized": false,
      "special": true
    },
    {
      "id": 6,
      "content": "\t",
      "single_word": false,
      "lstrip": false,
      "rstrip": false,
      "normalized": false,
      "special": true
    },
    {
      "id": 7,
      "content": " ",
      "single_word": false,
      "lstrip": false,
      "rstrip": false,
      "normalized": false,
      "special": true
    }
  ],
  "normalizer": null,
  "pre_tokenizer": {
    "type": "Whitespace"
  },
  "post_processor": null,
  "decoder": null,
  "model": {
    "type": "WordPiece",
    "unk_token": "<unk>",
    "continuing_subword_prefix": "##",
    "max_input_chars_per_word": 100,
    "vocab": {
      "<unk>": 0,
      "<pad>": 1,
      "[CLS]": 2,
      "[SEP]": 3,
      "[MASK]": 4,
      "\n": 5,
      "\t": 6,
      " ": 7,
      "!": 8,
      "\"": 9,
      "#": 10,
      "%": 11,
      "&": 12,
      "'": 13,
      "(": 14,
      ")": 15,
      "*": 16,
      ",": 17,
      "-": 18,
      ".": 19,
      "/": 20,
      "0": 21,
      "1": 22,
      "2": 23,
      "3": 24,
      "4": 25,
      "5": 26,
      "6": 27,
      "7": 28,
      "8": 29,
      "9": 30,
      ":": 31,
      ";": 32,
      "<": 33,
      "=": 34,
      ">": 35,
      "?": 36,
      "A": 37,
      "B": 38,
      "C": 39,
      "D": 40,
      "E": 41,
      "F": 42,
      "G": 43,
      "H": 44,
      "I": 45,
      "J": 46,
      "K": 47,
      "L": 48,
      "M": 49,
      "N": 50,
      "O": 51,
      "P": 52,
      "Q": 53,
      "R": 54,
      "S": 55,
      "T": 56,
      "U": 57,
      "V": 58,
      "W": 59,
      "X": 60,
      "Y": 61,
      "Z": 62,
      "[": 63,
      "]": 64,
      "_": 65,
      "a": 66,
      "b": 67,
      "c": 68,
      "d": 69,
      "e": 70,
      "f": 71,
      "g": 72,
      "h": 73,
      "i": 74,
      "j": 75,
      "k": 76,
      "l": 77,
      "m": 78,
      "n": 79,
      "o": 80,
      "p": 81,
      "q": 82,
      "r": 83,
      "s": 84,
      "t": 85,
      "u": 86,
      "v": 87,
      "w": 88,
      "x": 89,
      "y": 90,
      "z": 91,
      "{": 92,
      "|": 93,
      "}": 94,
      "~": 95,
      "à": 96,
      "á": 97,
      "â": 98,
      "é": 99,
      "ê": 100,
      "ó": 101,
      "ú": 102,
      "ī": 103,
      "ş": 104,
      "А": 105,
      "а": 106,
      "з": 107,
      "и": 108,
      "м": 109,
      "н": 110,
      "р": 111,
      "х": 112,
      "ъ": 113,
      "א": 114,
      "ז": 115,
      "י": 116,
      "כ": 117,
      "ם": 118,
      "נ": 119,
      "ר": 120,
      "ئ": 121,
      "ا": 122,
      "ة": 123,
      "ت": 124,
      "د": 125,
      "ز": 126,
      "س": 127,
      "ط": 128,
      "ل": 129,
      "و": 130,
      "ي": 131,
      "ی": 132,
      "ต": 133,
      "ท": 134,
      "ธ": 135,
      "น": 136,
      "ป": 137,
      "ย": 138,
      "ล": 139,
      "อ": 140,
      "ั": 141,
      "า": 142,
      "ิ": 143,
      "ไ": 144,
      "‌": 145,
      "–": 146,
      "—": 147,
      "’": 148,
      "“": 149,
      "”": 150,
      "ア": 151,
      "キ": 152,
      "ズ": 153,
      "ナ": 154,
      "ム": 155,
      "主": 156,
      "义": 157,
      "府": 158,
      "政": 159,
      "无": 160,
      "나": 161,
      "아": 162,
      "즘": 163,
      "키": 164,
      "##e": 165,
      "##a": 166,
      "##r": 167,
      "##l": 168,
      "##o": 169,
      "##d": 170,
      "##]": 171,
      "##,": 172,
      "##&": 173,
      "##t": 174,
      "##w": 175,
      "##h": 176,
      "##y": 177,
      "##s": 178,
      "##c": 179,
      "##i": 180,
      "##p": 181,
      "##n": 182,
      "##m": 183,
      "##u": 184,
      "##v": 185,
      "##x": 186,
      "##f": 187,
      "##é": 188,
      "##k": 189,
      "##g": 190,
      "##b": 191,
      "##q": 192,
      "##.": 193,
      "##나": 194,
      "##키": 195,
      "##즘": 196,
      "##8": 197,
      "##5": 198,
      "##0": 199,
      "###": 200,
      "##ó": 201,
      "##1": 202,
      "##z": 203,
      "##j": 204,
      "##2": 205,
      "##T": 206,
      "##S": 207,
      "##9": 208,
      "##7": 209,
      "##6": 210,
      "##)": 211,
      "##_": 212,
      "##Q": 213,
      "##K": 214,
      "##/": 215,
      "##L": 216,
      "##C": 217,
      "##D": 218,
      "##F": 219,
      "##A": 220,
      "##}": 221,
      "##н": 222,
      "##а": 223,
      "##р": 224,
      "##х": 225,
      "##и": 226,
      "##з": 227,
      "##ъ": 228,
      "##м": 229,
      "##3": 230,
      "##-": 231,
      "##I": 232,
      "##>": 233,
      "##M": 234,
      "##{": 235,
      "##4": 236,
      "##'": 237,
      "##P": 238,
      "##R": 239,
      "##\"": 240,
      "##[": 241,
      "##J": 242,
      "##N": 243,
      "##H": 244,
      "##政": 245,
      "##府": 246,
      "##主": 247,
      "##义": 248,
      "##?": 249,
      "##(": 250,
      "##*": 251,
      "##Z": 252,
      "##O": 253,
      "##U": 254,
      "##E": 255,
      "##G": 256,
      "##ú": 257,
      "##â": 258,
      "##و": 259,
      "##ل": 260,
      "##ت": 261,
      "##‌": 262,
      "##ز": 263,
      "##د": 264,
      "##ا": 265,
      "##ئ": 266,
      "##ی": 267,
      "##Y": 268,
      "##س": 269,
      "##ط": 270,
      "##ي": 271,
      "##ة": 272,
      "##ナ": 273,
      "##キ": 274,
      "##ズ": 275,
      "##ム": 276,
      "##ş": 277,
      "##B": 278,
      "##:": 279,
      "##W": 280,
      "##!": 281,
      "##<": 282,
      "##|": 283,
      "##נ": 284,
      "##ר": 285,
      "##כ": 286,
      "##י": 287,
      "##ז": 288,
      "##ם": 289,
      "##ī": 290,
      "##=": 291,
      "##;": 292,
      "##V": 293,
      "##á": 294,
      "##~": 295,
      "##ั": 296,
      "##ท": 297,
      "##ธ": 298,
      "##ิ": 299,
      "##อ": 300,
      "##น": 301,
      "##า": 302,
      "##ป": 303,
      "##ไ": 304,
      "##ต": 305,
      "##ย": 306,
      "##is": 307,
      "##er": 308,
      "th": 309,
      "##on": 310,
      "##ar": 311,
      "##ti": 312,
      "an": 313,
      "the": 314,
      "##en": 315,
      "##in": 316,
      "]]": 317,
      "##or": 318,
      "##es": 319,
      "[[": 320,
      "##ch": 321,
      "##al": 322,
      "##an": 323,
      "##ed": 324,
      "of": 325,
      "in": 326,
      "##at": 327,
      "##it": 328,
      "##ism": 329,
      "##arch": 330,
      "##ist": 331,
      "##om": 332,
      "##tion": 333,
      "##ot": 334,
      "##ut": 335,
      "and": 336,
      "to": 337,
      "##le": 338,
      "##ent": 339,
      "##ing": 340,
      "##ic": 341,
      "anarch": 342,
      "re": 343,
      "##ou": 344,
      "##re": 345,
      "##ve": 346,
      "##as": 347,
      "##ol": 348,
      "##op": 349,
      "##st": 350,
      "</": 351,
      "##ac": 352,
      "##am": 353,
      "##il": 354,
      "qu": 355,
      "quot": 356,
      "aut": 357,
      "##ation": 358,
      "##el": 359,
      "##tic": 360,
      "as": 361,
      "##ag": 362,
      "##ri": 363,
      "An": 364,
      "''": 365,
      "##oc": 366,
      "##ly": 367,
      "or": 368,
      "##ment": 369,
      "is": 370,
      "##th": 371,
      "##os": 372,
      "##ers": 373,
      "be": 374,
      "con": 375,
      "com": 376,
      "id": 377,
      "##ter": 378,
      "##ith": 379,
      "##ists": 380,
      "##un": 381,
      "##gh": 382,
      "with": 383,
      "pr": 384,
      "Th": 385,
      "that": 386,
      "]],": 387,
      "##ce": 388,
      "##ur": 389,
      "##id": 390,
      "Anarch": 391,
      "##ay": 392,
      "wh": 393,
      "##ir": 394,
      "##ul": 395,
      "for": 396,
      "##em": 397,
      "##ion": 398,
      "##age": 399,
      "##ate": 400,
      "##oci": 401,
      "ht": 402,
      "##est": 403,
      "ref": 404,
      "##ow": 405,
      "##iv": 406,
      "st": 407,
      "##et": 408,
      "##im": 409,
      "anarchism": 410,
      "##ec": 411,
      "##if": 412,
      "##us": 413,
      "##ual": 414,
      "ex": 415,
      "on": 416,
      "##ain": 417,
      "The": 418,
      "al": 419,
      "autism": 420,
      "mo": 421,
      "##''": 422,
      "##nd": 423,
      "##istic": 424,
      "]].": 425,
      "==": 426,
      "su": 427,
      "##ess": 428,
      "##ome": 429,
      "us": 430,
      "##ity": 431,
      "##rou": 432,
      "##ts": 433,
      "lt": 434,
      "gt": 435,
      "##ver": 436,
      "##[[": 437,
      "de": 438,
      "##pp": 439,
      "not": 440,
      "##ab": 441,
      "are": 442,
      "soci": 443,
      "##ian": 444,
      "##ical": 445,
      "##ng": 446,
      "##mp": 447,
      "##ert": 448,
      "In": 449,
      "##mun": 450,
      "ch": 451,
      "##od": 452,
      "anarchist": 453,
      "##tp": 454,
      "sp": 455,
      "##ap": 456,
      "##ace": 457,
      "19": 458,
      "##ad": 459,
      "##igh": 460,
      ":/": 461,
      "##ee": 462,
      "anarchists": 463,
      "cont": 464,
      "http": 465,
      "://": 466,
      "##ak": 467,
      "le": 468,
      "sy": 469,
      "by": 470,
      "autistic": 471,
      "ac": 472,
      "fr": 473,
      "te": 474,
      "##ud": 475,
      "##um": 476,
      "##amp": 477,
      "##ave": 478,
      "##ary": 479,
      "##ere": 480,
      "man": 481,
      "pe": 482,
      "ind": 483,
      "at": 484,
      "##og": 485,
      "##ib": 486,
      "##vement": 487,
      "##rib": 488,
      "##ten": 489,
      "##ik": 490,
      "##esp": 491,
      "rev": 492,
      "commun": 493,
      "##ople": 494,
      "##ame": 495,
      "wor": 496,
      "##uc": 497,
      "##ting": 498,
      "##ory": 499,
      "ar": 500,
      "have": 501,
      "tim": 502,
      "##ld": 503,
      "##iz": 504,
      "##gu": 505,
      "they": 506,
      "from": 507,
      "people": 508,
      "##ml": 509,
      "##ild": 510,
      "movement": 511,
      "##ost": 512,
      "##xt": 513,
      "##00": 514,
      "##ous": 515,
      "org": 516,
      "##ther": 517,
      "Anarchism": 518,
      "was": 519,
      "##ie": 520,
      "##ence": 521,
      "##ated": 522,
      "=\"": 523,
      "ab": 524,
      "page": 525,
      "##ig": 526,
      "##tive": 527,
      "##and": 528,
      "##ivid": 529,
      "social": 530,
      "cl": 531,
      "##ision": 532,
      "##ore": 533,
      "##ww": 534,
      "##arian": 535,
      "inc": 536,
      "##ribut": 537,
      "en": 538,
      "it": 539,
      "nam": 540,
      "un": 541,
      "www": 542,
      "##ern": 543,
      "##ividual": 544,
      "namesp": 545,
      ".&": 546,
      "##ren": 547,
      "##ted": 548,
      "##ia": 549,
      "##vel": 550,
      "exp": 551,
      "such": 552,
      "\">": 553,
      "dis": 554,
      "some": 555,
      "##se": 556,
      "##ution": 557,
      "whi": 558,
      "contribut": 559,
      "text": 560,
      "namespace": 561,
      "tit": 562,
      "}}": 563,
      "inter": 564,
      "##ose": 565,
      "##emin": 566,
      "##estamp": 567,
      "revision": 568,
      "timestamp": 569,
      "contributor": 570,
      "title": 571,
      "ag": 572,
      "##av": 573,
      "##so": 574,
      "##ction": 575,
      "##fer": 576,
      "their": 577,
      "individual": 578,
      "18": 579,
      "Ch": 580,
      "dif": 581,
      "par": 582,
      "{{": 583,
      "##hor": 584,
      "##our": 585,
      "##ill": 586,
      "child": 587,
      ";/": 588,
      "ad": 589,
      "amp": 590,
      "##ish": 591,
      "##ard": 592,
      "##ord": 593,
      "##ough": 594,
      "##olog": 595,
      "comment": 596,
      "many": 597,
      "ne": 598,
      "see": 599,
      "##ue": 600,
      "this": 601,
      "##agn": 602,
      "##tern": 603,
      "can": 604,
      "di": 605,
      "##sp": 606,
      "##ust": 607,
      "##alism": 608,
      "##oth": 609,
      "##ass": 610,
      "##ight": 611,
      "St": 612,
      "##ress": 613,
      "##ies": 614,
      "##ive": 615,
      "##ations": 616,
      "also": 617,
      "work": 618,
      "has": 619,
      "##hon": 620,
      "##iti": 621,
      "##angu": 622,
      "often": 623,
      "##act": 624,
      "author": 625,
      "synd": 626,
      "which": 627,
      "Sp": 628,
      "femin": 629,
      "other": 630,
      "ph": 631,
      "##rop": 632,
      "##ition": 633,
      "##89": 634,
      "##ans": 635,
      "##ould": 636,
      "one": 637,
      "usern": 638,
      "##erty": 639,
      "##umb": 640,
      "##agnos": 641,
      "username": 642,
      "Aut": 643,
      "bel": 644,
      "langu": 645,
      "tr": 646,
      "##ey": 647,
      "##erm": 648,
      "##orm": 649,
      "inf": 650,
      "##olution": 651,
      "pres": 652,
      "##ety": 653,
      "##roup": 654,
      "##velop": 655,
      "200": 656,
      ";[": 657,
      "may": 658,
      "##ev": 659,
      "##lud": 660,
      "##out": 661,
      "##ip": 662,
      "##ub": 663,
      "##ft": 664,
      "##arly": 665,
      "##end": 666,
      "##enc": 667,
      "##ase": 668,
      "language": 669,
      ";&": 670,
      "cap": 671,
      "group": 672,
      "more": 673,
      "##ever": 674,
      "##ob": 675,
      "prop": 676,
      "form": 677,
      "develop": 678,
      "15": 679,
      "app": 680,
      "##ail": 681,
      "##dhon": 682,
      "##ure": 683,
      "##all": 684,
      "anarcho": 685,
      "rel": 686,
      "##ational": 687,
      "'''": 688,
      "ide": 689,
      "who": 690,
      "##irst": 691,
      "includ": 692,
      "capit": 693,
      "gen": 694,
      "he": 695,
      "lab": 696,
      "sh": 697,
      "xml": 698,
      "##te": 699,
      "##ct": 700,
      "##ger": 701,
      "##onom": 702,
      "rep": 703,
      "state": 704,
      "all": 705,
      "his": 706,
      "its": 707,
      "key": 708,
      "me": 709,
      "min": 710,
      "so": 711,
      "##lic": 712,
      "##yp": 713,
      "##iol": 714,
      "them": 715,
      "##ort": 716,
      "##istan": 717,
      "##ree": 718,
      "##ack": 719,
      "str": 720,
      "##ect": 721,
      "##roudhon": 722,
      "Af": 723,
      "Proudhon": 724,
      "Some": 725,
      "imp": 726,
      "res": 727,
      "##ach": 728,
      "##]]": 729,
      "##vers": 730,
      "##ong": 731,
      "##ell": 732,
      "##elf": 733,
      "cons": 734,
      "##ult": 735,
      "differ": 736,
      "##ology": 737,
      "diagnos": 738,
      "belie": 739,
      ";[[": 740,
      "]&": 741,
      "do": 742,
      "ev": 743,
      "go": 744,
      "opp": 745,
      "term": 746,
      "##ro": 747,
      "##ok": 748,
      "##ph": 749,
      "##eral": 750,
      "##itarian": 751,
      "##ents": 752,
      "##asc": 753,
      "comp": 754,
      "html": 755,
      "===": 756,
      "use": 757,
      "class": 758,
      "##ear": 759,
      "##les": 760,
      "##ial": 761,
      "##fic": 762,
      "##qu": 763,
      "##ED": 764,
      "##arx": 765,
      "##tiv": 766,
      "##ant": 767,
      "##ainst": 768,
      "left": 769,
      "preser": 770,
      "ec": 771,
      "first": 772,
      "fasc": 773,
      "high": 774,
      "##ris": 775,
      "##lish": 776,
      "##ys": 777,
      "##ior": 778,
      "##mage": 779,
      "##edia": 780,
      "ass": 781,
      "most": 782,
      "society": 783,
      "##ign": 784,
      "disord": 785,
      "syndical": 786,
      "Al": 787,
      "Asp": 788,
      "Con": 789,
      "Com": 790,
      "Image": 791,
      "RED": 792,
      "Wh": 793,
      "non": 794,
      "pri": 795,
      "pers": 796,
      "right": 797,
      "se": 798,
      "##ative": 799,
      "##of": 800,
      "##hav": 801,
      "##sh": 802,
      "##CT": 803,
      "##IR": 804,
      "##ECT": 805,
      "##erger": 806,
      "##ink": 807,
      "##ited": 808,
      "##ings": 809,
      "##tical": 810,
      "##unin": 811,
      "##cep": 812,
      "##ular": 813,
      "refer": 814,
      "space": 815,
      "##akunin": 816,
      "movements": 817,
      "groups": 818,
      "preserve": 819,
      "Asperger": 820,
      "REDIR": 821,
      "##havior": 822,
      "REDIRECT": 823,
      "Bakunin": 824,
      "Man": 825,
      "Wor": 826,
      "lib": 827,
      "pre": 828,
      "pub": 829,
      "viol": 830,
      "##ved": 831,
      "##ge": 832,
      "##ark": 833,
      "##tim": 834,
      "##anistan": 835,
      "##ics": 836,
      "##oll": 837,
      "##old": 838,
      "##oph": 839,
      "''[[": 840,
      "##thers": 841,
      "behavior": 842,
      "##unction": 843,
      "##ghanistan": 844,
      "Anarcho": 845,
      "Anarchist": 846,
      "what": 847,
      "##'''": 848,
      "authoritarian": 849,
      "ideas": 850,
      "Afghanistan": 851,
      "/>": 852,
      "Am": 853,
      "CN": 854,
      "but": 855,
      "cri": 856,
      "main": 857,
      "pl": 858,
      "sch": 859,
      "up": 860,
      "##oin": 861,
      "##her": 862,
      "##ious": 863,
      "##ner": 864,
      "##kin": 865,
      "##0s": 866,
      "##</": 867,
      "than": 868,
      "anti": 869,
      "]]''": 870,
      "##ance": 871,
      "##oli": 872,
      "##ilos": 873,
      "''&": 874,
      "been": 875,
      "This": 876,
      "##ays": 877,
      "##ific": 878,
      "##uss": 879,
      "##nder": 880,
      "acc": 881,
      "##ization": 882,
      "\">#": 883,
      "against": 884,
      "children": 885,
      "property": 886,
      "capitalism": 887,
      "minor": 888,
      "##ilosoph": 889,
      "Lib": 890,
      "War": 891,
      "ed": 892,
      "early": 893,
      "fact": 894,
      "foll": 895,
      "out": 896,
      "sit": 897,
      "##eti": 898,
      "##aus": 899,
      "##ook": 900,
      "##cc": 901,
      "##ier": 902,
      "##px": 903,
      "##now": 904,
      "##man": 905,
      "##ker": 906,
      "thumb": 907,
      "these": 908,
      "##ast": 909,
      "##ely": 910,
      "##owever": 911,
      "examp": 912,
      "used": 913,
      "artic": 914,
      "organ": 915,
      "development": 916,
      "general": 917,
      "econom": 918,
      "CNT": 919,
      "follow": 920,
      "##": 921,
      "),": 922,
      "Fr": 923,
      "It": 924,
      "Le": 925,
      "jp": 926,
      "no": 927,
      "over": 928,
      "tend": 929,
      "under": 930,
      "were": 931,
      "would": 932,
      "##eric": 933,
      "there": 934,
      "those": 935,
      "##tin": 936,
      "##ens": 937,
      "int": 938,
      "##otkin": 939,
      "##action": 940,
      "bec": 941,
      "##urr": 942,
      "##ide": 943,
      "htm": 944,
      "##able": 945,
      "communic": 946,
      "##uct": 947,
      "##ucker": 948,
      "individuals": 949,
      "Stat": 950,
      "philosoph": 951,
      "##ropotkin": 952,
      "Autism": 953,
      "different": 954,
      "Commun": 955,
      "person": 956,
      "*[[": 957,
      ";#": 958,
      "He": 959,
      "Kropotkin": 960,
      "Soci": 961,
      "des": 962,
      "know": 963,
      "nat": 964,
      "numb": 965,
      "others": 966,
      "post": 967,
      "self": 968,
      "tw": 969,
      "tak": 970,
      "will": 971,
      "|[[": 972,
      "##aw": 973,
      "##rit": 974,
      "##ile": 975,
      "though": 976,
      "##tit": 977,
      "rec": 978,
      "##ility": 979,
      "##though": 980,
      "within": 981,
      "prof": 982,
      "##ural": 983,
      "Anarchists": 984,
      "##emp": 985,
      "##ivil": 986,
      "att": 987,
      "##ike": 988,
      "Chris": 989,
      "adv": 990,
      "##8989": 991,
      "2002": 992,
      "158989": 993,
      "oppos": 994,
      "disorder": 995,
      "jpg": 996,
      ";''": 997,
      "Eng": 998,
      "For": 999,
      "However": 1000,
      "Marx": 1001,
      "Ne": 1002,
      "Pe": 1003,
      "Russ": 1004,
      "Un": 1005,
      "co": 1006,
      "call": 1007,
      "del": 1008,
      "lack": 1009,
      "pop": 1010,
      "##oy": 1011,
      "##T1": 1012,
      "##til": 1013,
      "##tian": 1014,
      "]])": 1015,
      "]]</": 1016,
      "##ors": 1017,
      "##edi": 1018,
      "ins": 1019,
      "##utual": 1020,
      "reg": 1021,
      "##stem": 1022,
      "##ures": 1023,
      "##ider": 1024,
      "##iron": 1025,
      "stud": 1026,
      "sub": 1027,
      "supp": 1028,
      "Intern": 1029,
      "##iki": 1030,
      "revolution": 1031,
      "argu": 1032,
      "##iew": 1033,
      "about": 1034,
      "interest": 1035,
      "##oseph": 1036,
      "diffic": 1037,
      "part": 1038,
      "partic": 1039,
      "##ustri": 1040,
      "##ities": 1041,
      "feminist": 1042,
      "consider": 1043,
      "Christian": 1044,
      ").": 1045,
      "*'''": 1046,
      "Dis": 1047,
      "Rev": 1048,
      "See": 1049,
      "Tr": 1050,
      "am": 1051,
      "function": 1052,
      "like": 1053,
      "mak": 1054,
      "poli": 1055,
      "sc": 1056,
      "view": 1057,
      "we": 1058,
      "year": 1059,
      "##ry": 1060,
      "##rome": 1061,
      "##ool": 1062,
      "##viron": 1063,
      "##gin": 1064,
      "##0px": 1065,
      "##ised": 1066,
      "##enti": 1067,
      "]]'": 1068,
      "##ally": 1069,
      "##istory": 1070,
      "##ict": 1071,
      "anarchy": 1072,
      "##ope": 1073,
      "##els": 1074,
      "##tics": 1075,
      "There": 1076,
      "##ateg": 1077,
      "##ifest": 1078,
      "mod": 1079,
      "##rough": 1080,
      "def": 1081,
      "##ertarian": 1082,
      "system": 1083,
      "teach": 1084,
      "environ": 1085,
      "age": 1086,
      "##ression": 1087,
      "feminism": 1088,
      "even": 1089,
      "associ": 1090,
      "violence": 1091,
      "Americ": 1092,
      "school": 1093,
      "##ause": 1094,
      "example": 1095,
      "number": 1096,
      "advoc": 1097,
      "called": 1098,
      "popular": 1099,
      "International": 1100,
      "Revolution": 1101,
      "functioning": 1102,
      "environment": 1103,
      "Bol": 1104,
      "Eur": 1105,
      "Post": 1106,
      "af": 1107,
      "both": 1108,
      "cert": 1109,
      "ever": 1110,
      "hel": 1111,
      "list": 1112,
      "link": 1113,
      "ob": 1114,
      "sim": 1115,
      "war": 1116,
      "##ax": 1117,
      "##aj": 1118,
      "##aim": 1119,
      "##ating": 1120,
      "##red": 1121,
      "##ric": 1122,
      "##li": 1123,
      "##crib": 1124,
      "##mon": 1125,
      "##uch": 1126,
      "##go": 1127,
      "##bard": 1128,
      "##jec": 1129,
      "##ise": 1130,
      "##ari": 1131,
      "##ine": 1132,
      "##ince": 1133,
      "##orted": 1134,
      "##ese": 1135,
      "##alk": 1136,
      "##anish": 1137,
      "##oms": 1138,
      "##tions": 1139,
      "##lec": 1140,
      "##oun": 1141,
      "##rect": 1142,
      "##ily": 1143,
      "conf": 1144,
      "##ury": 1145,
      "when": 1146,
      "##ody": 1147,
      "191": 1148,
      "192": 1149,
      "least": 1150,
      "activ": 1151,
      "manifest": 1152,
      "##ible": 1153,
      "word": 1154,
      "##othbard": 1155,
      "syndrome": 1156,
      "Spain": 1157,
      "Spanish": 1158,
      "##ormal": 1159,
      "##ences": 1160,
      "include": 1161,
      "##ypical": 1162,
      "believe": 1163,
      "syndicalism": 1164,
      "##shev": 1165,
      "Work": 1166,
      "years": 1167,
      "Bolshev": 1168,
      "Europe": 1169,
      "certain": 1170,
      ";,": 1171,
      ";.": 1172,
      "As": 1173,
      "Fren": 1174,
      "God": 1175,
      "Ind": 1176,
      "Joseph": 1177,
      "On": 1178,
      "Re": 1179,
      "Tucker": 1180,
      "book": 1181,
      "cent": 1182,
      "col": 1183,
      "fe": 1184,
      "fam": 1185,
      "if": 1186,
      "lit": 1187,
      "md": 1188,
      "pat": 1189,
      "pos": 1190,
      "sign": 1191,
      "##ood": 1192,
      "##wn": 1193,
      "##ves": 1194,
      "##gr": 1195,
      "##que": 1196,
      "##jam": 1197,
      "##eri": 1198,
      "##eration": 1199,
      "through": 1200,
      "##inc": 1201,
      "##ite": 1202,
      "##ound": 1203,
      "##ash": 1204,
      "##ased": 1205,
      "##acif": 1206,
      "Anar": 1207,
      "bet": 1208,
      "without": 1209,
      "##vern": 1210,
      "##ade": 1211,
      "incre": 1212,
      "need": 1213,
      "##other": 1214,
      "##itions": 1215,
      "including": 1216,
      "should": 1217,
      "means": 1218,
      "govern": 1219,
      "Many": 1220,
      "##oldman": 1221,
      "underst": 1222,
      "##ensory": 1223,
      "communication": 1224,
      "philosophy": 1225,
      "describ": 1226,
      "two": 1227,
      "##ustrial": 1228,
      "American": 1229,
      "French": 1230,
      "mdash": 1231,
      "11": 1232,
      "17": 1233,
      "Ben": 1234,
      "De": 1235,
      "Ec": 1236,
      "Goldman": 1237,
      "Most": 1238,
      "Prop": 1239,
      "Pier": 1240,
      "Rothbard": 1241,
      "car": 1242,
      "cult": 1243,
      "dec": 1244,
      "fac": 1245,
      "free": 1246,
      "mon": 1247,
      "net": 1248,
      "poin": 1249,
      "resp": 1250,
      "talk": 1251,
      "##ex": 1252,
      "##air": 1253,
      "##rum": 1254,
      "##ov": 1255,
      "##day": 1256,
      "##ward": 1257,
      "##pre": 1258,
      "##mb": 1259,
      "##fore": 1260,
      "##form": 1261,
      "##gg": 1262,
      "##bers": 1263,
      "##SM": 1264,
      "##45": 1265,
      "##erv": 1266,
      "##ont": 1267,
      "##arac": 1268,
      "theory": 1269,
      "##ination": 1270,
      "##chn": 1271,
      "##ote": 1272,
      "##reen": 1273,
      "being": 1274,
      "convers": 1275,
      "concep": 1276,
      "princ": 1277,
      "##embers": 1278,
      "##ives": 1279,
      "spec": 1280,
      "193": 1281,
      "contro": 1282,
      "level": 1283,
      "communism": 1284,
      "community": 1285,
      "##ized": 1286,
      "claim": 1287,
      "expl": 1288,
      "interaction": 1289,
      "individualist": 1290,
      "seek": 1291,
      "150px": 1292,
      "relig": 1293,
      "capital": 1294,
      "##tegr": 1295,
      "mean": 1296,
      "struct": 1297,
      "##ectrum": 1298,
      "diagnosis": 1299,
      "comple": 1300,
      "fascism": 1301,
      "##lished": 1302,
      "public": 1303,
      "situ": 1304,
      "Leo": 1305,
      "nature": 1306,
      "thought": 1307,
      "##titution": 1308,
      "1589895": 1309,
      "Peter": 1310,
      "difficult": 1311,
      "every": 1312,
      "##ajor": 1313,
      "Bolshevik": 1314,
      "century": 1315,
      "##jamin": 1316,
      "government": 1317,
      "understand": 1318,
      "Benjamin": 1319,
      "Pierre": 1320,
      "##aracter": 1321,
      "princip": 1322,
      "controvers": 1323,
      "25": 1324,
      "Ar": 1325,
      "Civil": 1326,
      "DSM": 1327,
      "History": 1328,
      "Par": 1329,
      "US": 1330,
      "body": 1331,
      "based": 1332,
      "dur": 1333,
      "div": 1334,
      "eth": 1335,
      "fi": 1336,
      "foc": 1337,
      "had": 1338,
      "ip": 1339,
      "im": 1340,
      "lar": 1341,
      "must": 1342,
      "might": 1343,
      "mark": 1344,
      "members": 1345,
      "major": 1346,
      "occ": 1347,
      "own": 1348,
      "pacif": 1349,
      "sk": 1350,
      "set": 1351,
      "sec": 1352,
      "typical": 1353,
      "##eak": 1354,
      "##lu": 1355,
      "##lack": 1356,
      "##oting": 1357,
      "##ding": 1358,
      "##tle": 1359,
      "##top": 1360,
      "##win": 1361,
      "##hn": 1362,
      "##hop": 1363,
      "##par": 1364,
      "##ble": 1365,
      "##{{": 1366,
      "##arn": 1367,
      "##ties": 1368,
      "any": 1369,
      "theor": 1370,
      "]]&": 1371,
      "##ale": 1372,
      "##alth": 1373,
      "##ather": 1374,
      "##archy": 1375,
      "##lect": 1376,
      "##ental": 1377,
      "##reat": 1378,
      "##rection": 1379,
      "##olst": 1380,
      "And": 1381,
      "Anark": 1382,
      "##oshop": 1383,
      "cond": 1384,
      "Anarchy": 1385,
      "where": 1386,
      "only": 1387,
      "note": 1388,
      "character": 1389,
      "##oduc": 1390,
      "spectrum": 1391,
      "speak": 1392,
      "##aph": 1393,
      "##ights": 1394,
      "contr": 1395,
      "arm": 1396,
      "time": 1397,
      "while": 1398,
      "187": 1399,
      "Child": 1400,
      "authority": 1401,
      "phys": 1402,
      "influ": 1403,
      "labor": 1404,
      "seem": 1405,
      "##times": 1406,
      "play": 1407,
      "edu": 1408,
      "article": 1409,
      "articles": 1410,
      "economic": 1411,
      "into": 1412,
      "known": 1413,
      "profess": 1414,
      "United": 1415,
      "institution": 1416,
      "revolutionary": 1417,
      "considered": 1418,
      "Disord": 1419,
      "political": 1420,
      "##ategory": 1421,
      "help": 1422,
      "simil": 1423,
      "collec": 1424,
      "##pret": 1425,
      "during": 1426,
      "focus": 1427,
      "##olstoy": 1428,
      "--": 1429,
      "03": 1430,
      "10": 1431,
      "20": 1432,
      ":''": 1433,
      "By": 1434,
      "Category": 1435,
      "Di": 1436,
      "Em": 1437,
      "Jo": 1438,
      "Mik": 1439,
      "Murr": 1440,
      "Mutual": 1441,
      "Other": 1442,
      "Since": 1443,
      "Tolstoy": 1444,
      "cre": 1445,
      "curr": 1446,
      "det": 1447,
      "found": 1448,
      "how": 1449,
      "join": 1450,
      "lif": 1451,
      "marx": 1452,
      "##eb": 1453,
      "##earch": 1454,
      "##eign": 1455,
      "##au": 1456,
      "##az": 1457,
      "##ra": 1458,
      "##rner": 1459,
      "##raph": 1460,
      "##lop": 1461,
      "##dom": 1462,
      "##ty": 1463,
      "##hail": 1464,
      "##yn": 1465,
      "##nal": 1466,
      "##ma": 1467,
      "##ming": 1468,
      "##mall": 1469,
      "##ful": 1470,
      "##gan": 1471,
      "##--": 1472,
      "##43": 1473,
      "##one": 1474,
      "##arth": 1475,
      "##tirner": 1476,
      "another": 1477,
      "##anner": 1478,
      "##ater": 1479,
      "##ismo": 1480,
      "##istor": 1481,
      "##ute": 1482,
      "##lem": 1483,
      "##lection": 1484,
      "##ently": 1485,
      "##ice": 1486,
      "##olved": 1487,
      "##riting": 1488,
      "##rigin": 1489,
      "common": 1490,
      "pred": 1491,
      "prob": 1492,
      "##urn": 1493,
      "force": 1494,
      "stat": 1495,
      "##usual": 1496,
      "exten": 1497,
      "although": 1498,
      "##round": 1499,
      "##ians": 1500,
      "Ins": 1501,
      "199": 1502,
      "lead": 1503,
      "learn": 1504,
      "symp": 1505,
      "accep": 1506,
      "industrial": 1507,
      "world": 1508,
      "able": 1509,
      "clin": 1510,
      "union": 1511,
      "unusual": 1512,
      "expression": 1513,
      "sometimes": 1514,
      "interpret": 1515,
      "##ological": 1516,
      "workers": 1517,
      "##itiv": 1518,
      "##ormation": 1519,
      "information": 1520,
      "present": 1521,
      "##ency": 1522,
      "##ails": 1523,
      "research": 1524,
      "good": 1525,
      "fascist": 1526,
      "Although": 1527,
      "What": 1528,
      "prim": 1529,
      "World": 1530,
      "published": 1531,
      "critic": 1532,
      "Warren": 1533,
      "##etitive": 1534,
      "following": 1535,
      "Statistic": 1536,
      "Social": 1537,
      "take": 1538,
      "Engels": 1539,
      "New": 1540,
      "delay": 1541,
      "student": 1542,
      "argue": 1543,
      "modern": 1544,
      "links": 1545,
      "conflic": 1546,
      "activity": 1547,
      "Workers": 1548,
      "described": 1549,
      "imag": 1550,
      "skill": 1551,
      "institutions": 1552,
      "similar": 1553,
      "Mikhail": 1554,
      "Murray": 1555,
      "life": 1556,
      ")|": 1557,
      ".'''": 1558,
      "945": 1559,
      ";!": 1560,
      "Ex": 1561,
      "First": 1562,
      "Green": 1563,
      "IQ": 1564,
      "Kanner": 1565,
      "La": 1566,
      "List": 1567,
      "No": 1568,
      "Stirner": 1569,
      "Will": 1570,
      "aw": 1571,
      "crit": 1572,
      "civil": 1573,
      "dom": 1574,
      "day": 1575,
      "dem": 1576,
      "el": 1577,
      "ego": 1578,
      "fl": 1579,
      "hum": 1580,
      "hand": 1581,
      "late": 1582,
      "mil": 1583,
      "mutual": 1584,
      "normal": 1585,
      "rise": 1586,
      "rather": 1587,
      "rights": 1588,
      "sing": 1589,
      "sever": 1590,
      "sensory": 1591,
      "trou": 1592,
      "turn": 1593,
      "way": 1594,
      "writing": 1595,
      "##app": 1596,
      "##ru": 1597,
      "##ror": 1598,
      "##row": 1599,
      "##rary": 1600,
      "##lan": 1601,
      "##tary": 1602,
      "##toms": 1603,
      "##han": 1604,
      "##hood": 1605,
      "##su": 1606,
      "##sive": 1607,
      "##side": 1608,
      "##cy": 1609,
      "##ci": 1610,
      "##ces": 1611,
      "##function": 1612,
      "##ke": 1613,
      "##ject": 1614,
      "##68": 1615,
      "##}}": 1616,
      "##eria": 1617,
      "think": 1618,
      "##ond": 1619,
      "##aring": 1620,
      "##ense": 1621,
      "##ind": 1622,
      "##ined": 1623,
      "##orary": 1624,
      "##anarch": 1625,
      "inv": 1626,
      "inst": 1627,
      "inten": 1628,
      "##ates": 1629,
      "##atform": 1630,
      "##isme": 1631,
      "##omp": 1632,
      "today": 1633,
      "anarcha": 1634,
      "real": 1635,
      "##ases": 1636,
      "##olic": 1637,
      "##olun": 1638,
      "##eless": 1639,
      "##ellect": 1640,
      "'',": 1641,
      "before": 1642,
      "##unk": 1643,
      "##urther": 1644,
      "##urrection": 1645,
      "##ults": 1646,
      "##ularly": 1647,
      "##ower": 1648,
      "##iving": 1649,
      "##ected": 1650,
      "They": 1651,
      "##vereign": 1652,
      "##aplan": 1653,
      "##eech": 1654,
      "action": 1655,
      "##ogn": 1656,
      "##ize": 1657,
      "ability": 1658,
      "experi": 1659,
      "189": 1660,
      "Chin": 1661,
      "##ournal": 1662,
      "##ressive": 1663,
      "working": 1664,
      "Autistic": 1665,
      "trans": 1666,
      "infan": 1667,
      "appear": 1668,
      "label": 1669,
      "labour": 1670,
      "##istance": 1671,
      "belief": 1672,
      "disorders": 1673,
      "priv": 1674,
      "reference": 1675,
      "Manual": 1676,
      "libertarian": 1677,
      "library": 1678,
      "violent": 1679,
      "Libertarian": 1680,
      "##ccess": 1681,
      "developmental": 1682,
      "States": 1683,
      "##emporary": 1684,
      "attach": 1685,
      "opposed": 1686,
      "English": 1687,
      "Russian": 1688,
      "##till": 1689,
      "supported": 1690,
      "interests": 1691,
      "associated": 1692,
      "schools": 1693,
      "advocate": 1694,
      "after": 1695,
      "Godwin": 1696,
      "feel": 1697,
      "Eco": 1698,
      "Property": 1699,
      "point": 1700,
      "##chnology": 1701,
      "specific": 1702,
      "religious": 1703,
      "structures": 1704,
      "situation": 1705,
      "principles": 1706,
      "controversial": 1707,
      "large": 1708,
      "##topian": 1709,
      "physical": 1710,
      "collectiv": 1711,
      "--&": 1712,
      "Diagnos": 1713,
      "details": 1714,
      "problem": 1715,
      "symptoms": 1716,
      "conflict": 1717,
      "imagin": 1718,
      "skills": 1719,
      ";!--": 1720,
      "criteria": 1721,
      "trouble": 1722,
      "##oluntary": 1723,
      "##ellectual": 1724,
      "',": 1725,
      ",&": 1726,
      "02": 1727,
      "09": 1728,
      "16": 1729,
      "13": 1730,
      "14": 1731,
      "43": 1732,
      "=&": 1733,
      "Bry": 1734,
      "CG": 1735,
      "Cent": 1736,
      "Caplan": 1737,
      "Dr": 1738,
      "En": 1739,
      "Gree": 1740,
      "IV": 1741,
      "King": 1742,
      "Mental": 1743,
      "National": 1744,
      "Or": 1745,
      "Ple": 1746,
      "Sy": 1747,
      "Wes": 1748,
      "br": 1749,
      "black": 1750,
      "cle": 1751,
      "dist": 1752,
      "dest": 1753,
      "due": 1754,
      "et": 1755,
      "em": 1756,
      "eas": 1757,
      "ful": 1758,
      "fail": 1759,
      "further": 1760,
      "gl": 1761,
      "gest": 1762,
      "her": 1763,
      "him": 1764,
      "hold": 1765,
      "hier": 1766,
      "il": 1767,
      "led": 1768,
      "let": 1769,
      "less": 1770,
      "law": 1771,
      "later": 1772,
      "mus": 1773,
      "media": 1774,
      "much": 1775,
      "name": 1776,
      "op": 1777,
      "origin": 1778,
      "pa": 1779,
      "power": 1780,
      "rou": 1781,
      "redi": 1782,
      "ster": 1783,
      "stim": 1784,
      "small": 1785,
      "still": 1786,
      "tot": 1787,
      "tri": 1788,
      "vict": 1789,
      "vari": 1790,
      "well": 1791,
      "##een": 1792,
      "##eot": 1793,
      "##ead": 1794,
      "##ron": 1795,
      "##res": 1796,
      "##rac": 1797,
      "##tre": 1798,
      "##ween": 1799,
      "##hib": 1800,
      "##hip": 1801,
      "##ych": 1802,
      "##sw": 1803,
      "##sel": 1804,
      "##sible": 1805,
      "##sych": 1806,
      "##clop": 1807,
      "##ih": 1808,
      "##ire": 1809,
      "##iam": 1810,
      "##pr": 1811,
      "##pl": 1812,
      "##pt": 1813,
      "##min": 1814,
      "##ugg": 1815,
      "##ven": 1816,
      "##ky": 1817,
      "##FA": 1818,
      "##isation": 1819,
      "##erb": 1820,
      "things": 1821,
      "##ons": 1822,
      "##oni": 1823,
      "##are": 1824,
      "##arl": 1825,
      "##art": 1826,
      "##arity": 1827,
      "]]}}": 1828,
      "##chives": 1829,
      "##ank": 1830,
      "##ang": 1831,
      "##ange": 1832,
      "##eder": 1833,
      "##ederation": 1834,
      "initi": 1835,
      "##ately": 1836,
      "##istent": 1837,
      "##omin": 1838,
      "##tional": 1839,
      "##let": 1840,
      "##ices": 1841,
      "##icians": 1842,
      "rece": 1843,
      "##read": 1844,
      "##olid": 1845,
      "autonom": 1846,
      "Anti": 1847,
      "##ments": 1848,
      "conc": 1849,
      "contin": 1850,
      "##und": 1851,
      "produc": 1852,
      "Anarcha": 1853,
      "##ulate": 1854,
      "##ional": 1855,
      "##ecess": 1856,
      "exist": 1857,
      "exhib": 1858,
      "altern": 1859,
      "along": 1860,
      "deg": 1861,
      "##abap": 1862,
      "##ability": 1863,
      "197": 1864,
      "##eek": 1865,
      "syn": 1866,
      "symb": 1867,
      "autistics": 1868,
      "##tention": 1869,
      "##ikip": 1870,
      "communist": 1871,
      "communities": 1872,
      "##izm": 1873,
      "abs": 1874,
      "enc": 1875,
      "disc": 1876,
      "##sequ": 1877,
      "##eminism": 1878,
      "##aving": 1879,
      "##avid": 1880,
      "adults": 1881,
      "new": 1882,
      "##terns": 1883,
      "direct": 1884,
      "State": 1885,
      "feminists": 1886,
      "##ropri": 1887,
      "below": 1888,
      "trad": 1889,
      "true": 1890,
      "2006": 1891,
      "##enced": 1892,
      "##obal": 1893,
      "related": 1894,
      "relations": 1895,
      "show": 1896,
      "reported": 1897,
      "repetitive": 1898,
      "allow": 1899,
      "sovereign": 1900,
      "##yped": 1901,
      "themsel": 1902,
      "##ortant": 1903,
      "strugg": 1904,
      "impos": 1905,
      "resistance": 1906,
      "diagnosed": 1907,
      "does": 1908,
      "terms": 1909,
      "##oken": 1910,
      "##ysfunction": 1911,
      "syndicalist": 1912,
      "Conf": 1913,
      "While": 1914,
      "prior": 1915,
      "referred": 1916,
      "references": 1917,
      "behaviors": 1918,
      "##ificant": 1919,
      "Liberty": 1920,
      "educ": 1921,
      "economics": 1922,
      "From": 1923,
      "France": 1924,
      "became": 1925,
      "because": 1926,
      "natural": 1927,
      "recogn": 1928,
      "attemp": 1929,
      ";'',": 1930,
      ";''&": 1931,
      "##T15": 1932,
      "]]).": 1933,
      "students": 1934,
      "particular": 1935,
      "particularly": 1936,
      "among": 1937,
      "views": 1938,
      "##ential": 1939,
      "environmental": 1940,
      "aff": 1941,
      "objec": 1942,
      "##omsky": 1943,
      "European": 1944,
      "Ass": 1945,
      "books": 1946,
      "famous": 1947,
      "little": 1948,
      "patterns": 1949,
      "significant": 1950,
      "Anarqu": 1951,
      "better": 1952,
      "between": 1953,
      "increase": 1954,
      "culture": 1955,
      "concepts": 1956,
      "capitalist": 1957,
      "complete": 1958,
      "Bolsheviks": 1959,
      "Arm": 1960,
      "ethics": 1961,
      "market": 1962,
      "occur": 1963,
      "Andre": 1964,
      "conditions": 1965,
      "Disorders": 1966,
      "Emma": 1967,
      "marxists": 1968,
      "extensive": 1969,
      "learning": 1970,
      "interpretations": 1971,
      "Statistical": 1972,
      "Noam": 1973,
      "William": 1974,
      "democ": 1975,
      "human": 1976,
      "single": 1977,
      "##cyclop": 1978,
      "##anarchism": 1979,
      "involved": 1980,
      "Diagnostic": 1981,
      "problems": 1982,
      "Bryan": 1983,
      "CGT": 1984,
      "Greek": 1985,
      "Western": 1986,
      "routin": 1987,
      "redirect": 1988,
      "stereot": 1989,
      "continu": 1990,
      "exhibit": 1991,
      "##abapt": 1992,
      "##ikipedia": 1993,
      "sovereignty": 1994,
      "themselves": 1995,
      "stereotyped": 1996,
      "'.": 1997,
      "([[": 1998,
      "*[": 1999,
      ".,": 2000,
      ".]]": 2001,
      "000": 2002,
      "12": 2003,
      "27": 2004,
      "300": 2005,
      "80": 2006,
      "96": 2007,
      "?]]": 2008,
      "Aid": 2009,
      "App": 2010,
      "Action": 2011,
      "Apr": 2012,
      "Bar": 2013,
      "But": 2014,
      "Cle": 2015,
      "Cam": 2016,
      "Ego": 2017,
      "FA": 2018,
      "Fact": 2019,
      "Germ": 2020,
      "Hans": 2021,
      "IC": 2022,
      "Its": 2023,
      "Land": 2024,
      "Mc": 2025,
      "Mak": 2026,
      "Media": 2027,
      "Max": 2028,
      "Pl": 2029,
      "Pri": 2030,
      "Poli": 2031,
      "Sensory": 2032,
      "UK": 2033,
      "Yar": 2034,
      "Zap": 2035,
      "],": 2036,
      "around": 2037,
      "bir": 2038,
      "cr": 2039,
      "could": 2040,
      "case": 2041,
      "cited": 2042,
      "cause": 2043,
      "cases": 2044,
      "es": 2045,
      "ef": 2046,
      "eq": 2047,
      "fav": 2048,
      "giv": 2049,
      "give": 2050,
      "here": 2051,
      "histor": 2052,
      "having": 2053,
      "jus": 2054,
      "just": 2055,
      "lim": 2056,
      "long": 2057,
      "living": 2058,
      "mis": 2059,
      "now": 2060,
      "old": 2061,
      "per": 2062,
      "pit": 2063,
      "punk": 2064,
      "psych": 2065,
      "ro": 2066,
      "ru": 2067,
      "rac": 2068,
      "rul": 2069,
      "rest": 2070,
      "rad": 2071,
      "same": 2072,
      "says": 2073,
      "since": 2074,
      "sense": 2075,
      "ter": 2076,
      "tucker": 2077,
      "treat": 2078,
      "utopian": 2079,
      "ve": 2080,
      "var": 2081,
      "voc": 2082,
      "voting": 2083,
      "wr": 2084,
      "ws": 2085,
      "wing": 2086,
      "wid": 2087,
      "writ": 2088,
      "wiki": 2089,
      "##eat": 2090,
      "##eas": 2091,
      "##eth": 2092,
      "##ease": 2093,
      "##eology": 2094,
      "##ao": 2095,
      "##ros": 2096,
      "##rand": 2097,
      "##ling": 2098,
      "##ox": 2099,
      "##ovement": 2100,
      "##dd": 2101,
      "##tan": 2102,
      "##tain": 2103,
      "##wiki": 2104,
      "##ym": 2105,
      "##set": 2106,
      "##cu": 2107,
      "##ix": 2108,
      "##iat": 2109,
      "##itive": 2110,
      "##pation": 2111,
      "##nic": 2112,
      "##national": 2113,
      "##normal": 2114,
      "##mac": 2115,
      "##volution": 2116,
      "##viol": 2117,
      "##foshop": 2118,
      "##giti": 2119,
      "##bell": 2120,
      "##jac": 2121,
      "##T0": 2122,
      "##Case": 2123,
      "##48": 2124,
      "##ery": 2125,
      "##erc": 2126,
      "##erg": 2127,
      "##tile": 2128,
      "##tique": 2129,
      "anx": 2130,
      "answ": 2131,
      "##ene": 2132,
      "##ines": 2133,
      "]]]]": 2134,
      "##orth": 2135,
      "##alph": 2136,
      "##any": 2137,
      "insp": 2138,
      "##isms": 2139,
      "##omated": 2140,
      "##ots": 2141,
      "too": 2142,
      "tox": 2143,
      "toward": 2144,
      "##ico": 2145,
      "rem": 2146,
      "rebell": 2147,
      "##reed": 2148,
      "##oly": 2149,
      "##ops": 2150,
      "##ilit": 2151,
      "##elCase": 2152,
      "##tice": 2153,
      "##ages": 2154,
      "##agand": 2155,
      "##riarchy": 2156,
      "##ript": 2157,
      "''.": 2158,
      "##ock": 2159,
      "##ocol": 2160,
      "##lying": 2161,
      "##ths": 2162,
      "##thing": 2163,
      "##ersity": 2164,
      "begin": 2165,
      "comb": 2166,
      "prot": 2167,
      "These": 2168,
      "Anarchizm": 2169,
      "##ired": 2170,
      "##ulties": 2171,
      "stri": 2172,
      "stress": 2173,
      "##ets": 2174,
      "##ection": 2175,
      "##use": 2176,
      "##ually": 2177,
      "]].&": 2178,
      "using": 2179,
      "noted": 2180,
      "##ably": 2181,
      "areas": 2182,
      "##ically": 2183,
      "Integr": 2184,
      "Infoshop": 2185,
      "chang": 2186,
      "speech": 2187,
      "19th": 2188,
      "act": 2189,
      "acts": 2190,
      "active": 2191,
      "front": 2192,
      "##udd": 2193,
      "attention": 2194,
      "##ograph": 2195,
      "communists": 2196,
      "arch": 2197,
      "abnormal": 2198,
      "##igg": 2199,
      "##arianism": 2200,
      "enter": 2201,
      "until": 2202,
      "explic": 2203,
      "}}</": 2204,
      "188": 2205,
      "Chomsky": 2206,
      "adding": 2207,
      "##ought": 2208,
      "neur": 2209,
      "works": 2210,
      "Automated": 2211,
      "trade": 2212,
      "infoshop": 2213,
      "appar": 2214,
      "appropri": 2215,
      "##aily": 2216,
      "idea": 2217,
      "gene": 2218,
      "labels": 2219,
      "repres": 2220,
      "itself": 2221,
      "strong": 2222,
      "strateg": 2223,
      "After": 2224,
      "impair": 2225,
      "important": 2226,
      "resist": 2227,
      "##version": 2228,
      "difference": 2229,
      "diagnoses": 2230,
      "believed": 2231,
      "going": 2232,
      "##roy": 2233,
      "competi": 2234,
      "##ficial": 2235,
      "fascists": 2236,
      "highly": 2237,
      "assert": 2238,
      "Conversion": 2239,
      "##atively": 2240,
      "prefer": 2241,
      "Anarchist_": 2242,
      "critics": 2243,
      "critique": 2244,
      "upon": 2245,
      "##ification": 2246,
      "factors": 2247,
      "examples": 2248,
      "tendency": 2249,
      "intellectual": 2250,
      "Communists": 2251,
      "Health": 2252,
      "Socialism": 2253,
      "profit": 2254,
      "opposition": 2255,
      "Marxist": 2256,
      "Russell": 2257,
      "delays": 2258,
      "regard": 2259,
      "subject": 2260,
      "argued": 2261,
      "difficulties": 2262,
      "make": 2263,
      "makes": 2264,
      "making": 2265,
      "sci": 2266,
      "script": 2267,
      "web": 2268,
      "teacher": 2269,
      "##lied": 2270,
      "1910": 2271,
      "words": 2272,
      "Individual": 2273,
      "One": 2274,
      "patriarchy": 2275,
      "throughout": 2276,
      "Anarh": 2277,
      "11Z": 2278,
      "Def": 2279,
      "cultural": 2280,
      "conversion": 2281,
      "1936": 2282,
      "explain": 2283,
      "difficulty": 2284,
      "understanding": 2285,
      "25T15": 2286,
      "Paris": 2287,
      "section": 2288,
      "theorists": 2289,
      "Anarkisme": 2290,
      "control": 2291,
      "Children": 2292,
      "Insurrection": 2293,
      "accepted": 2294,
      "clinicians": 2295,
      "##itivism": 2296,
      "civilization": 2297,
      "##cient": 2298,
      "Chinese": 2299,
      "infantile": 2300,
      "private": 2301,
      "attachment": 2302,
      "Encyclop": 2303,
      "Kingdom": 2304,
      "Organ": 2305,
      "Synd": 2306,
      "emo": 2307,
      "easily": 2308,
      "mediawiki": 2309,
      "stimul": 2310,
      "##ihil": 2311,
      "##onialism": 2312,
      "##olidarity": 2313,
      "autonomous": 2314,
      "degree": 2315,
      "discuss": 2316,
      "##obalization": 2317,
      "struggle": 2318,
      "April": 2319,
      "CamelCase": 2320,
      "Factor": 2321,
      "ICD": 2322,
      "Makhn": 2323,
      "Platform": 2324,
      "Yarros": 2325,
      "Zapat": 2326,
      "birth": 2327,
      "equal": 2328,
      "given": 2329,
      "terror": 2330,
      "treatment": 2331,
      "wrote": 2332,
      "##jacque": 2333,
      "rebellion": 2334,
      "##aganda": 2335,
      "explicit": 2336,
      "appropriate": 2337,
      "competition": 2338,
      "Insurrectionary": 2339,
      "/~": 2340,
      "07": 2341,
      "04": 2342,
      "100": 2343,
      "21": 2344,
      "39": 2345,
      "42": 2346,
      ";)": 2347,
      "Ad": 2348,
      "At": 2349,
      "Austri": 2350,
      "Access": 2351,
      "Ber": 2352,
      "Bec": 2353,
      "Bert": 2354,
      "Bey": 2355,
      "Black": 2356,
      "Cri": 2357,
      "Carl": 2358,
      "Due": 2359,
      "David": 2360,
      "Dysfunction": 2361,
      "Digg": 2362,
      "Er": 2363,
      "Earth": 2364,
      "Evolution": 2365,
      "Feb": 2366,
      "Federation": 2367,
      "Feminism": 2368,
      "Gen": 2369,
      "Gust": 2370,
      "Hak": 2371,
      "Herb": 2372,
      "Id": 2373,
      "Jes": 2374,
      "Jan": 2375,
      "Journal": 2376,
      "Kron": 2377,
      "Lab": 2378,
      "LFA": 2379,
      "Mol": 2380,
      "May": 2381,
      "Magn": 2382,
      "Mans": 2383,
      "Much": 2384,
      "Movement": 2385,
      "Oct": 2386,
      "Others": 2387,
      "Ph": 2388,
      "Ra": 2389,
      "Rob": 2390,
      "Ralph": 2391,
      "So": 2392,
      "Solidarity": 2393,
      "Te": 2394,
      "Vict": 2395,
      "Voluntary": 2396,
      "With": 2397,
      "Wikipedia": 2398,
      "You": 2399,
      "ach": 2400,
      "aid": 2401,
      "aide": 2402,
      "best": 2403,
      "band": 2404,
      "bour": 2405,
      "base": 2406,
      "bene": 2407,
      "ca": 2408,
      "cur": 2409,
      "cul": 2410,
      "cure": 2411,
      "caus": 2412,
      "did": 2413,
      "divid": 2414,
      "dward": 2415,
      "daily": 2416,
      "ey": 2417,
      "est": 2418,
      "end": 2419,
      "eng": 2420,
      "esp": 2421,
      "ete": 2422,
      "emb": 2423,
      "earth": 2424,
      "election": 2425,
      "fin": 2426,
      "fri": 2427,
      "fem": 2428,
      "feder": 2429,
      "fought": 2430,
      "green": 2431,
      "great": 2432,
      "grow": 2433,
      "har": 2434,
      "however": 2435,
      "history": 2436,
      "journal": 2437,
      "kind": 2438,
      "lot": 2439,
      "low": 2440,
      "look": 2441,
      "lives": 2442,
      "my": 2443,
      "mid": 2444,
      "medi": 2445,
      "made": 2446,
      "necess": 2447,
      "pur": 2448,
      "peri": 2449,
      "polic": 2450,
      "sl": 2451,
      "ser": 2452,
      "saw": 2453,
      "ton": 2454,
      "ut": 2455,
      "vo": 2456,
      "vis": 2457,
      "vary": 2458,
      "vision": 2459,
      "voluntary": 2460,
      "wave": 2461,
      "wish": 2462,
      "ways": 2463,
      "xs": 2464,
      "zh": 2465,
      "Ан": 2466,
      "##eed": 2467,
      "##aos": 2468,
      "##ral": 2469,
      "##ram": 2470,
      "##ration": 2471,
      "##ray": 2472,
      "##rase": 2473,
      "##ruct": 2474,
      "##roduc": 2475,
      "##rchives": 2476,
      "##ler": 2477,
      "##led": 2478,
      "##lus": 2479,
      "##log": 2480,
      "##oa": 2481,
      "##ois": 2482,
      "##oid": 2483,
      "##der": 2484,
      "##tr": 2485,
      "##temporary": 2486,
      "##wh": 2487,
      "##he": 2488,
      "##yre": 2489,
      "##ss": 2490,
      "##ser": 2491,
      "##iar": 2492,
      "##ien": 2493,
      "##ied": 2494,
      "##iet": 2495,
      "##iting": 2496,
      "##iety": 2497,
      "##pan": 2498,
      "##ple": 2499,
      "##ply": 2500,
      "##pid": 2501,
      "##pub": 2502,
      "##ness": 2503,
      "##mate": 2504,
      "##most": 2505,
      "##ug": 2506,
      "##uly": 2507,
      "##ving": 2508,
      "##fy": 2509,
      "##fort": 2510,
      "##khan": 2511,
      "##get": 2512,
      "##..": 2513,
      "##ón": 2514,
      "##15": 2515,
      "##19": 2516,
      "##zer": 2517,
      "##Archives": 2518,
      "##ар": 2519,
      "##хи": 2520,
      "##37": 2521,
      "##40s": 2522,
      "##RC": 2523,
      "##HI": 2524,
      "##Wiki": 2525,
      "##iss": 2526,
      "##isting": 2527,
      "##erat": 2528,
      "##erap": 2529,
      "thing": 2530,
      "##onse": 2531,
      "##onents": 2532,
      "ann": 2533,
      "anabapt": 2534,
      "theore": 2535,
      "##enn": 2536,
      "##inn": 2537,
      "##inari": 2538,
      "##initions": 2539,
      "]];": 2540,
      "]]{{": 2541,
      "##ork": 2542,
      "##ortion": 2543,
      "##esis": 2544,
      "##ches": 2545,
      "##ality": 2546,
      "##ansp": 2547,
      "##edical": 2548,
      "offer": 2549,
      "inher": 2550,
      "integr": 2551,
      "inability": 2552,
      "##ators": 2553,
      "##ites": 2554,
      "##itative": 2555,
      "##ista": 2556,
      "##omb": 2557,
      "##omen": 2558,
      "##tionary": 2559,
      "##lex": 2560,
      "##leed": 2561,
      "##ented": 2562,
      "##inger": 2563,
      "##ick": 2564,
      "anarchistic": 2565,
      "ret": 2566,
      "reas": 2567,
      "reaction": 2568,
      "rejec": 2569,
      "##ream": 2570,
      "##asive": 2571,
      "##state": 2572,
      "##stain": 2573,
      "##stad": 2574,
      "##aces": 2575,
      "##ament": 2576,
      "##iliar": 2577,
      "##eld": 2578,
      "##ague": 2579,
      "##agaz": 2580,
      "##ried": 2581,
      "Ancient": 2582,
      "##occu": 2583,
      "##mental": 2584,
      "issu": 2585,
      "##thod": 2586,
      "##thics": 2587,
      "##theless": 2588,
      "##thesis": 2589,
      "##ersion": 2590,
      "conn": 2591,
      "identi": 2592,
      "##ither": 2593,
      "prou": 2594,
      "proc": 2595,
      "prax": 2596,
      "promin": 2597,
      "##irit": 2598,
      "##emic": 2599,
      "##ociation": 2600,
      "##own": 2601,
      "##ived": 2602,
      "sty": 2603,
      "exc": 2604,
      "onset": 2605,
      "Theory": 2606,
      "alien": 2607,
      "moved": 2608,
      "##istics": 2609,
      "success": 2610,
      "sustain": 2611,
      "##essed": 2612,
      "uses": 2613,
      "deed": 2614,
      "deter": 2615,
      "notes": 2616,
      "##abb": 2617,
      "societi": 2618,
      "##iance": 2619,
      "Int": 2620,
      "chur": 2621,
      "chaos": 2622,
      "spoken": 2623,
      "190": 2624,
      "1940s": 2625,
      "technology": 2626,
      "manage": 2627,
      "indic": 2628,
      "##izes": 2629,
      "##izations": 2630,
      "##osts": 2631,
      "wasn": 2632,
      "##ander": 2633,
      "socialism": 2634,
      "unc": 2635,
      "export": 2636,
      "displ": 2637,
      "something": 2638,
      "}}.": 2639,
      "international": 2640,
      "agg": 2641,
      "agit": 2642,
      "##ference": 2643,
      "##hort": 2644,
      "##ourt": 2645,
      "##ours": 2646,
      "##oured": 2647,
      "##ources": 2648,
      "##ording": 2649,
      "neo": 2650,
      "##ternal": 2651,
      "Stud": 2652,
      "##ressed": 2653,
      "worker": 2654,
      "##hontan": 2655,
      "php": 2656,
      "phrase": 2657,
      "truly": 2658,
      "2005": 2659,
      "##ftism": 2660,
      "##encies": 2661,
      "##ober": 2662,
      "developed": 2663,
      "developing": 2664,
      "relatively": 2665,
      "included": 2666,
      "head": 2667,
      "method": 2668,
      "mind": 2669,
      "impact": 2670,
      "resources": 2671,
      "consistent": 2672,
      "diagnostic": 2673,
      "event": 2674,
      "events": 2675,
      "oppose": 2676,
      "classical": 2677,
      "classification": 2678,
      "##quote": 2679,
      "##tives": 2680,
      "leftist": 2681,
      "higher": 2682,
      "syndicalists": 2683,
      "Also": 2684,
      "Contemporary": 2685,
      "nonviol": 2686,
      "##tically": 2687,
      "preoccu": 2688,
      "##geois": 2689,
      "place": 2690,
      "sched": 2691,
      "accoun": 2692,
      "outside": 2693,
      "site": 2694,
      "##ooks": 2695,
      "organization": 2696,
      "organized": 2697,
      "generally": 2698,
      "followers": 2699,
      "tends": 2700,
      "tendencies": 2701,
      "become": 2702,
      "communicate": 2703,
      "philosophies": 2704,
      "Commune": 2705,
      "Communic": 2706,
      "desir": 2707,
      "taking": 2708,
      "##titute": 2709,
      "##empl": 2710,
      "Russia": 2711,
      "coerc": 2712,
      "##T13": 2713,
      "##ediat": 2714,
      "support": 2715,
      "party": 2716,
      "particip": 2717,
      "politics": 2718,
      "defend": 2719,
      "defined": 2720,
      "teachers": 2721,
      "teachings": 2722,
      "association": 2723,
      "advocated": 2724,
      "advocates": 2725,
      "held": 2726,
      "listed": 2727,
      "##ricted": 2728,
      "##liament": 2729,
      "##ounc": 2730,
      "1917": 2731,
      "1921": 2732,
      "1926": 2733,
      "manifested": 2734,
      "Industrial": 2735,
      "few": 2736,
      "possible": 2737,
      "describe": 2738,
      "facial": 2739,
      "months": 2740,
      "##ervasive": 2741,
      "conversation": 2742,
      "conception": 2743,
      "claims": 2744,
      "seeks": 2745,
      "religion": 2746,
      "capitalists": 2747,
      "meaning": 2748,
      "complex": 2749,
      "publicly": 2750,
      "situations": 2751,
      "principle": 2752,
      "marked": 2753,
      "pacifism": 2754,
      "pacifists": 2755,
      "second": 2756,
      "typically": 2757,
      "##part": 2758,
      "theories": 2759,
      "characterised": 2760,
      "1872": 2761,
      "Childhood": 2762,
      "influenced": 2763,
      "influential": 2764,
      "professional": 2765,
      "Disorder": 2766,
      "helped": 2767,
      "John": 2768,
      "Johan": 2769,
      "create": 2770,
      "current": 2771,
      "joined": 2772,
      "##auer": 2773,
      "##ratic": 2774,
      "##ynam": 2775,
      "statist": 2776,
      "accept": 2777,
      "unionism": 2778,
      "expressions": 2779,
      "researchers": 2780,
      "goods": 2781,
      "criticised": 2782,
      "Newman": 2783,
      "Lahontan": 2784,
      "away": 2785,
      "domination": 2786,
      "egoism": 2787,
      "mutualism": 2788,
      "several": 2789,
      "##ruary": 2790,
      "instead": 2791,
      "1895": 2792,
      "feelings": 2793,
      "imaginative": 2794,
      "Center": 2795,
      "Please": 2796,
      "destroy": 2797,
      "fully": 2798,
      "gestures": 2799,
      "hierarchy": 2800,
      "lesser": 2801,
      "music": 2802,
      "pati": 2803,
      "total": 2804,
      "victory": 2805,
      "variety": 2806,
      "initially": 2807,
      "##leton": 2808,
      "production": 2809,
      "existed": 2810,
      "alternative": 2811,
      "alongside": 2812,
      "1970s": 2813,
      "synthesis": 2814,
      "symbolic": 2815,
      "tradition": 2816,
      "education": 2817,
      "recognize": 2818,
      "amongst": 2819,
      "objects": 2820,
      "Association": 2821,
      "Anarquismo": 2822,
      "extensively": 2823,
      "Cleyre": 2824,
      "FAQ": 2825,
      "Germany": 2826,
      "Landauer": 2827,
      "MediaWiki": 2828,
      "Political": 2829,
      "justi": 2830,
      "mises": 2831,
      "pitzer": 2832,
      "psychiat": 2833,
      "rule": 2834,
      "restricted": 2835,
      "radical": 2836,
      "various": 2837,
      "widely": 2838,
      "##aoism": 2839,
      "##gitimate": 2840,
      "anxiety": 2841,
      "answer": 2842,
      "toxin": 2843,
      "towards": 2844,
      "remain": 2845,
      "##ocolonialism": 2846,
      "strike": 2847,
      "Integration": 2848,
      "changes": 2849,
      "##ography": 2850,
      "archive": 2851,
      "represented": 2852,
      "strategy": 2853,
      "impairment": 2854,
      "Anarchist_Archives": 2855,
      "regarded": 2856,
      "Definitions": 2857,
      "Syndical": 2858,
      "emotional": 2859,
      "discussion": 2860,
      "Zapatista": 2861,
      "terrorism": 2862,
      "Because": 2863,
      "Bertrand": 2864,
      "Diggers": 2865,
      "February": 2866,
      "General": 2867,
      "Gustave": 2868,
      "Hakim": 2869,
      "Herbert": 2870,
      "Jesus": 2871,
      "Kronstad": 2872,
      "Molinari": 2873,
      "Magnus": 2874,
      "Manske": 2875,
      "October": 2876,
      "Raico": 2877,
      "Robert": 2878,
      "Victor": 2879,
      "achie": 2880,
      "bourgeois": 2881,
      "beneficial": 2882,
      "divided": 2883,
      "dwardmac": 2884,
      "eye": 2885,
      "estab": 2886,
      "etext": 2887,
      "friend": 2888,
      "period": 2889,
      "policy": 2890,
      "visual": 2891,
      "Анар": 2892,
      "##logs": 2893,
      "##khanov": 2894,
      "##хиз": 2895,
      "theoretical": 2896,
      "##ansport": 2897,
      "praxeology": 2898,
      "prominent": 2899,
      "societies": 2900,
      "preoccupation": 2901,
      "professionals": 2902,
      "Johann": 2903,
      "Kronstadt": 2904,
      "Анархиз": 2905,
      "(&": 2906,
      "(''": 2907,
      "):": 2908,
      ")]]": 2909,
      "**": 2910,
      ".''": 2911,
      ".{{": 2912,
      "08": 2913,
      "05": 2914,
      "22": 2915,
      "29": 2916,
      "36": 2917,
      "41": 2918,
      "47": 2919,
      "44": 2920,
      "58": 2921,
      "50": 2922,
      "75": 2923,
      "95": 2924,
      "9_": 2925,
      "943": 2926,
      ":&": 2927,
      ";{{": 2928,
      ">#": 2929,
      "?&": 2930,
      "Ag": 2931,
      "AN": 2932,
      "Alex": 2933,
      "Bob": 2934,
      "Brit": 2935,
      "Cr": 2936,
      "Co": 2937,
      "Cong": 2938,
      "Dé": 2939,
      "Don": 2940,
      "Dut": 2941,
      "Doc": 2942,
      "Dave": 2943,
      "Early": 2944,
      "Ess": 2945,
      "Ethics": 2946,
      "Fl": 2947,
      "Fre": 2948,
      "Fore": 2949,
      "Fasc": 2950,
      "Fix": 2951,
      "Fried": 2952,
      "Ge": 2953,
      "Gl": 2954,
      "Gu": 2955,
      "GM": 2956,
      "Hel": 2957,
      "HFA": 2958,
      "Hague": 2959,
      "If": 2960,
      "IW": 2961,
      "Jos": 2962,
      "Jenn": 2963,
      "Lou": 2964,
      "Link": 2965,
      "Mon": 2966,
      "Mal": 2967,
      "Main": 2968,
      "Mex": 2969,
      "Milit": 2970,
      "Not": 2971,
      "Nest": 2972,
      "Never": 2973,
      "Of": 2974,
      "Own": 2975,
      "Origin": 2976,
      "PS": 2977,
      "Pre": 2978,
      "Pay": 2979,
      "Port": 2980,
      "Pacif": 2981,
      "Qu": 2982,
      "Ri": 2983,
      "Rac": 2984,
      "Ret": 2985,
      "Rec": 2986,
      "Rome": 2987,
      "Rand": 2988,
      "Rese": 2989,
      "Sa": 2990,
      "Sm": 2991,
      "Sam": 2992,
      "Sub": 2993,
      "Such": 2994,
      "Small": 2995,
      "She": 2996,
      "Tw": 2997,
      "TR": 2998,
      "Tim": 2999,
      "Talk": 3000,
      "Typical": 3001,
      "Templ": 3002,
      "Taoism": 3003,
      "Utop": 3004,
      "User": 3005,
      "Viol": 3006,
      "Voting": 3007,
      "WT": 3008,
      "Wiki": 3009,
      "Wired": 3010,
      "York": 3011,
      "Zen": 3012,
      "av": 3013,
      "ath": 3014,
      "aim": 3015,
      "apart": 3016,
      "bi": 3017,
      "bn": 3018,
      "bul": 3019,
      "big": 3020,
      "bill": 3021,
      "back": 3022,
      "bro": 3023,
      "brough": 3024,
      "bank": 3025,
      "bleed": 3026,
      "ce": 3027,
      "cg": 3028,
      "cor": 3029,
      "cal": 3030,
      "cou": 3031,
      "cir": 3032,
      "camp": 3033,
      "came": 3034,
      "cost": 3035,
      "coun": 3036,
      "cudd": 3037,
      "ded": 3038,
      "doc": 3039,
      "dysfunction": 3040,
      "dynam": 3041,
      "ear": 3042,
      "emp": 3043,
      "each": 3044,
      "epid": 3045,
      "either": 3046,
      "fa": 3047,
      "far": 3048,
      "fou": 3049,
      "fil": 3050,
      "fig": 3051,
      "fight": 3052,
      "five": 3053,
      "fall": 3054,
      "faction": 3055,
      "file": 3056,
      "fair": 3057,
      "fund": 3058,
      "freed": 3059,
      "finger": 3060,
      "gr": 3061,
      "gut": 3062,
      "get": 3063,
      "gif": 3064,
      "gain": 3065,
      "god": 3066,
      "gard": 3067,
      "gall": 3068,
      "gather": 3069,
      "gaz": 3070,
      "geek": 3071,
      "hist": 3072,
      "hun": 3073,
      "hous": 3074,
      "hours": 3075,
      "jsp": 3076,
      "king": 3077,
      "land": 3078,
      "mat": 3079,
      "mom": 3080,
      "mot": 3081,
      "mir": 3082,
      "mul": 3083,
      "mill": 3084,
      "mass": 3085,
      "mainst": 3086,
      "mys": 3087,
      "male": 3088,
      "mental": 3089,
      "medical": 3090,
      "magaz": 3091,
      "nihil": 3092,
      "om": 3093,
      "our": 3094,
      "ple": 3095,
      "pay": 3096,
      "pap": 3097,
      "pass": 3098,
      "past": 3099,
      "pediat": 3100,
      "pervasive": 3101,
      "ri": 3102,
      "red": 3103,
      "rothbard": 3104,
      "rock": 3105,
      "sa": 3106,
      "sv": 3107,
      "say": 3108,
      "sus": 3109,
      "sour": 3110,
      "sans": 3111,
      "sev": 3112,
      "song": 3113,
      "sound": 3114,
      "serv": 3115,
      "size": 3116,
      "six": 3117,
      "short": 3118,
      "tre": 3119,
      "tac": 3120,
      "typ": 3121,
      "tax": 3122,
      "tau": 3123,
      "uk": 3124,
      "util": 3125,
      "val": 3126,
      "vot": 3127,
      "vac": 3128,
      "varian": 3129,
      "vote": 3130,
      "verb": 3131,
      "very": 3132,
      "version": 3133,
      "want": 3134,
      "wide": 3135,
      "wikipedia": 3136,
      "##ew": 3137,
      "##ep": 3138,
      "##ef": 3139,
      "##eous": 3140,
      "##ether": 3141,
      "##eated": 3142,
      "##ati": 3143,
      "##aedia": 3144,
      "##aire": 3145,
      "##atives": 3146,
      "##rs": 3147,
      "##rat": 3148,
      "##rist": 3149,
      "##roc": 3150,
      "##ruc": 3151,
      "##rated": 3152,
      "##rics": 3153,
      "##l2": 3154,
      "##lin": 3155,
      "##lit": 3156,
      "##lers": 3157,
      "##lated": 3158,
      "##lass": 3159,
      "##lies": 3160,
      "##like": 3161,
      "##laim": 3162,
      "##line": 3163,
      "##lined": 3164,
      "##oic": 3165,
      "##ove": 3166,
      "##oved": 3167,
      "##oeb": 3168,
      "##dle": 3169,
      "##]&": 3170,
      "##to": 3171,
      "##try": 3172,
      "##ways": 3173,
      "##wide": 3174,
      "##worth": 3175,
      "##hap": 3176,
      "##head": 3177,
      "##s8": 3178,
      "##sib": 3179,
      "##sue": 3180,
      "##sure": 3181,
      "##self": 3182,
      "##site": 3183,
      "##cre": 3184,
      "##cel": 3185,
      "##cray": 3186,
      "##iated": 3187,
      "##ión": 3188,
      "##pic": 3189,
      "##pop": 3190,
      "##page": 3191,
      "##petitive": 3192,
      "##ne": 3193,
      "##ns": 3194,
      "##ners": 3195,
      "##me": 3196,
      "##men": 3197,
      "##mend": 3198,
      "##mark": 3199,
      "##mitivism": 3200,
      "##uary": 3201,
      "##uting": 3202,
      "##vant": 3203,
      "##voting": 3204,
      "##fa": 3205,
      "##fo": 3206,
      "##fec": 3207,
      "##face": 3208,
      "##fred": 3209,
      "##kman": 3210,
      "##kl2": 3211,
      "##gger": 3212,
      "##glop": 3213,
      "##by": 3214,
      "##body": 3215,
      "##berg": 3216,
      "##books": 3217,
      "##87": 3218,
      "##5px": 3219,
      "##06": 3220,
      "##03": 3221,
      "##10": 3222,
      "##13": 3223,
      "##14": 3224,
      "##ze": 3225,
      "##zee": 3226,
      "##20": 3227,
      "##22": 3228,
      "##29": 3229,
      "##200": 3230,
      "##Tr": 3231,
      "##T22": 3232,
      "##93": 3233,
      "##70": 3234,
      "##69": 3235,
      "##_d": 3236,
      "##_P": 3237,
      "##_ch": 3238,
      "##_id": 3239,
      "##_te": 3240,
      "##_of": 3241,
      "##_anarchism": 3242,
      "##_kl2": 3243,
      "##ARC": 3244,
      "##32": 3245,
      "##ID": 3246,
      "##40": 3247,
      "##Joseph": 3248,
      "##OU": 3249,
      "##ธิ": 3250,
      "##ising": 3251,
      "##istive": 3252,
      "##erun": 3253,
      "##eralism": 3254,
      "thus": 3255,
      "therap": 3256,
      "##ona": 3257,
      "##ones": 3258,
      "##onent": 3259,
      "##onym": 3260,
      "##aren": 3261,
      "##arily": 3262,
      "##tire": 3263,
      "##tiple": 3264,
      "then": 3265,
      "##ened": 3266,
      "##ention": 3267,
      "##ename": 3268,
      "##enberg": 3269,
      "##ina": 3270,
      "##int": 3271,
      "##inist": 3272,
      "##iness": 3273,
      "##inition": 3274,
      "##inology": 3275,
      "##integr": 3276,
      "##info": 3277,
      "##oral": 3278,
      "##ories": 3279,
      "##orious": 3280,
      "##estion": 3281,
      "##cher": 3282,
      "##change": 3283,
      "##china": 3284,
      "##alle": 3285,
      "##also": 3286,
      "##alitative": 3287,
      "##anity": 3288,
      "##ants": 3289,
      "##ances": 3290,
      "##annic": 3291,
      "##anches": 3292,
      "##aneous": 3293,
      "off": 3294,
      "##ath": 3295,
      "##atest": 3296,
      "##itor": 3297,
      "##ital": 3298,
      "##itant": 3299,
      "##itler": 3300,
      "##oming": 3301,
      "##ott": 3302,
      "##uted": 3303,
      "##utter": 3304,
      "##leb": 3305,
      "##lely": 3306,
      "##lets": 3307,
      "##legitimate": 3308,
      "##enty": 3309,
      "##entally": 3310,
      "##entral": 3311,
      "##ingness": 3312,
      "##ingmen": 3313,
      "##icated": 3314,
      "##icpop": 3315,
      "read": 3316,
      "react": 3317,
      "reject": 3318,
      "relying": 3319,
      "##olt": 3320,
      "##olf": 3321,
      "##oles": 3322,
      "##olute": 3323,
      "##ollection": 3324,
      "##opag": 3325,
      "##opted": 3326,
      "##opoly": 3327,
      "##ston": 3328,
      "##struct": 3329,
      "##actice": 3330,
      "##ación": 3331,
      "##ilst": 3332,
      "##ilities": 3333,
      "quite": 3334,
      "question": 3335,
      "qualitative": 3336,
      "##elming": 3337,
      "##ticisms": 3338,
      "##aged": 3339,
      "##agree": 3340,
      "##agraph": 3341,
      "##ries": 3342,
      "##rich": 3343,
      "##rive": 3344,
      "Another": 3345,
      "Anabapt": 3346,
      "Anglop": 3347,
      "##ocal": 3348,
      "##ocris": 3349,
      "order": 3350,
      "issue": 3351,
      "##throw": 3352,
      "##osing": 3353,
      "##erse": 3354,
      "beings": 3355,
      "conce": 3356,
      "consequ": 3357,
      "comes": 3358,
      "comfort": 3359,
      "##tered": 3360,
      "##terly": 3361,
      "##terod": 3362,
      "##ght": 3363,
      "prod": 3364,
      "prog": 3365,
      "prov": 3366,
      "price": 3367,
      "practice": 3368,
      "##urb": 3369,
      "##urately": 3370,
      "whate": 3371,
      "whose": 3372,
      "##ules": 3373,
      "##ulation": 3374,
      "forerun": 3375,
      "##ema": 3376,
      "##emy": 3377,
      "##ions": 3378,
      "##ests": 3379,
      "##ested": 3380,
      "##estones": 3381,
      "refuse": 3382,
      "##oward": 3383,
      "##ivable": 3384,
      "##iversity": 3385,
      "stay": 3386,
      "start": 3387,
      "stoic": 3388,
      "##ete": 3389,
      "##ime": 3390,
      "##impan": 3391,
      "##ective": 3392,
      "##ecial": 3393,
      "##ifically": 3394,
      "##used": 3395,
      "extre": 3396,
      "existing": 3397,
      "ones": 3398,
      "alone": 3399,
      "almost": 3400,
      "always": 3401,
      "##'',": 3402,
      "##istically": 3403,
      "]].''": 3404,
      "]].]]": 3405,
      "]]...": 3406,
      "sugg": 3407,
      "sudd": 3408,
      "##essive": 3409,
      "usually": 3410,
      "deb": 3411,
      "notable": 3412,
      "##abaj": 3413,
      "cho": 3414,
      "chance": 3415,
      "chimpan": 3416,
      "##ode": 3417,
      "spend": 3418,
      "spont": 3419,
      "spread": 3420,
      "spirit": 3421,
      "1900": 3422,
      "1943": 3423,
      "1968": 3424,
      "##eeting": 3425,
      "contemporary": 3426,
      "acting": 3427,
      "actions": 3428,
      "frame": 3429,
      "techn": 3430,
      "##udiated": 3431,
      "##ums": 3432,
      "manner": 3433,
      "peas": 3434,
      "index": 3435,
      "indeed": 3436,
      "##iktionary": 3437,
      "##ucial": 3438,
      "arrive": 3439,
      "times": 3440,
      "##gure": 3441,
      "##oston": 3442,
      "##ouses": 3443,
      "Anarchisme": 3444,
      "Anarchismus": 3445,
      "=\"-": 3446,
      "abol": 3447,
      "abuse": 3448,
      "above": 3449,
      "##andstate": 3450,
      "incid": 3451,
      "enough": 3452,
      "ensure": 3453,
      "entire": 3454,
      "unf": 3455,
      "univ": 3456,
      "unity": 3457,
      "united": 3458,
      "unable": 3459,
      "unite": 3460,
      "##erns": 3461,
      "namespaces": 3462,
      "##iah": 3463,
      "##vellers": 3464,
      "express": 3465,
      "distin": 3466,
      "disease": 3467,
      "disagree": 3468,
      "someone": 3469,
      "interact": 3470,
      "interven": 3471,
      "185": 3472,
      "182": 3473,
      "186": 3474,
      "1848": 3475,
      "1806": 3476,
      "1840": 3477,
      "parliament": 3478,
      "##ouraged": 3479,
      "##illing": 3480,
      "childhood": 3481,
      ";/&": 3482,
      "add": 3483,
      "adher": 3484,
      "adopted": 3485,
      "##order": 3486,
      "##ologists": 3487,
      "##ologue": 3488,
      "next": 3489,
      "neocolonialism": 3490,
      "seealso": 3491,
      "cann": 3492,
      "direction": 3493,
      "##spoken": 3494,
      "##assination": 3495,
      "Stal": 3496,
      "##hone": 3497,
      "Speech": 3498,
      "train": 3499,
      "##velopmental": 3500,
      "2001": 3501,
      "2003": 3502,
      "2004": 3503,
      "##iproc": 3504,
      "##oblogs": 3505,
      "proper": 3506,
      "propri": 3507,
      "propaganda": 3508,
      "proportion": 3509,
      "forms": 3510,
      "formed": 3511,
      "develops": 3512,
      "applying": 3513,
      "applied": 3514,
      "appleton": 3515,
      "relating": 3516,
      "ideology": 3517,
      "ideological": 3518,
      "includes": 3519,
      "generat": 3520,
      "hear": 3521,
      "hearing": 3522,
      "heterod": 3523,
      "she": 3524,
      "shar": 3525,
      "sharing": 3526,
      "xmlns": 3527,
      "##onomy": 3528,
      "repressive": 3529,
      "repeat": 3530,
      "repeated": 3531,
      "repudiated": 3532,
      "minarch": 3533,
      "soon": 3534,
      "solely": 3535,
      "##ypocris": 3536,
      "##ortun": 3537,
      "strict": 3538,
      "resul": 3539,
      "##elled": 3540,
      "##ellig": 3541,
      "##ultural": 3542,
      "differing": 3543,
      "doing": 3544,
      "evolved": 3545,
      "opportun": 3546,
      "##room": 3547,
      "classroom": 3548,
      "##ques": 3549,
      "##quate": 3550,
      "##antly": 3551,
      "##lishing": 3552,
      "assassination": 3553,
      "All": 3554,
      "Alger": 3555,
      "Alfred": 3556,
      "Concep": 3557,
      "Conference": 3558,
      "Who": 3559,
      "When": 3560,
      "persistent": 3561,
      "seen": 3562,
      "##ofeminism": 3563,
      "##shops": 3564,
      "liberty": 3565,
      "prec": 3566,
      "publishing": 3567,
      "##timate": 3568,
      "behavioral": 3569,
      "authoritarianism": 3570,
      "AfghanistanTr": 3571,
      "Amoeb": 3572,
      "Ams8": 3573,
      "mainly": 3574,
      "maintain": 3575,
      "platform": 3576,
      "upris": 3577,
      "]]''.": 3578,
      "##ifications": 3579,
      "access": 3580,
      "accomp": 3581,
      "according": 3582,
      "accurately": 3583,
      "##ilosophy": 3584,
      "Libert": 3585,
      "Liberation": 3586,
      "factory": 3587,
      "outspoken": 3588,
      "sitename": 3589,
      "organised": 3590,
      "organisation": 3591,
      "organizations": 3592,
      "economy": 3593,
      "Fred": 3594,
      "Ital": 3595,
      "Leftism": 3596,
      "Levellers": 3597,
      "notion": 3598,
      "overwh": 3599,
      "overthrow": 3600,
      "##ericourt": 3601,
      "therefore": 3602,
      "introduc": 3603,
      "becoming": 3604,
      "communicating": 3605,
      "Communism": 3606,
      "Communist": 3607,
      "persons": 3608,
      "Society": 3609,
      "numbers": 3610,
      "postanarchism": 3611,
      "twenti": 3612,
      "taken": 3613,
      "takes": 3614,
      "##aware": 3615,
      "thoughts": 3616,
      "recent": 3617,
      "recollection": 3618,
      "reciproc": 3619,
      "attribut": 3620,
      "advance": 3621,
      "1589894": 3622,
      "opposes": 3623,
      "opposing": 3624,
      "Marxism": 3625,
      "Marxists": 3626,
      "Neal": 3627,
      "People": 3628,
      "Unlike": 3629,
      "##oyment": 3630,
      "##T11": 3631,
      "]]),": 3632,
      "insurrection": 3633,
      "regressive": 3634,
      "regulate": 3635,
      "subtle": 3636,
      "revolutions": 3637,
      "partly": 3638,
      "Trad": 3639,
      "Trav": 3640,
      "True": 3641,
      "Transport": 3642,
      "Trabaj": 3643,
      "amoun": 3644,
      "viewed": 3645,
      "wealth": 3646,
      "##rying": 3647,
      "modes": 3648,
      "definition": 3649,
      "teaching": 3650,
      "popularity": 3651,
      "environments": 3652,
      "obs": 3653,
      "simply": 3654,
      "##liest": 3655,
      "1920s": 3656,
      "activities": 3657,
      "manifesto": 3658,
      "Workingmen": 3659,
      "Bolshevism": 3660,
      "Read": 3661,
      "Repetitive": 3662,
      "family": 3663,
      "familiar": 3664,
      "liter": 3665,
      "position": 3666,
      "positive": 3667,
      "signs": 3668,
      "increased": 3669,
      "increases": 3670,
      "needs": 3671,
      "175px": 3672,
      "Propaganda": 3673,
      "care": 3674,
      "decreed": 3675,
      "decentral": 3676,
      "monologue": 3677,
      "points": 3678,
      "respect": 3679,
      "respond": 3680,
      "response": 3681,
      "##ggers": 3682,
      "##ervous": 3683,
      "converse": 3684,
      "specifically": 3685,
      "1934": 3686,
      "levels": 3687,
      "explo": 3688,
      "explos": 3689,
      "seeking": 3690,
      "meanings": 3691,
      "structure": 3692,
      "everyday": 3693,
      "controversy": 3694,
      "25T22": 3695,
      "division": 3696,
      "diversity": 3697,
      "diverse": 3698,
      "ethnic": 3699,
      "fix": 3700,
      "field": 3701,
      "figure": 3702,
      "larg": 3703,
      "membership": 3704,
      "pacifist": 3705,
      "setting": 3706,
      "anybody": 3707,
      "Anarkism": 3708,
      "condition": 3709,
      "whereby": 3710,
      "speaking": 3711,
      "army": 3712,
      "arms": 3713,
      "armed": 3714,
      "armoured": 3715,
      "1871": 3716,
      "seems": 3717,
      "professor": 3718,
      "collective": 3719,
      "focuses": 3720,
      "03T0": 3721,
      "03T11": 3722,
      "20th": 3723,
      "Emile": 3724,
      "Mutualism": 3725,
      "creation": 3726,
      "created": 3727,
      "currents": 3728,
      "currently": 3729,
      "founded": 3730,
      "commonly": 3731,
      "predic": 3732,
      "predict": 3733,
      "predomin": 3734,
      "statism": 3735,
      "stateless": 3736,
      "Institute": 3737,
      "1999": 3738,
      "leaders": 3739,
      "worldwide": 3740,
      "unions": 3741,
      "unusually": 3742,
      "##itivists": 3743,
      "primitivism": 3744,
      "primitivists": 3745,
      "criticizes": 3746,
      "Statistics": 3747,
      "delayed": 3748,
      "similarities": 3749,
      "Exp": 3750,
      "External": 3751,
      "Greene": 3752,
      "Latin": 3753,
      "awaren": 3754,
      "elim": 3755,
      "egoist": 3756,
      "flag": 3757,
      "flapp": 3758,
      "militant": 3759,
      "milestones": 3760,
      "severe": 3761,
      "turns": 3762,
      "writings": 3763,
      "##ruism": 3764,
      "thinkers": 3765,
      "instance": 3766,
      "intense": 3767,
      "intentions": 3768,
      "##omputing": 3769,
      "reality": 3770,
      "experience": 3771,
      "China": 3772,
      "translated": 3773,
      "infants": 3774,
      "appeared": 3775,
      "beliefs": 3776,
      "attached": 3777,
      "imaginary": 3778,
      "09T13": 3779,
      "166": 3780,
      "Plekhanov": 3781,
      "bring": 3782,
      "branches": 3783,
      "blackcray": 3784,
      "clear": 3785,
      "disturb": 3786,
      "destruc": 3787,
      "etc": 3788,
      "failure": 3789,
      "globalization": 3790,
      "himself": 3791,
      "holds": 3792,
      "hierarch": 3793,
      "ill": 3794,
      "illegitimate": 3795,
      "operation": 3796,
      "originated": 3797,
      "paid": 3798,
      "smaller": 3799,
      "totse": 3800,
      "trigger": 3801,
      "triggers": 3802,
      "victorious": 3803,
      "##racy": 3804,
      "##hips": 3805,
      "##mining": 3806,
      "##ederación": 3807,
      "initiate": 3808,
      "receive": 3809,
      "received": 3810,
      "conclud": 3811,
      "concerns": 3812,
      "##undred": 3813,
      "symbol": 3814,
      "absence": 3815,
      "absolute": 3816,
      "encouraged": 3817,
      "##sequent": 3818,
      "directly": 3819,
      "relationships": 3820,
      "allows": 3821,
      "impossible": 3822,
      "Confederation": 3823,
      "Confederación": 3824,
      "educational": 3825,
      "attempt": 3826,
      "attempted": 3827,
      "affected": 3828,
      "Assistive": 3829,
      "Armed": 3830,
      "Armand": 3831,
      "occurs": 3832,
      "democrat": 3833,
      "democracy": 3834,
      "routine": 3835,
      "routines": 3836,
      "continues": 3837,
      "continuum": 3838,
      "exhibits": 3839,
      "8029": 3840,
      "961": 3841,
      "967": 3842,
      "?]]''": 3843,
      "Applied": 3844,
      "Baron": 3845,
      "Barcel": 3846,
      "Egoism": 3847,
      "Primitivism": 3848,
      "crucial": 3849,
      "estimate": 3850,
      "favor": 3851,
      "historical": 3852,
      "limit": 3853,
      "limited": 3854,
      "perform": 3855,
      "perhap": 3856,
      "racist": 3857,
      "ruling": 3858,
      "vegan": 3859,
      "veget": 3860,
      "vocal": 3861,
      "vocab": 3862,
      "writes": 3863,
      "wikiquote": 3864,
      "inspire": 3865,
      "inspired": 3866,
      "combination": 3867,
      "protest": 3868,
      "Anarchizmus": 3869,
      "actually": 3870,
      "entering": 3871,
      "1884": 3872,
      "neurological": 3873,
      "apparent": 3874,
      "apparently": 3875,
      "genetic": 3876,
      "strongly": 3877,
      "science": 3878,
      "website": 3879,
      "Anarhism": 3880,
      "Anarhiz": 3881,
      "Encyclopedia": 3882,
      "Encyclopaedia": 3883,
      "Organization": 3884,
      "ICD9": 3885,
      "Makhno": 3886,
      "Makhnov": 3887,
      "equality": 3888,
      "explicitly": 3889,
      "Austrian": 3890,
      "Accessible": 3891,
      "Berkman": 3892,
      "Criticisms": 3893,
      "Ideas": 3894,
      "January": 3895,
      "Labour": 3896,
      "Philosophy": 3897,
      "Teach": 3898,
      "Voluntaryist": 3899,
      "Within": 3900,
      "cur_id": 3901,
      "causes": 3902,
      "engage": 3903,
      "embrac": 3904,
      "earthly": 3905,
      "elections": 3906,
      "final": 3907,
      "female": 3908,
      "federations": 3909,
      "middle": 3910,
      "necessarily": 3911,
      "pursu": 3912,
      "slight": 3913,
      "utterly": 3914,
      "voice": 3915,
      "xsi": 3916,
      "##ramming": 3917,
      "##lusions": 3918,
      "annihil": 3919,
      "inherent": 3920,
      "reasons": 3921,
      "issues": 3922,
      "connection": 3923,
      "proudhon": 3924,
      "style": 3925,
      "excessive": 3926,
      "alienation": 3927,
      "determining": 3928,
      "Intellectual": 3929,
      "church": 3930,
      "management": 3931,
      "uncon": 3932,
      "display": 3933,
      "internationals": 3934,
      "aggression": 3935,
      "Studies": 3936,
      "eventual": 3937,
      "nonviolent": 3938,
      "schedules": 3939,
      "accounted": 3940,
      "siteinfo": 3941,
      "Communication": 3942,
      "desirable": 3943,
      "coercion": 3944,
      "participated": 3945,
      "##ounced": 3946,
      "Johns": 3947,
      "patients": 3948,
      "justify": 3949,
      "psychiatrist": 3950,
      "Syndicalism": 3951,
      "achievement": 3952,
      "established": 3953,
      "periodical": 3954,
      "***": 3955,
      "299": 3956,
      "44Z": 3957,
      "7543": 3958,
      "957": 3959,
      "9_2": 3960,
      "Against": 3961,
      "ANARC": 3962,
      "Alexander": 3963,
      "Britannic": 3964,
      "Congress": 3965,
      "Déjacque": 3966,
      "Dutch": 3967,
      "Docu": 3968,
      "Foreign": 3969,
      "Fixing": 3970,
      "Globalization": 3971,
      "Help": 3972,
      "IWW": 3973,
      "Josiah": 3974,
      "Jenny": 3975,
      "Louis": 3976,
      "Links": 3977,
      "Malatest": 3978,
      "Nestor": 3979,
      "Nevertheless": 3980,
      "Origins": 3981,
      "Portal": 3982,
      "Pacifism": 3983,
      "Racist": 3984,
      "Rett": 3985,
      "Research": 3986,
      "Saul": 3987,
      "Subsequent": 3988,
      "Template": 3989,
      "Utopia": 3990,
      "Violence": 3991,
      "WTO": 3992,
      "Zeno": 3993,
      "aiming": 3994,
      "bullets": 3995,
      "broad": 3996,
      "brought": 3997,
      "celeb": 3998,
      "cgi": 3999,
      "calming": 4000,
      "coup": 4001,
      "camps": 4002,
      "cuddling": 4003,
      "dedicated": 4004,
      "doctr": 4005,
      "earliest": 4006,
      "epidemic": 4007,
      "founder": 4008,
      "figures": 4009,
      "freedom": 4010,
      "gutenberg": 4011,
      "godandstate": 4012,
      "gallery": 4013,
      "gatherer": 4014,
      "gaze": 4015,
      "hunter": 4016,
      "moment": 4017,
      "motor": 4018,
      "mirror": 4019,
      "multiple": 4020,
      "million": 4021,
      "mainstream": 4022,
      "paper": 4023,
      "said": 4024,
      "susp": 4025,
      "source": 4026,
      "seven": 4027,
      "sounds": 4028,
      "tremend": 4029,
      "value": 4030,
      "votes": 4031,
      "variant": 4032,
      "verbal": 4033,
      "##fects": 4034,
      "##onymous": 4035,
      "##integrative": 4036,
      "##allel": 4037,
      "##opagan": 4038,
      "Anglophone": 4039,
      "conceivable": 4040,
      "product": 4041,
      "programming": 4042,
      "whatever": 4043,
      "forerunners": 4044,
      "suggested": 4045,
      "sudden": 4046,
      "chimpanzee": 4047,
      "spontaneous": 4048,
      "entirely": 4049,
      "distinct": 4050,
      "disagreement": 4051,
      "180637": 4052,
      "parliamentary": 4053,
      "generator": 4054,
      "heterodox": 4055,
      "repeatedly": 4056,
      "##ypocrisy": 4057,
      "Amoeboid": 4058,
      "Ams80": 4059,
      "overwhelming": 4060,
      "introduced": 4061,
      "twentieth": 4062,
      "recollectionbooks": 4063,
      "Transportation": 4064,
      "Trabajo": 4065,
      "predominantly": 4066,
      "awareness": 4067,
      "flapping": 4068,
      "blackcrayon": 4069,
      "destruction": 4070,
      "triggering": 4071,
      "democrats": 4072,
      "Barcelona": 4073,
      "perhaps": 4074,
      "ANARCHI": 4075,
      "Britannica": 4076,
      "Malatesta": 4077,
      "tremendous": 4078,
      "!]]": 4079,
      "%&": 4080,
      "'[[": 4081,
      ")&": 4082,
      ")'',": 4083,
      "*/": 4084,
      ".]": 4085,
      ".)": 4086,
      "/]": 4087,
      "/&": 4088,
      "/\"": 4089,
      "/?": 4090,
      "00": 4091,
      "01": 4092,
      "068": 4093,
      "26": 4094,
      "23": 4095,
      "24": 4096,
      "20s": 4097,
      "38": 4098,
      "35": 4099,
      "30": 4100,
      "32": 4101,
      "37": 4102,
      "30s": 4103,
      "46": 4104,
      "400": 4105,
      "570": 4106,
      "60": 4107,
      "6alph": 4108,
      "614": 4109,
      "70s": 4110,
      "85": 4111,
      "832": 4112,
      "91": 4113,
      ";]": 4114,
      ";'": 4115,
      ";|": 4116,
      ";]]": 4117,
      ">/": 4118,
      ">--": 4119,
      "?]": 4120,
      "Aa": 4121,
      "Ac": 4122,
      "Au": 4123,
      "Ax": 4124,
      "Ab": 4125,
      "AS": 4126,
      "AA": 4127,
      "Aub": 4128,
      "Ash": 4129,
      "Acc": 4130,
      "Ayn": 4131,
      "Avant": 4132,
      "Be": 4133,
      "BY": 4134,
      "Bon": 4135,
      "Bal": 4136,
      "Ble": 4137,
      "Bour": 4138,
      "Both": 4139,
      "Bible": 4140,
      "Bank": 4141,
      "Bread": 4142,
      "Budd": 4143,
      "Bomb": 4144,
      "Bleed": 4145,
      "Bours": 4146,
      "Books": 4147,
      "Blogs": 4148,
      "Boston": 4149,
      "CJ": 4150,
      "Cal": 4151,
      "Can": 4152,
      "Cat": 4153,
      "Col": 4154,
      "Cop": 4155,
      "Citi": 4156,
      "Cyp": 4157,
      "Cogn": 4158,
      "Cerc": 4159,
      "Counc": 4160,
      "Class": 4161,
      "Cultural": 4162,
      "Den": 4163,
      "Des": 4164,
      "Dic": 4165,
      "Del": 4166,
      "Dem": 4167,
      "Distor": 4168,
      "Daily": 4169,
      "DHI": 4170,
      "Dynam": 4171,
      "El": 4172,
      "Ed": 4173,
      "Ep": 4174,
      "Ef": 4175,
      "Eb": 4176,
      "Eas": 4177,
      "Ever": 4178,
      "Eight": 4179,
      "Even": 4180,
      "Epid": 4181,
      "Eug": 4182,
      "Fi": 4183,
      "Fé": 4184,
      "F8": 4185,
      "Fac": 4186,
      "Fam": 4187,
      "Femin": 4188,
      "Form": 4189,
      "Fall": 4190,
      "Free": 4191,
      "Food": 4192,
      "Further": 4193,
      "Fabb": 4194,
      "Few": 4195,
      "Faire": 4196,
      "Gr": 4197,
      "Gé": 4198,
      "G8": 4199,
      "GN": 4200,
      "GO": 4201,
      "Gary": 4202,
      "Gill": 4203,
      "Group": 4204,
      "Giron": 4205,
      "Gra": 4206,
      "Geek": 4207,
      "Hu": 4208,
      "Hé": 4209,
      "Har": 4210,
      "Hop": 4211,
      "Hos": 4212,
      "Hay": 4213,
      "Hum": 4214,
      "Hust": 4215,
      "Hear": 4216,
      "Histor": 4217,
      "Hart": 4218,
      "Holy": 4219,
      "Hitler": 4220,
      "Hutter": 4221,
      "Howard": 4222,
      "Hericourt": 4223,
      "Hundred": 4224,
      "Hypocrisy": 4225,
      "Is": 4226,
      "IS": 4227,
      "II": 4228,
      "Ire": 4229,
      "Iain": 4230,
      "Imp": 4231,
      "Je": 4232,
      "Js": 4233,
      "JP": 4234,
      "Jas": 4235,
      "Jac": 4236,
      "Jul": 4237,
      "Jus": 4238,
      "Just": 4239,
      "Joy": 4240,
      "Kr": 4241,
      "Karl": 4242,
      "Komb": 4243,
      "Killing": 4244,
      "Lu": 4245,
      "Lin": 4246,
      "Lor": 4247,
      "Lom": 4248,
      "Ling": 4249,
      "Lac": 4250,
      "Low": 4251,
      "Let": 4252,
      "Langu": 4253,
      "Lys": 4254,
      "Law": 4255,
      "Later": 4256,
      "Ludd": 4257,
      "Local": 4258,
      "Me": 4259,
      "Mb": 4260,
      "MI": 4261,
      "MR": 4262,
      "Mas": 4263,
      "Mag": 4264,
      "Mod": 4265,
      "Mary": 4266,
      "Mill": 4267,
      "Members": 4268,
      "Major": 4269,
      "Meth": 4270,
      "Miss": 4271,
      "Medical": 4272,
      "Magaz": 4273,
      "Minist": 4274,
      "Meeting": 4275,
      "NO": 4276,
      "NE": 4277,
      "NY": 4278,
      "Non": 4279,
      "Nar": 4280,
      "Nat": 4281,
      "Nic": 4282,
      "Nou": 4283,
      "Nac": 4284,
      "Name": 4285,
      "Native": 4286,
      "Naz": 4287,
      "None": 4288,
      "Nih": 4289,
      "North": 4290,
      "Nervous": 4291,
      "Ow": 4292,
      "Ox": 4293,
      "Opp": 4294,
      "Occ": 4295,
      "Ohn": 4296,
      "Pu": 4297,
      "PD": 4298,
      "Pan": 4299,
      "Pat": 4300,
      "Pou": 4301,
      "Pol": 4302,
      "Pers": 4303,
      "Pap": 4304,
      "Press": 4305,
      "Pub": 4306,
      "Pear": 4307,
      "Poin": 4308,
      "Past": 4309,
      "Psych": 4310,
      "Poly": 4311,
      "Produc": 4312,
      "Pediat": 4313,
      "Pervasive": 4314,
      "POU": 4315,
      "Ro": 4316,
      "Ric": 4317,
      "Rel": 4318,
      "Roc": 4319,
      "Ros": 4320,
      "Rain": 4321,
      "Rud": 4322,
      "Rum": 4323,
      "Rous": 4324,
      "Se": 4325,
      "Sw": 4326,
      "Sc": 4327,
      "SI": 4328,
      "Ser": 4329,
      "San": 4330,
      "Sing": 4331,
      "Sir": 4332,
      "Sec": 4333,
      "Sever": 4334,
      "Sect": 4335,
      "Self": 4336,
      "Sov": 4337,
      "Sci": 4338,
      "Still": 4339,
      "Seat": 4340,
      "Section": 4341,
      "Short": 4342,
      "SOU": 4343,
      "Ta": 4344,
      "TH": 4345,
      "Tor": 4346,
      "Tac": 4347,
      "Tod": 4348,
      "Term": 4349,
      "Typ": 4350,
      "Tens": 4351,
      "Tex": 4352,
      "Tox": 4353,
      "Toward": 4354,
      "Uk": 4355,
      "Use": 4356,
      "Utopian": 4357,
      "Urs": 4358,
      "VI": 4359,
      "Vangu": 4360,
      "Version": 4361,
      "Vanity": 4362,
      "Volt": 4363,
      "Would": 4364,
      "Wend": 4365,
      "Woll": 4366,
      "Wood": 4367,
      "Writing": 4368,
      "Women": 4369,
      "Wolf": 4370,
      "Wiktionary": 4371,
      "Xu": 4372,
      "XI": 4373,
      "XM": 4374,
      "Zer": 4375,
      "Zinn": 4376,
      "[,": 4377,
      "].": 4378,
      "ai": 4379,
      "au": 4380,
      "aan": 4381,
      "aol": 4382,
      "ast": 4383,
      "aud": 4384,
      "apx": 4385,
      "aries": 4386,
      "bl": 4387,
      "bo": 4388,
      "bs": 4389,
      "bc": 4390,
      "bu": 4391,
      "bg": 4392,
      "ber": 4393,
      "bon": 4394,
      "bit": 4395,
      "bil": 4396,
      "bri": 4397,
      "bay": 4398,
      "bus": 4399,
      "bab": 4400,
      "bad": 4401,
      "bure": 4402,
      "ball": 4403,
      "bakunin": 4404,
      "brit": 4405,
      "bomb": 4406,
      "babb": 4407,
      "bath": 4408,
      "border": 4409,
      "cy": 4410,
      "cs": 4411,
      "cu": 4412,
      "cf": 4413,
      "cas": 4414,
      "cop": 4415,
      "city": 4416,
      "cris": 4417,
      "cope": 4418,
      "cite": 4419,
      "category": 4420,
      "crow": 4421,
      "cease": 4422,
      "cock": 4423,
      "crying": 4424,
      "da": 4425,
      "dh": 4426,
      "du": 4427,
      "dv": 4428,
      "df": 4429,
      "der": 4430,
      "don": 4431,
      "den": 4432,
      "dan": 4433,
      "dism": 4434,
      "dam": 4435,
      "dri": 4436,
      "dog": 4437,
      "dig": 4438,
      "dress": 4439,
      "dans": 4440,
      "dub": 4441,
      "dates": 4442,
      "distance": 4443,
      "david": 4444,
      "dram": 4445,
      "down": 4446,
      "eo": 4447,
      "eu": 4448,
      "eg": 4449,
      "eti": 4450,
      "ech": 4451,
      "ele": 4452,
      "eur": 4453,
      "elec": 4454,
      "earn": 4455,
      "elect": 4456,
      "era": 4457,
      "ety": 4458,
      "earl": 4459,
      "ers": 4460,
      "equate": 4461,
      "fer": 4462,
      "fed": 4463,
      "fic": 4464,
      "fre": 4465,
      "fol": 4466,
      "fel": 4467,
      "fun": 4468,
      "fet": 4469,
      "figh": 4470,
      "four": 4471,
      "font": 4472,
      "find": 4473,
      "ge": 4474,
      "gh": 4475,
      "gm": 4476,
      "gu": 4477,
      "gī": 4478,
      "gor": 4479,
      "gre": 4480,
      "gun": 4481,
      "germ": 4482,
      "gend": 4483,
      "gold": 4484,
      "goldman": 4485,
      "gives": 4486,
      "graph": 4487,
      "ground": 4488,
      "giving": 4489,
      "hu": 4490,
      "hin": 4491,
      "hop": 4492,
      "hur": 4493,
      "hid": 4494,
      "home": 4495,
      "hard": 4496,
      "hip": 4497,
      "happ": 4498,
      "hart": 4499,
      "hug": 4500,
      "hosts": 4501,
      "hitler": 4502,
      "hericourt": 4503,
      "hundred": 4504,
      "hypocrisy": 4505,
      "ig": 4506,
      "iww": 4507,
      "image": 4508,
      "ja": 4509,
      "jl": 4510,
      "jo": 4511,
      "jly": 4512,
      "joy": 4513,
      "joseph": 4514,
      "ko": 4515,
      "kee": 4516,
      "kanner": 4517,
      "lu": 4518,
      "lin": 4519,
      "lou": 4520,
      "las": 4521,
      "lth": 4522,
      "ligh": 4523,
      "light": 4524,
      "last": 4525,
      "line": 4526,
      "lower": 4527,
      "lang": 4528,
      "linger": 4529,
      "loved": 4530,
      "local": 4531,
      "losing": 4532,
      "ms": 4533,
      "mâ": 4534,
      "mer": 4535,
      "mut": 4536,
      "mac": 4537,
      "mel": 4538,
      "met": 4539,
      "mess": 4540,
      "mere": 4541,
      "mild": 4542,
      "magn": 4543,
      "mother": 4544,
      "mater": 4545,
      "mute": 4546,
      "merg": 4547,
      "mention": 4548,
      "moral": 4549,
      "mentally": 4550,
      "mime": 4551,
      "meeting": 4552,
      "nl": 4553,
      "ns": 4554,
      "nn": 4555,
      "nor": 4556,
      "nan": 4557,
      "nation": 4558,
      "nuc": 4559,
      "national": 4560,
      "nice": 4561,
      "north": 4562,
      "node": 4563,
      "nervous": 4564,
      "overs": 4565,
      "odd": 4566,
      "po": 4567,
      "pd": 4568,
      "pt": 4569,
      "pj": 4570,
      "pan": 4571,
      "pot": 4572,
      "put": 4573,
      "pol": 4574,
      "png": 4575,
      "pse": 4576,
      "port": 4577,
      "pair": 4578,
      "panarch": 4579,
      "pages": 4580,
      "pinn": 4581,
      "portion": 4582,
      "ra": 4583,
      "rv": 4584,
      "ren": 4585,
      "rit": 4586,
      "rom": 4587,
      "ram": 4588,
      "riv": 4589,
      "rif": 4590,
      "rose": 4591,
      "rout": 4592,
      "rub": 4593,
      "rob": 4594,
      "rural": 4595,
      "rank": 4596,
      "range": 4597,
      "rising": 4598,
      "roles": 4599,
      "sr": 4600,
      "si": 4601,
      "sm": 4602,
      "sat": 4603,
      "sel": 4604,
      "soc": 4605,
      "sun": 4606,
      "sur": 4607,
      "samp": 4608,
      "sig": 4609,
      "semin": 4610,
      "sect": 4611,
      "squ": 4612,
      "sens": 4613,
      "sally": 4614,
      "sights": 4615,
      "stirner": 4616,
      "sought": 4617,
      "solidarity": 4618,
      "tī": 4619,
      "ten": 4620,
      "tas": 4621,
      "tree": 4622,
      "tell": 4623,
      "table": 4624,
      "tone": 4625,
      "temporary": 4626,
      "tao": 4627,
      "taoism": 4628,
      "tests": 4629,
      "ul": 4630,
      "und": 4631,
      "ung": 4632,
      "uph": 4633,
      "vl": 4634,
      "vit": 4635,
      "vir": 4636,
      "vul": 4637,
      "vain": 4638,
      "voy": 4639,
      "vaz": 4640,
      "vague": 4641,
      "wa": 4642,
      "w3": 4643,
      "went": 4644,
      "wild": 4645,
      "wigg": 4646,
      "women": 4647,
      "wants": 4648,
      "wiktionary": 4649,
      "you": 4650,
      "yet": 4651,
      "your": 4652,
      "zm": 4653,
      "zpub": 4654,
      "zete": 4655,
      "|'": 4656,
      "|*": 4657,
      "|''": 4658,
      "élit": 4659,
      "être": 4660,
      "אנ": 4661,
      "دو": 4662,
      "لا": 4663,
      "ลั": 4664,
      "–)": 4665,
      "アナ": 4666,
      "无政": 4667,
      "아나": 4668,
      "##eg": 4669,
      "##eal": 4670,
      "##eent": 4671,
      "##eople": 4672,
      "##ext": 4673,
      "##eph": 4674,
      "##echnology": 4675,
      "##eography": 4676,
      "##equate": 4677,
      "##ah": 4678,
      "##aac": 4679,
      "##atic": 4680,
      "##aud": 4681,
      "##auc": 4682,
      "##aev": 4683,
      "##atically": 4684,
      "##rn": 4685,
      "##rom": 4686,
      "##ring": 4687,
      "##rain": 4688,
      "##resp": 4689,
      "##ract": 4690,
      "##raw": 4691,
      "##rors": 4692,
      "##rale": 4693,
      "##rock": 4694,
      "##lo": 4695,
      "##lar": 4696,
      "##liv": 4697,
      "##lap": 4698,
      "##lik": 4699,
      "##land": 4700,
      "##lant": 4701,
      "##law": 4702,
      "##lroy": 4703,
      "##loyment": 4704,
      "##oS": 4705,
      "##oon": 4706,
      "##oti": 4707,
      "##oit": 4708,
      "##oil": 4709,
      "##oots": 4710,
      "##oops": 4711,
      "##di": 4712,
      "##dé": 4713,
      "##den": 4714,
      "##din": 4715,
      "##dly": 4716,
      "##dity": 4717,
      "##dated": 4718,
      "##deb": 4719,
      "##darity": 4720,
      "##draw": 4721,
      "##tu": 4722,
      "##té": 4723,
      "##tist": 4724,
      "##ters": 4725,
      "##tate": 4726,
      "##tog": 4727,
      "##tail": 4728,
      "##tely": 4729,
      "##tari": 4730,
      "##tra": 4731,
      "##toni": 4732,
      "##t19": 4733,
      "##town": 4734,
      "##tography": 4735,
      "##tries": 4736,
      "##truism": 4737,
      "##ws": 4738,
      "##way": 4739,
      "##well": 4740,
      "##wood": 4741,
      "##ware": 4742,
      "##work": 4743,
      "##wrock": 4744,
      "##woS": 4745,
      "##hs": 4746,
      "##hen": 4747,
      "##hed": 4748,
      "##hist": 4749,
      "##has": 4750,
      "##hag": 4751,
      "##hous": 4752,
      "##haw": 4753,
      "##hind": 4754,
      "##hingness": 4755,
      "##y_": 4756,
      "##you": 4757,
      "##yond": 4758,
      "##sor": 4759,
      "##sil": 4760,
      "##sid": 4761,
      "##sess": 4762,
      "##sity": 4763,
      "##sell": 4764,
      "##scrib": 4765,
      "##sjam": 4766,
      "##ssu": 4767,
      "##schina": 4768,
      "##co": 4769,
      "##cle": 4770,
      "##cent": 4771,
      "##cas": 4772,
      "##cri": 4773,
      "##cce": 4774,
      "##cest": 4775,
      "##cap": 4776,
      "##cum": 4777,
      "##cence": 4778,
      "##ctive": 4779,
      "##cern": 4780,
      "##cies": 4781,
      "##cious": 4782,
      "##cred": 4783,
      "##cination": 4784,
      "##cratic": 4785,
      "##conomy": 4786,
      "##computing": 4787,
      "##iA": 4788,
      "##ient": 4789,
      "##iment": 4790,
      "##ios": 4791,
      "##iap": 4792,
      "##igu": 4793,
      "##iology": 4794,
      "##irect": 4795,
      "##ique": 4796,
      "##iismo": 4797,
      "##iological": 4798,
      "##icher": 4799,
      "##iologists": 4800,
      "##iques": 4801,
      "##per": 4802,
      "##por": 4803,
      "##ption": 4804,
      "##put": 4805,
      "##pos": 4806,
      "##pted": 4807,
      "##pro": 4808,
      "##pics": 4809,
      "##poli": 4810,
      "##peti": 4811,
      "##pute": 4812,
      "##punk": 4813,
      "##posts": 4814,
      "##pressed": 4815,
      "##pital": 4816,
      "##pective": 4817,
      "##na": 4818,
      "##no": 4819,
      "##nc": 4820,
      "##né": 4821,
      "##nch": 4822,
      "##noc": 4823,
      "##net": 4824,
      "##nore": 4825,
      "##nia": 4826,
      "##nip": 4827,
      "##nings": 4828,
      "##nected": 4829,
      "##necess": 4830,
      "##ntry": 4831,
      "##mm": 4832,
      "##mod": 4833,
      "##mology": 4834,
      "##marx": 4835,
      "##mely": 4836,
      "##mise": 4837,
      "##mine": 4838,
      "##meth": 4839,
      "##movement": 4840,
      "##m200": 4841,
      "##ux": 4842,
      "##ule": 4843,
      "##uation": 4844,
      "##uce": 4845,
      "##uum": 4846,
      "##uations": 4847,
      "##uell": 4848,
      "##uine": 4849,
      "##upation": 4850,
      "##uinn": 4851,
      "##uistics": 4852,
      "##uze": 4853,
      "##vin": 4854,
      "##val": 4855,
      "##vot": 4856,
      "##vation": 4857,
      "##vate": 4858,
      "##vious": 4859,
      "##view": 4860,
      "##vinc": 4861,
      "##vices": 4862,
      "##xist": 4863,
      "##xts": 4864,
      "##for": 4865,
      "##fac": 4866,
      "##fers": 4867,
      "##fies": 4868,
      "##fect": 4869,
      "##faction": 4870,
      "##fied": 4871,
      "##fessed": 4872,
      "##filling": 4873,
      "##ée": 4874,
      "##éri": 4875,
      "##édé": 4876,
      "##été": 4877,
      "##ks": 4878,
      "##kent": 4879,
      "##king": 4880,
      "##know": 4881,
      "##gs": 4882,
      "##gen": 4883,
      "##group": 4884,
      "##ground": 4885,
      "##gatively": 4886,
      "##ber": 4887,
      "##bor": 4888,
      "##bal": 4889,
      "##bed": 4890,
      "##bit": 4891,
      "##bur": 4892,
      "##bility": 4893,
      "##boston": 4894,
      "##bigu": 4895,
      "##.&": 4896,
      "##키즘": 4897,
      "##82": 4898,
      "##52": 4899,
      "##59": 4900,
      "##019": 4901,
      "##020": 4902,
      "##óng": 4903,
      "##órn": 4904,
      "##18": 4905,
      "##11": 4906,
      "##16": 4907,
      "##1pub": 4908,
      "##1net": 4909,
      "##zo": 4910,
      "##zan": 4911,
      "##zick": 4912,
      "##jp": 4913,
      "##jor": 4914,
      "##jud": 4915,
      "##just": 4916,
      "##jury": 4917,
      "##jug": 4918,
      "##joyment": 4919,
      "##jórn": 4920,
      "##213": 4921,
      "##TS": 4922,
      "##TE": 4923,
      "##Tucker": 4924,
      "##Tax": 4925,
      "##Tolstoy": 4926,
      "##Truism": 4927,
      "##Technology": 4928,
      "##TwoS": 4929,
      "##Sch": 4930,
      "##Sam": 4931,
      "##STS": 4932,
      "##95": 4933,
      "##96": 4934,
      "##94": 4935,
      "##77": 4936,
      "##76": 4937,
      "##745": 4938,
      "##720": 4939,
      "##770": 4940,
      "##60s": 4941,
      "##),": 4942,
      "##_3": 4943,
      "##_or": 4944,
      "##_re": 4945,
      "##_pre": 4946,
      "##_to": 4947,
      "##_voting": 4948,
      "##_Joseph": 4949,
      "##_tu": 4950,
      "##_y_": 4951,
      "##_computing": 4952,
      "##_marx": 4953,
      "##_vot": 4954,
      "##_for": 4955,
      "##_boston": 4956,
      "##_76": 4957,
      "##Quinn": 4958,
      "##Kay": 4959,
      "##Kropotkin": 4960,
      "##LD": 4961,
      "##Loc": 4962,
      "##LSch": 4963,
      "##CW": 4964,
      "##Com": 4965,
      "##Cul": 4966,
      "##Computing": 4967,
      "##Dis": 4968,
      "##AT": 4969,
      "##Aut": 4970,
      "##ам": 4971,
      "##ъм": 4972,
      "##31": 4973,
      "##33": 4974,
      "##382": 4975,
      "##Issu": 4976,
      "##Inc": 4977,
      "##Most": 4978,
      "##Milit": 4979,
      "##41": 4980,
      "##People": 4981,
      "##RS": 4982,
      "##Ho": 4983,
      "##History": 4984,
      "##府主": 4985,
      "##Utopian": 4986,
      "##Ethics": 4987,
      "##Elroy": 4988,
      "##Economy": 4989,
      "##God": 4990,
      "##Geography": 4991,
      "##وي": 4992,
      "##لت": 4993,
      "##لط": 4994,
      "##‌ز": 4995,
      "##دا": 4996,
      "##ئی": 4997,
      "##سلط": 4998,
      "##キズ": 4999
    }
  }
}