{
  "version": "1.0",
  "truncation": null,
  "padding": null,
  "added_tokens": [
    {
      "id": 0,
      "content": "<unk>",
      "single_word": false,
      "lstrip": false,
      "rstrip": false,
      "normalized": false,
      "special": true
    },
    {
      "id": 1,
      "content": "<pad>",
      "single_word": false,
      "lstrip": false,
      "rstrip": false,
      "normalized": false,
      "special": true
    },
    {
      "id": 2,
      "content": "[CLS]",
      "single_word": false,
      "lstrip": false,
      "rstrip": false,
      "normalized": false,
      "special": true
    },
    {
      "id": 3,
      "content": "[SEP]",
      "single_word": false,
      "lstrip": false,
      "rstrip": false,
      "normalized": false,
      "special": true
    },
    {
      "id": 4,
      "content": "[MASK]",
      "single_word": false,
      "lstrip": false,
      "rstrip": false,
      "normalized": false,
      "special": true
    },
    {
      "id": 5,
      "content": "\n",
      "single_word": false,
      "lstrip": false,
      "rstrip": false,
      "normalized": false,
      "special": true
    },
    {
      "id": 6,
      "content": "\t",
      "single_word": false,
      "lstrip": false,
      "rstrip": false,
      "normalized": false,
      "special": true
    },
    {
      "id": 7,
      "content": " ",
      "single_word": false,
      "lstrip": false,
      "rstrip": false,
      "normalized": false,
      "special": true
    }
  ],
  "normalizer": null,
  "pre_tokenizer": {
    "type": "Whitespace"
  },
  "post_processor": null,
  "decoder": null,
  "model": {
    "type": "WordPiece",
    "unk_token": "<unk>",
    "continuing_subword_prefix": "##",
    "max_input_chars_per_word": 100,
    "vocab": {
      "<unk>": 0,
      "<pad>": 1,
      "[CLS]": 2,
      "[SEP]": 3,
      "[MASK]": 4,
      "\n": 5,
      "\t": 6,
      " ": 7,
      "!": 8,
      "\"": 9,
      "#": 10,
      "%": 11,
      "&": 12,
      "'": 13,
      "(": 14,
      ")": 15,
      "*": 16,
      ",": 17,
      "-": 18,
      ".": 19,
      "/": 20,
      "0": 21,
      "1": 22,
      "2": 23,
      "3": 24,
      "4": 25,
      "5": 26,
      "6": 27,
      "7": 28,
      "8": 29,
      "9": 30,
      ":": 31,
      ";": 32,
      "<": 33,
      "=": 34,
      ">": 35,
      "?": 36,
      "A": 37,
      "B": 38,
      "C": 39,
      "D": 40,
      "E": 41,
      "F": 42,
      "G": 43,
      "H": 44,
      "I": 45,
      "J": 46,
      "K": 47,
      "L": 48,
      "M": 49,
      "N": 50,
      "O": 51,
      "P": 52,
      "Q": 53,
      "R": 54,
      "S": 55,
      "T": 56,
      "U": 57,
      "V": 58,
      "W": 59,
      "X": 60,
      "Y": 61,
      "Z": 62,
      "[": 63,
      "]": 64,
      "_": 65,
      "a": 66,
      "b": 67,
      "c": 68,
      "d": 69,
      "e": 70,
      "f": 71,
      "g": 72,
      "h": 73,
      "i": 74,
      "j": 75,
      "k": 76,
      "l": 77,
      "m": 78,
      "n": 79,
      "o": 80,
      "p": 81,
      "q": 82,
      "r": 83,
      "s": 84,
      "t": 85,
      "u": 86,
      "v": 87,
      "w": 88,
      "x": 89,
      "y": 90,
      "z": 91,
      "{": 92,
      "|": 93,
      "}": 94,
      "~": 95,
      "à": 96,
      "á": 97,
      "â": 98,
      "é": 99,
      "ê": 100,
      "ó": 101,
      "ú": 102,
      "ī": 103,
      "ş": 104,
      "А": 105,
      "а": 106,
      "з": 107,
      "и": 108,
      "м": 109,
      "н": 110,
      "р": 111,
      "х": 112,
      "ъ": 113,
      "א": 114,
      "ז": 115,
      "י": 116,
      "כ": 117,
      "ם": 118,
      "נ": 119,
      "ר": 120,
      "ئ": 121,
      "ا": 122,
      "ة": 123,
      "ت": 124,
      "د": 125,
      "ز": 126,
      "س": 127,
      "ط": 128,
      "ل": 129,
      "و": 130,
      "ي": 131,
      "ی": 132,
      "ต": 133,
      "ท": 134,
      "ธ": 135,
      "น": 136,
      "ป": 137,
      "ย": 138,
      "ล": 139,
      "อ": 140,
      "ั": 141,
      "า": 142,
      "ิ": 143,
      "ไ": 144,
      "‌": 145,
      "–": 146,
      "—": 147,
      "’": 148,
      "“": 149,
      "”": 150,
      "ア": 151,
      "キ": 152,
      "ズ": 153,
      "ナ": 154,
      "ム": 155,
      "主": 156,
      "义": 157,
      "府": 158,
      "政": 159,
      "无": 160,
      "나": 161,
      "아": 162,
      "즘": 163,
      "키": 164,
      "##o": 165,
      "##r": 166,
      "##t": 167,
      "##i": 168,
      "##n": 169,
      "##e": 170,
      "##m": 171,
      "##p": 172,
      "##a": 173,
      "##y": 174,
      "##g": 175,
      "##s": 176,
      "##9": 177,
      "##3": 178,
      "##d": 179,
      "##6": 180,
      "##0": 181,
      "##u": 182,
      "##]": 183,
      "##}": 184,
      "##1": 185,
      "##k": 186,
      "##l": 187,
      "##x": 188,
      "##c": 189,
      "##b": 190,
      "##'": 191,
      "##&": 192,
      "##D": 193,
      "##h": 194,
      "##7": 195,
      "##v": 196,
      "##I": 197,
      "##/": 198,
      "##w": 199,
      "##f": 200,
      "##z": 201,
      "##8": 202,
      "##2": 203,
      "##5": 204,
      "##4": 205,
      "##j": 206,
      "##?": 207,
      "##Y": 208,
      "##Z": 209,
      "##!": 210,
      "##-": 211,
      "##,": 212,
      "##S": 213,
      "##[": 214,
      "##<": 215,
      "##.": 216,
      "##C": 217,
      "##M": 218,
      "##T": 219,
      "##E": 220,
      "##G": 221,
      "##é": 222,
      "##ó": 223,
      "##)": 224,
      "##_": 225,
      "##N": 226,
      "##A": 227,
      "##R": 228,
      "##H": 229,
      "##O": 230,
      "##U": 231,
      "##=": 232,
      "##;": 233,
      "##ú": 234,
      "##J": 235,
      "##P": 236,
      "##Q": 237,
      "##L": 238,
      "##(": 239,
      "##q": 240,
      "##{": 241,
      "##~": 242,
      "##ī": 243,
      "##V": 244,
      "##나": 245,
      "##키": 246,
      "##즘": 247,
      "##K": 248,
      "##н": 249,
      "##а": 250,
      "##р": 251,
      "##х": 252,
      "##и": 253,
      "##з": 254,
      "##ъ": 255,
      "##м": 256,
      "##*": 257,
      "##ا": 258,
      "##س": 259,
      "##ل": 260,
      "##ط": 261,
      "##و": 262,
      "##ي": 263,
      "##ة": 264,
      "##W": 265,
      "##|": 266,
      "##ت": 267,
      "##‌": 268,
      "##ز": 269,
      "##د": 270,
      "##ئ": 271,
      "##ی": 272,
      "##>": 273,
      "##F": 274,
      "##:": 275,
      "###": 276,
      "##\"": 277,
      "##ั": 278,
      "##ท": 279,
      "##ธ": 280,
      "##ิ": 281,
      "##อ": 282,
      "##น": 283,
      "##า": 284,
      "##ป": 285,
      "##ไ": 286,
      "##ต": 287,
      "##ย": 288,
      "##ş": 289,
      "##ナ": 290,
      "##キ": 291,
      "##ズ": 292,
      "##ム": 293,
      "##á": 294,
      "##â": 295,
      "##נ": 296,
      "##ר": 297,
      "##כ": 298,
      "##י": 299,
      "##ז": 300,
      "##ם": 301,
      "##B": 302,
      "##政": 303,
      "##府": 304,
      "##主": 305,
      "##义": 306,
      "##is": 307,
      "##er": 308,
      "th": 309,
      "##on": 310,
      "##ar": 311,
      "##ti": 312,
      "an": 313,
      "the": 314,
      "##en": 315,
      "##in": 316,
      "]]": 317,
      "##or": 318,
      "##es": 319,
      "[[": 320,
      "##ch": 321,
      "##al": 322,
      "##an": 323,
      "##ed": 324,
      "of": 325,
      "in": 326,
      "##at": 327,
      "##it": 328,
      "##ism": 329,
      "##arch": 330,
      "##ist": 331,
      "##om": 332,
      "##tion": 333,
      "##ot": 334,
      "and": 335,
      "##ut": 336,
      "to": 337,
      "##le": 338,
      "##ent": 339,
      "##ing": 340,
      "##ic": 341,
      "anarch": 342,
      "re": 343,
      "##ou": 344,
      "##re": 345,
      "##ve": 346,
      "##as": 347,
      "##ol": 348,
      "##op": 349,
      "##st": 350,
      "</": 351,
      "##am": 352,
      "##ac": 353,
      "##il": 354,
      "qu": 355,
      "quot": 356,
      "##ation": 357,
      "aut": 358,
      "##el": 359,
      "as": 360,
      "##tic": 361,
      "##ag": 362,
      "##ri": 363,
      "An": 364,
      "''": 365,
      "##oc": 366,
      "or": 367,
      "##ly": 368,
      "##ment": 369,
      "is": 370,
      "##th": 371,
      "##os": 372,
      "be": 373,
      "##ers": 374,
      "con": 375,
      "com": 376,
      "id": 377,
      "##ith": 378,
      "##ter": 379,
      "##ists": 380,
      "##un": 381,
      "##gh": 382,
      "with": 383,
      "pr": 384,
      "Th": 385,
      "that": 386,
      "]],": 387,
      "##ur": 388,
      "##ce": 389,
      "##id": 390,
      "Anarch": 391,
      "##ay": 392,
      "wh": 393,
      "##ir": 394,
      "##ul": 395,
      "for": 396,
      "##em": 397,
      "##ion": 398,
      "##age": 399,
      "##ate": 400,
      "##oci": 401,
      "ht": 402,
      "##est": 403,
      "ref": 404,
      "##ow": 405,
      "##iv": 406,
      "st": 407,
      "##im": 408,
      "##et": 409,
      "anarchism": 410,
      "##ec": 411,
      "##if": 412,
      "##us": 413,
      "##ual": 414,
      "ex": 415,
      "on": 416,
      "##ain": 417,
      "The": 418,
      "al": 419,
      "mo": 420,
      "autism": 421,
      "##''": 422,
      "##nd": 423,
      "##istic": 424,
      "]].": 425,
      "==": 426,
      "su": 427,
      "##ess": 428,
      "##ome": 429,
      "us": 430,
      "##ity": 431,
      "lt": 432,
      "##ts": 433,
      "gt": 434,
      "##rou": 435,
      "##ver": 436,
      "##[[": 437,
      "de": 438,
      "##pp": 439,
      "not": 440,
      "##ab": 441,
      "soci": 442,
      "##ian": 443,
      "##ical": 444,
      "are": 445,
      "##ng": 446,
      "##mp": 447,
      "##ert": 448,
      "In": 449,
      "ch": 450,
      "##od": 451,
      "##mun": 452,
      "anarchist": 453,
      "##tp": 454,
      "##ap": 455,
      "##ace": 456,
      "19": 457,
      "sp": 458,
      "##igh": 459,
      "##ad": 460,
      ":/": 461,
      "anarchists": 462,
      "http": 463,
      "://": 464,
      "##ee": 465,
      "cont": 466,
      "##ak": 467,
      "le": 468,
      "sy": 469,
      "by": 470,
      "ac": 471,
      "fr": 472,
      "te": 473,
      "##um": 474,
      "##ud": 475,
      "autistic": 476,
      "##amp": 477,
      "##ave": 478,
      "##ary": 479,
      "##ere": 480,
      "pe": 481,
      "ind": 482,
      "at": 483,
      "man": 484,
      "##og": 485,
      "##ib": 486,
      "##vement": 487,
      "##rib": 488,
      "##ten": 489,
      "##esp": 490,
      "rev": 491,
      "##ik": 492,
      "##ople": 493,
      "##ame": 494,
      "commun": 495,
      "##uc": 496,
      "##ting": 497,
      "##ory": 498,
      "wor": 499,
      "ar": 500,
      "have": 501,
      "tim": 502,
      "##iz": 503,
      "##gu": 504,
      "they": 505,
      "from": 506,
      "people": 507,
      "##ml": 508,
      "##ld": 509,
      "##ild": 510,
      "movement": 511,
      "##ost": 512,
      "##00": 513,
      "##xt": 514,
      "##ous": 515,
      "org": 516,
      "Anarchism": 517,
      "was": 518,
      "##ie": 519,
      "##ence": 520,
      "##ated": 521,
      "##ther": 522,
      "=\"": 523,
      "ab": 524,
      "page": 525,
      "##ig": 526,
      "##tive": 527,
      "##and": 528,
      "##ivid": 529,
      "social": 530,
      "cl": 531,
      "##ision": 532,
      "##ore": 533,
      "##ww": 534,
      "##arian": 535,
      "inc": 536,
      "##ribut": 537,
      "en": 538,
      "it": 539,
      "nam": 540,
      "un": 541,
      "www": 542,
      "##ern": 543,
      "##ividual": 544,
      "namesp": 545,
      ".&": 546,
      "##ren": 547,
      "##ted": 548,
      "##ia": 549,
      "##vel": 550,
      "exp": 551,
      "such": 552,
      "\">": 553,
      "dis": 554,
      "some": 555,
      "##ution": 556,
      "whi": 557,
      "contribut": 558,
      "text": 559,
      "namespace": 560,
      "tit": 561,
      "}}": 562,
      "##se": 563,
      "inter": 564,
      "##emin": 565,
      "##estamp": 566,
      "revision": 567,
      "timestamp": 568,
      "contributor": 569,
      "title": 570,
      "ag": 571,
      "##av": 572,
      "##so": 573,
      "##ction": 574,
      "##fer": 575,
      "their": 576,
      "##ose": 577,
      "individual": 578,
      "18": 579,
      "Ch": 580,
      "dif": 581,
      "par": 582,
      "{{": 583,
      "##hor": 584,
      "##our": 585,
      "##ill": 586,
      "child": 587,
      ";/": 588,
      "ad": 589,
      "amp": 590,
      "##ish": 591,
      "##ard": 592,
      "##ord": 593,
      "##ough": 594,
      "##olog": 595,
      "comment": 596,
      "ne": 597,
      "##ue": 598,
      "this": 599,
      "##agn": 600,
      "##tern": 601,
      "many": 602,
      "can": 603,
      "di": 604,
      "see": 605,
      "##sp": 606,
      "##ust": 607,
      "##alism": 608,
      "##oth": 609,
      "##ass": 610,
      "##ight": 611,
      "St": 612,
      "##ress": 613,
      "##ive": 614,
      "##ations": 615,
      "also": 616,
      "work": 617,
      "##iti": 618,
      "##ies": 619,
      "##hon": 620,
      "##angu": 621,
      "often": 622,
      "##act": 623,
      "author": 624,
      "synd": 625,
      "which": 626,
      "Sp": 627,
      "femin": 628,
      "has": 629,
      "ph": 630,
      "##rop": 631,
      "##ition": 632,
      "##89": 633,
      "##ans": 634,
      "##ould": 635,
      "one": 636,
      "usern": 637,
      "##erty": 638,
      "##umb": 639,
      "##agnos": 640,
      "username": 641,
      "Aut": 642,
      "bel": 643,
      "langu": 644,
      "other": 645,
      "tr": 646,
      "##ey": 647,
      "##erm": 648,
      "##orm": 649,
      "inf": 650,
      "##olution": 651,
      "pres": 652,
      "##ety": 653,
      "##velop": 654,
      "200": 655,
      ";[": 656,
      "may": 657,
      "##out": 658,
      "##ip": 659,
      "##ev": 660,
      "##lud": 661,
      "##ft": 662,
      "##arly": 663,
      "##end": 664,
      "##enc": 665,
      "##ase": 666,
      "language": 667,
      ";&": 668,
      "cap": 669,
      "more": 670,
      "##ob": 671,
      "##ub": 672,
      "prop": 673,
      "form": 674,
      "##roup": 675,
      "develop": 676,
      "15": 677,
      "app": 678,
      "##ever": 679,
      "##ail": 680,
      "##dhon": 681,
      "##all": 682,
      "anarcho": 683,
      "rel": 684,
      "##ational": 685,
      "'''": 686,
      "ide": 687,
      "##irst": 688,
      "includ": 689,
      "capit": 690,
      "gen": 691,
      "group": 692,
      "he": 693,
      "lab": 694,
      "sh": 695,
      "xml": 696,
      "##te": 697,
      "##ger": 698,
      "##ure": 699,
      "##ct": 700,
      "##onom": 701,
      "rep": 702,
      "who": 703,
      "state": 704,
      "all": 705,
      "his": 706,
      "key": 707,
      "me": 708,
      "min": 709,
      "so": 710,
      "##iol": 711,
      "##yp": 712,
      "##lic": 713,
      "them": 714,
      "##ort": 715,
      "##istan": 716,
      "##ree": 717,
      "##ack": 718,
      "str": 719,
      "##ect": 720,
      "##roudhon": 721,
      "Af": 722,
      "Proudhon": 723,
      "Some": 724,
      "its": 725,
      "imp": 726,
      "res": 727,
      "##ach": 728,
      "##]]": 729,
      "##ong": 730,
      "##ell": 731,
      "cons": 732,
      "##ult": 733,
      "differ": 734,
      "##ology": 735,
      "diagnos": 736,
      "belie": 737,
      ";[[": 738,
      "]&": 739,
      "do": 740,
      "ev": 741,
      "go": 742,
      "opp": 743,
      "term": 744,
      "##ok": 745,
      "##ph": 746,
      "##vers": 747,
      "##eral": 748,
      "##itarian": 749,
      "##ents": 750,
      "##asc": 751,
      "##elf": 752,
      "comp": 753,
      "html": 754,
      "===": 755,
      "use": 756,
      "class": 757,
      "##ro": 758,
      "##ial": 759,
      "##ear": 760,
      "##les": 761,
      "##fic": 762,
      "##ED": 763,
      "##qu": 764,
      "##arx": 765,
      "##tiv": 766,
      "##ant": 767,
      "##ainst": 768,
      "left": 769,
      "preser": 770,
      "ec": 771,
      "first": 772,
      "fasc": 773,
      "high": 774,
      "##ris": 775,
      "##ior": 776,
      "##mage": 777,
      "##ys": 778,
      "##lish": 779,
      "##edia": 780,
      "ass": 781,
      "most": 782,
      "society": 783,
      "##ign": 784,
      "disord": 785,
      "syndical": 786,
      "Al": 787,
      "Asp": 788,
      "Con": 789,
      "Com": 790,
      "Image": 791,
      "RED": 792,
      "Wh": 793,
      "non": 794,
      "pri": 795,
      "pers": 796,
      "right": 797,
      "se": 798,
      "##of": 799,
      "##ative": 800,
      "##sh": 801,
      "##hav": 802,
      "##IR": 803,
      "##CT": 804,
      "##ECT": 805,
      "##erger": 806,
      "##ink": 807,
      "##ited": 808,
      "##ings": 809,
      "##tical": 810,
      "##unin": 811,
      "##cep": 812,
      "##ular": 813,
      "refer": 814,
      "space": 815,
      "##akunin": 816,
      "movements": 817,
      "preserve": 818,
      "Asperger": 819,
      "REDIR": 820,
      "##havior": 821,
      "REDIRECT": 822,
      "Bakunin": 823,
      "Man": 824,
      "Wor": 825,
      "lib": 826,
      "pre": 827,
      "pub": 828,
      "viol": 829,
      "##ge": 830,
      "##ved": 831,
      "##ark": 832,
      "##tim": 833,
      "##anistan": 834,
      "##ics": 835,
      "##old": 836,
      "##oll": 837,
      "##oph": 838,
      "''[[": 839,
      "##thers": 840,
      "behavior": 841,
      "##unction": 842,
      "##ghanistan": 843,
      "Anarcho": 844,
      "Anarchist": 845,
      "what": 846,
      "##'''": 847,
      "authoritarian": 848,
      "ideas": 849,
      "Afghanistan": 850,
      "/>": 851,
      "Am": 852,
      "CN": 853,
      "but": 854,
      "cri": 855,
      "main": 856,
      "pl": 857,
      "sch": 858,
      "up": 859,
      "##oin": 860,
      "##ious": 861,
      "##ner": 862,
      "##0s": 863,
      "##kin": 864,
      "##her": 865,
      "##</": 866,
      "than": 867,
      "anti": 868,
      "]]''": 869,
      "##ance": 870,
      "##oli": 871,
      "##ilos": 872,
      "''&": 873,
      "been": 874,
      "This": 875,
      "##ays": 876,
      "##ific": 877,
      "##uss": 878,
      "##nder": 879,
      "acc": 880,
      "##ization": 881,
      "\">#": 882,
      "against": 883,
      "children": 884,
      "property": 885,
      "capitalism": 886,
      "groups": 887,
      "minor": 888,
      "##ilosoph": 889,
      "Lib": 890,
      "War": 891,
      "ed": 892,
      "early": 893,
      "fact": 894,
      "foll": 895,
      "out": 896,
      "sit": 897,
      "##ook": 898,
      "##ier": 899,
      "##now": 900,
      "##eti": 901,
      "##man": 902,
      "##px": 903,
      "##aus": 904,
      "##ker": 905,
      "##cc": 906,
      "thumb": 907,
      "##ast": 908,
      "##ely": 909,
      "##owever": 910,
      "examp": 911,
      "used": 912,
      "artic": 913,
      "organ": 914,
      "development": 915,
      "general": 916,
      "econom": 917,
      "CNT": 918,
      "follow": 919,
      "##": 920,
      "),": 921,
      "Fr": 922,
      "It": 923,
      "Le": 924,
      "jp": 925,
      "no": 926,
      "over": 927,
      "tend": 928,
      "under": 929,
      "were": 930,
      "would": 931,
      "##eric": 932,
      "there": 933,
      "##tin": 934,
      "these": 935,
      "##ens": 936,
      "##otkin": 937,
      "##action": 938,
      "bec": 939,
      "##urr": 940,
      "##ide": 941,
      "htm": 942,
      "##able": 943,
      "communic": 944,
      "##uct": 945,
      "##ucker": 946,
      "individuals": 947,
      "Stat": 948,
      "philosoph": 949,
      "##ropotkin": 950,
      "Autism": 951,
      "different": 952,
      "Commun": 953,
      "person": 954,
      "*[[": 955,
      ";#": 956,
      "He": 957,
      "Kropotkin": 958,
      "Soci": 959,
      "des": 960,
      "know": 961,
      "nat": 962,
      "numb": 963,
      "others": 964,
      "post": 965,
      "self": 966,
      "tw": 967,
      "tak": 968,
      "will": 969,
      "|[[": 970,
      "##rit": 971,
      "##ile": 972,
      "##aw": 973,
      "those": 974,
      "though": 975,
      "##tit": 976,
      "int": 977,
      "rec": 978,
      "##ility": 979,
      "##though": 980,
      "within": 981,
      "prof": 982,
      "##ural": 983,
      "Anarchists": 984,
      "##emp": 985,
      "##ivil": 986,
      "att": 987,
      "Chris": 988,
      "adv": 989,
      "##8989": 990,
      "2002": 991,
      "158989": 992,
      "oppos": 993,
      "disorder": 994,
      "jpg": 995,
      ";''": 996,
      "Eng": 997,
      "For": 998,
      "However": 999,
      "Marx": 1000,
      "Ne": 1001,
      "Pe": 1002,
      "Russ": 1003,
      "Un": 1004,
      "co": 1005,
      "call": 1006,
      "del": 1007,
      "lack": 1008,
      "pop": 1009,
      "##oy": 1010,
      "##T1": 1011,
      "##til": 1012,
      "##tian": 1013,
      "]])": 1014,
      "]]</": 1015,
      "##ors": 1016,
      "##edi": 1017,
      "ins": 1018,
      "##utual": 1019,
      "reg": 1020,
      "##stem": 1021,
      "##ures": 1022,
      "##ider": 1023,
      "##iron": 1024,
      "stud": 1025,
      "sub": 1026,
      "supp": 1027,
      "Intern": 1028,
      "revolution": 1029,
      "##iki": 1030,
      "##ike": 1031,
      "argu": 1032,
      "##iew": 1033,
      "about": 1034,
      "interest": 1035,
      "##oseph": 1036,
      "diffic": 1037,
      "part": 1038,
      "partic": 1039,
      "##ustri": 1040,
      "##ities": 1041,
      "feminist": 1042,
      "consider": 1043,
      "Christian": 1044,
      ").": 1045,
      "*'''": 1046,
      "Dis": 1047,
      "Rev": 1048,
      "See": 1049,
      "Tr": 1050,
      "am": 1051,
      "function": 1052,
      "mak": 1053,
      "poli": 1054,
      "sc": 1055,
      "view": 1056,
      "we": 1057,
      "year": 1058,
      "##ool": 1059,
      "##ry": 1060,
      "##rome": 1061,
      "##gin": 1062,
      "##0px": 1063,
      "##viron": 1064,
      "##ised": 1065,
      "]]'": 1066,
      "##istory": 1067,
      "##ict": 1068,
      "anarchy": 1069,
      "##ope": 1070,
      "##els": 1071,
      "##tics": 1072,
      "There": 1073,
      "##ateg": 1074,
      "##ifest": 1075,
      "mod": 1076,
      "##rough": 1077,
      "def": 1078,
      "##ertarian": 1079,
      "system": 1080,
      "teach": 1081,
      "environ": 1082,
      "age": 1083,
      "##ression": 1084,
      "feminism": 1085,
      "even": 1086,
      "associ": 1087,
      "violence": 1088,
      "Americ": 1089,
      "school": 1090,
      "##ause": 1091,
      "example": 1092,
      "number": 1093,
      "advoc": 1094,
      "called": 1095,
      "popular": 1096,
      "International": 1097,
      "Revolution": 1098,
      "functioning": 1099,
      "environment": 1100,
      "Bol": 1101,
      "Eur": 1102,
      "Post": 1103,
      "af": 1104,
      "both": 1105,
      "cert": 1106,
      "ever": 1107,
      "hel": 1108,
      "list": 1109,
      "link": 1110,
      "like": 1111,
      "ob": 1112,
      "sim": 1113,
      "war": 1114,
      "##red": 1115,
      "##ric": 1116,
      "##mon": 1117,
      "##ax": 1118,
      "##aj": 1119,
      "##aim": 1120,
      "##ating": 1121,
      "##go": 1122,
      "##li": 1123,
      "##crib": 1124,
      "##bard": 1125,
      "##jec": 1126,
      "##ise": 1127,
      "##ari": 1128,
      "##enti": 1129,
      "##ine": 1130,
      "##ince": 1131,
      "##orted": 1132,
      "##ese": 1133,
      "##alk": 1134,
      "##ally": 1135,
      "##anish": 1136,
      "##oms": 1137,
      "##tions": 1138,
      "##lec": 1139,
      "##oun": 1140,
      "##rect": 1141,
      "##ily": 1142,
      "conf": 1143,
      "##ury": 1144,
      "when": 1145,
      "##ody": 1146,
      "191": 1147,
      "192": 1148,
      "least": 1149,
      "activ": 1150,
      "manifest": 1151,
      "##ible": 1152,
      "word": 1153,
      "##othbard": 1154,
      "syndrome": 1155,
      "Spain": 1156,
      "Spanish": 1157,
      "##ormal": 1158,
      "##ences": 1159,
      "include": 1160,
      "##ypical": 1161,
      "believe": 1162,
      "syndicalism": 1163,
      "##shev": 1164,
      "Work": 1165,
      "years": 1166,
      "Bolshev": 1167,
      "Europe": 1168,
      "certain": 1169,
      ";,": 1170,
      ";.": 1171,
      "As": 1172,
      "Fren": 1173,
      "God": 1174,
      "Ind": 1175,
      "Joseph": 1176,
      "On": 1177,
      "Re": 1178,
      "Tucker": 1179,
      "book": 1180,
      "cent": 1181,
      "col": 1182,
      "fe": 1183,
      "fam": 1184,
      "if": 1185,
      "lit": 1186,
      "md": 1187,
      "pat": 1188,
      "pos": 1189,
      "sign": 1190,
      "##ood": 1191,
      "##gr": 1192,
      "##uch": 1193,
      "##ves": 1194,
      "##wn": 1195,
      "##jam": 1196,
      "##que": 1197,
      "##eri": 1198,
      "##eration": 1199,
      "through": 1200,
      "##inc": 1201,
      "##ite": 1202,
      "##ound": 1203,
      "##ash": 1204,
      "##ased": 1205,
      "##acif": 1206,
      "Anar": 1207,
      "bet": 1208,
      "without": 1209,
      "##vern": 1210,
      "##ade": 1211,
      "incre": 1212,
      "need": 1213,
      "##other": 1214,
      "##itions": 1215,
      "including": 1216,
      "should": 1217,
      "means": 1218,
      "govern": 1219,
      "Many": 1220,
      "##oldman": 1221,
      "underst": 1222,
      "##ensory": 1223,
      "communication": 1224,
      "philosophy": 1225,
      "describ": 1226,
      "two": 1227,
      "##ustrial": 1228,
      "American": 1229,
      "French": 1230,
      "mdash": 1231,
      "11": 1232,
      "17": 1233,
      "Ben": 1234,
      "De": 1235,
      "Ec": 1236,
      "Goldman": 1237,
      "Most": 1238,
      "Prop": 1239,
      "Pier": 1240,
      "Rothbard": 1241,
      "car": 1242,
      "cult": 1243,
      "dec": 1244,
      "fac": 1245,
      "free": 1246,
      "mon": 1247,
      "net": 1248,
      "poin": 1249,
      "resp": 1250,
      "talk": 1251,
      "##ov": 1252,
      "##rum": 1253,
      "##ex": 1254,
      "##mb": 1255,
      "##pre": 1256,
      "##air": 1257,
      "##gg": 1258,
      "##day": 1259,
      "##bers": 1260,
      "##ward": 1261,
      "##fore": 1262,
      "##form": 1263,
      "##45": 1264,
      "##SM": 1265,
      "##erv": 1266,
      "##ont": 1267,
      "##arac": 1268,
      "theory": 1269,
      "##ination": 1270,
      "##chn": 1271,
      "##ote": 1272,
      "##reen": 1273,
      "being": 1274,
      "convers": 1275,
      "concep": 1276,
      "princ": 1277,
      "##embers": 1278,
      "##ives": 1279,
      "193": 1280,
      "spec": 1281,
      "level": 1282,
      "communism": 1283,
      "##ized": 1284,
      "claim": 1285,
      "expl": 1286,
      "interaction": 1287,
      "individualist": 1288,
      "150px": 1289,
      "relig": 1290,
      "capital": 1291,
      "##tegr": 1292,
      "mean": 1293,
      "struct": 1294,
      "##ectrum": 1295,
      "diagnosis": 1296,
      "comple": 1297,
      "fascism": 1298,
      "##lished": 1299,
      "public": 1300,
      "situ": 1301,
      "Leo": 1302,
      "nature": 1303,
      "thought": 1304,
      "##titution": 1305,
      "1589895": 1306,
      "Peter": 1307,
      "difficult": 1308,
      "every": 1309,
      "##ajor": 1310,
      "Bolshevik": 1311,
      "century": 1312,
      "##jamin": 1313,
      "government": 1314,
      "understand": 1315,
      "Benjamin": 1316,
      "Pierre": 1317,
      "##aracter": 1318,
      "princip": 1319,
      "25": 1320,
      "Ar": 1321,
      "Civil": 1322,
      "DSM": 1323,
      "History": 1324,
      "Par": 1325,
      "US": 1326,
      "body": 1327,
      "based": 1328,
      "dur": 1329,
      "div": 1330,
      "eth": 1331,
      "fi": 1332,
      "foc": 1333,
      "had": 1334,
      "im": 1335,
      "ip": 1336,
      "lar": 1337,
      "must": 1338,
      "might": 1339,
      "mark": 1340,
      "members": 1341,
      "major": 1342,
      "occ": 1343,
      "own": 1344,
      "pacif": 1345,
      "sk": 1346,
      "set": 1347,
      "sec": 1348,
      "typical": 1349,
      "##oting": 1350,
      "##tle": 1351,
      "##top": 1352,
      "##eak": 1353,
      "##par": 1354,
      "##ding": 1355,
      "##lu": 1356,
      "##lack": 1357,
      "##ble": 1358,
      "##hn": 1359,
      "##hop": 1360,
      "##win": 1361,
      "##{{": 1362,
      "##arn": 1363,
      "##ties": 1364,
      "any": 1365,
      "theor": 1366,
      "]]&": 1367,
      "##ale": 1368,
      "##alth": 1369,
      "##ather": 1370,
      "##archy": 1371,
      "##lect": 1372,
      "##ental": 1373,
      "##reat": 1374,
      "##rection": 1375,
      "##olst": 1376,
      "And": 1377,
      "Anark": 1378,
      "##oshop": 1379,
      "cond": 1380,
      "Anarchy": 1381,
      "where": 1382,
      "only": 1383,
      "note": 1384,
      "character": 1385,
      "##oduc": 1386,
      "##aph": 1387,
      "spectrum": 1388,
      "speak": 1389,
      "##ights": 1390,
      "contr": 1391,
      "contro": 1392,
      "community": 1393,
      "arm": 1394,
      "time": 1395,
      "while": 1396,
      "187": 1397,
      "Child": 1398,
      "seek": 1399,
      "authority": 1400,
      "phys": 1401,
      "influ": 1402,
      "labor": 1403,
      "seem": 1404,
      "##times": 1405,
      "play": 1406,
      "edu": 1407,
      "article": 1408,
      "articles": 1409,
      "economic": 1410,
      "known": 1411,
      "profess": 1412,
      "United": 1413,
      "institution": 1414,
      "revolutionary": 1415,
      "considered": 1416,
      "Disord": 1417,
      "political": 1418,
      "##ategory": 1419,
      "help": 1420,
      "simil": 1421,
      "collec": 1422,
      "##pret": 1423,
      "during": 1424,
      "focus": 1425,
      "##olstoy": 1426,
      "controvers": 1427,
      "--": 1428,
      "03": 1429,
      "10": 1430,
      "20": 1431,
      ":''": 1432,
      "By": 1433,
      "Category": 1434,
      "Di": 1435,
      "Em": 1436,
      "Jo": 1437,
      "Mik": 1438,
      "Murr": 1439,
      "Mutual": 1440,
      "Other": 1441,
      "Since": 1442,
      "Tolstoy": 1443,
      "cre": 1444,
      "curr": 1445,
      "det": 1446,
      "found": 1447,
      "how": 1448,
      "join": 1449,
      "lif": 1450,
      "marx": 1451,
      "##ra": 1452,
      "##rner": 1453,
      "##raph": 1454,
      "##ty": 1455,
      "##nc": 1456,
      "##nal": 1457,
      "##eb": 1458,
      "##earch": 1459,
      "##eign": 1460,
      "##ma": 1461,
      "##ming": 1462,
      "##mall": 1463,
      "##au": 1464,
      "##az": 1465,
      "##gan": 1466,
      "##dom": 1467,
      "##lop": 1468,
      "##hail": 1469,
      "##ful": 1470,
      "##43": 1471,
      "##--": 1472,
      "##one": 1473,
      "##arth": 1474,
      "##tirner": 1475,
      "another": 1476,
      "##anner": 1477,
      "##ater": 1478,
      "##ismo": 1479,
      "##istor": 1480,
      "##ute": 1481,
      "##lem": 1482,
      "##lection": 1483,
      "##ently": 1484,
      "##ice": 1485,
      "##olved": 1486,
      "##riting": 1487,
      "##rigin": 1488,
      "common": 1489,
      "pred": 1490,
      "prob": 1491,
      "##urn": 1492,
      "force": 1493,
      "stat": 1494,
      "##usual": 1495,
      "exten": 1496,
      "although": 1497,
      "##round": 1498,
      "##ians": 1499,
      "Ins": 1500,
      "199": 1501,
      "lead": 1502,
      "learn": 1503,
      "symp": 1504,
      "accep": 1505,
      "industrial": 1506,
      "able": 1507,
      "clin": 1508,
      "union": 1509,
      "unusual": 1510,
      "expression": 1511,
      "sometimes": 1512,
      "interpret": 1513,
      "##ological": 1514,
      "workers": 1515,
      "##itiv": 1516,
      "##ormation": 1517,
      "information": 1518,
      "present": 1519,
      "##ency": 1520,
      "##ails": 1521,
      "research": 1522,
      "good": 1523,
      "fascist": 1524,
      "Although": 1525,
      "What": 1526,
      "prim": 1527,
      "World": 1528,
      "published": 1529,
      "critic": 1530,
      "Warren": 1531,
      "##etitive": 1532,
      "following": 1533,
      "Statistic": 1534,
      "Social": 1535,
      "take": 1536,
      "into": 1537,
      "Engels": 1538,
      "New": 1539,
      "delay": 1540,
      "student": 1541,
      "argue": 1542,
      "modern": 1543,
      "links": 1544,
      "conflic": 1545,
      "activity": 1546,
      "Workers": 1547,
      "described": 1548,
      "imag": 1549,
      "skill": 1550,
      "institutions": 1551,
      "similar": 1552,
      "Mikhail": 1553,
      "Murray": 1554,
      "life": 1555,
      ")|": 1556,
      ".'''": 1557,
      "945": 1558,
      ";!": 1559,
      "Ex": 1560,
      "First": 1561,
      "Green": 1562,
      "IQ": 1563,
      "Kanner": 1564,
      "La": 1565,
      "List": 1566,
      "No": 1567,
      "Stirner": 1568,
      "Will": 1569,
      "aw": 1570,
      "crit": 1571,
      "civil": 1572,
      "dom": 1573,
      "day": 1574,
      "dem": 1575,
      "el": 1576,
      "ego": 1577,
      "fl": 1578,
      "hum": 1579,
      "hand": 1580,
      "late": 1581,
      "mil": 1582,
      "mutual": 1583,
      "normal": 1584,
      "rise": 1585,
      "rather": 1586,
      "rights": 1587,
      "sing": 1588,
      "sensory": 1589,
      "trou": 1590,
      "turn": 1591,
      "way": 1592,
      "writing": 1593,
      "##ru": 1594,
      "##ror": 1595,
      "##row": 1596,
      "##rary": 1597,
      "##tary": 1598,
      "##toms": 1599,
      "##ient": 1600,
      "##app": 1601,
      "##yn": 1602,
      "##su": 1603,
      "##sive": 1604,
      "##side": 1605,
      "##68": 1606,
      "##}}": 1607,
      "##ke": 1608,
      "##lan": 1609,
      "##ces": 1610,
      "##han": 1611,
      "##hood": 1612,
      "##function": 1613,
      "##ject": 1614,
      "##eria": 1615,
      "think": 1616,
      "##ond": 1617,
      "##aring": 1618,
      "##ense": 1619,
      "##ind": 1620,
      "##ined": 1621,
      "##orary": 1622,
      "##anarch": 1623,
      "inv": 1624,
      "inst": 1625,
      "inten": 1626,
      "##ates": 1627,
      "##atform": 1628,
      "##isme": 1629,
      "##omp": 1630,
      "today": 1631,
      "anarcha": 1632,
      "real": 1633,
      "##ases": 1634,
      "##olic": 1635,
      "##olun": 1636,
      "##eless": 1637,
      "##ellect": 1638,
      "'',": 1639,
      "before": 1640,
      "##unk": 1641,
      "##urther": 1642,
      "##urrection": 1643,
      "##ults": 1644,
      "##ularly": 1645,
      "##ower": 1646,
      "##iving": 1647,
      "##ected": 1648,
      "They": 1649,
      "##vereign": 1650,
      "##aplan": 1651,
      "##eech": 1652,
      "action": 1653,
      "##ogn": 1654,
      "world": 1655,
      "##ize": 1656,
      "ability": 1657,
      "enc": 1658,
      "experi": 1659,
      "189": 1660,
      "Chin": 1661,
      "##ournal": 1662,
      "##ressive": 1663,
      "working": 1664,
      "Autistic": 1665,
      "trans": 1666,
      "infan": 1667,
      "appear": 1668,
      "label": 1669,
      "labour": 1670,
      "##istance": 1671,
      "belief": 1672,
      "disorders": 1673,
      "priv": 1674,
      "reference": 1675,
      "Manual": 1676,
      "libertarian": 1677,
      "library": 1678,
      "violent": 1679,
      "Libertarian": 1680,
      "##ccess": 1681,
      "developmental": 1682,
      "States": 1683,
      "##emporary": 1684,
      "attach": 1685,
      "opposed": 1686,
      "English": 1687,
      "Russian": 1688,
      "##till": 1689,
      "supported": 1690,
      "interests": 1691,
      "associated": 1692,
      "schools": 1693,
      "advocate": 1694,
      "after": 1695,
      "Godwin": 1696,
      "feel": 1697,
      "Eco": 1698,
      "Property": 1699,
      "point": 1700,
      "##chnology": 1701,
      "specific": 1702,
      "religious": 1703,
      "structures": 1704,
      "situation": 1705,
      "principles": 1706,
      "large": 1707,
      "##topian": 1708,
      "physical": 1709,
      "collectiv": 1710,
      "controversial": 1711,
      "--&": 1712,
      "Diagnos": 1713,
      "details": 1714,
      "problem": 1715,
      "symptoms": 1716,
      "conflict": 1717,
      "imagin": 1718,
      "skills": 1719,
      ";!--": 1720,
      "criteria": 1721,
      "trouble": 1722,
      "##oluntary": 1723,
      "##ellectual": 1724,
      "',": 1725,
      ",&": 1726,
      "09": 1727,
      "02": 1728,
      "13": 1729,
      "16": 1730,
      "14": 1731,
      "43": 1732,
      "=&": 1733,
      "Bry": 1734,
      "CG": 1735,
      "Cent": 1736,
      "Caplan": 1737,
      "Dr": 1738,
      "Gree": 1739,
      "IV": 1740,
      "King": 1741,
      "Mental": 1742,
      "National": 1743,
      "Or": 1744,
      "Ple": 1745,
      "Sy": 1746,
      "Wes": 1747,
      "br": 1748,
      "black": 1749,
      "cle": 1750,
      "dist": 1751,
      "dest": 1752,
      "due": 1753,
      "et": 1754,
      "em": 1755,
      "eas": 1756,
      "ful": 1757,
      "fail": 1758,
      "further": 1759,
      "gl": 1760,
      "gest": 1761,
      "her": 1762,
      "him": 1763,
      "hold": 1764,
      "hier": 1765,
      "il": 1766,
      "led": 1767,
      "let": 1768,
      "less": 1769,
      "law": 1770,
      "later": 1771,
      "mus": 1772,
      "media": 1773,
      "much": 1774,
      "name": 1775,
      "op": 1776,
      "origin": 1777,
      "pa": 1778,
      "power": 1779,
      "rou": 1780,
      "redi": 1781,
      "ster": 1782,
      "sever": 1783,
      "stim": 1784,
      "small": 1785,
      "still": 1786,
      "tot": 1787,
      "tri": 1788,
      "vict": 1789,
      "vari": 1790,
      "well": 1791,
      "##ron": 1792,
      "##res": 1793,
      "##rac": 1794,
      "##tre": 1795,
      "##ih": 1796,
      "##ire": 1797,
      "##iam": 1798,
      "##een": 1799,
      "##eot": 1800,
      "##ead": 1801,
      "##min": 1802,
      "##pr": 1803,
      "##pt": 1804,
      "##pl": 1805,
      "##yc": 1806,
      "##ych": 1807,
      "##sw": 1808,
      "##sel": 1809,
      "##sible": 1810,
      "##sych": 1811,
      "##ugg": 1812,
      "##ky": 1813,
      "##hib": 1814,
      "##hip": 1815,
      "##ven": 1816,
      "##ween": 1817,
      "##FA": 1818,
      "##isation": 1819,
      "##erb": 1820,
      "things": 1821,
      "##oni": 1822,
      "##ons": 1823,
      "##art": 1824,
      "##are": 1825,
      "##arl": 1826,
      "##arity": 1827,
      "]]}}": 1828,
      "##chives": 1829,
      "##ang": 1830,
      "##ank": 1831,
      "##ange": 1832,
      "##eder": 1833,
      "##ederation": 1834,
      "initi": 1835,
      "##ately": 1836,
      "##istent": 1837,
      "##omin": 1838,
      "##tional": 1839,
      "##let": 1840,
      "##ices": 1841,
      "##icians": 1842,
      "rece": 1843,
      "##read": 1844,
      "##olid": 1845,
      "autonom": 1846,
      "Anti": 1847,
      "##ments": 1848,
      "conc": 1849,
      "contin": 1850,
      "##und": 1851,
      "produc": 1852,
      "Anarcha": 1853,
      "##ulate": 1854,
      "##ional": 1855,
      "##ecess": 1856,
      "exist": 1857,
      "exhib": 1858,
      "altern": 1859,
      "along": 1860,
      "deg": 1861,
      "##abap": 1862,
      "##ability": 1863,
      "197": 1864,
      "##eek": 1865,
      "symb": 1866,
      "autistics": 1867,
      "##tention": 1868,
      "##ikip": 1869,
      "communist": 1870,
      "communities": 1871,
      "##izm": 1872,
      "abs": 1873,
      "disc": 1874,
      "##sequ": 1875,
      "##eminism": 1876,
      "##aving": 1877,
      "##avid": 1878,
      "adults": 1879,
      "new": 1880,
      "##terns": 1881,
      "direct": 1882,
      "State": 1883,
      "feminists": 1884,
      "##ropri": 1885,
      "below": 1886,
      "trad": 1887,
      "true": 1888,
      "2006": 1889,
      "##enced": 1890,
      "##obal": 1891,
      "related": 1892,
      "relations": 1893,
      "show": 1894,
      "reported": 1895,
      "repetitive": 1896,
      "allow": 1897,
      "sovereign": 1898,
      "##yped": 1899,
      "themsel": 1900,
      "##ortant": 1901,
      "strugg": 1902,
      "impos": 1903,
      "resistance": 1904,
      "diagnosed": 1905,
      "does": 1906,
      "terms": 1907,
      "##oken": 1908,
      "##ysfunction": 1909,
      "syndicalist": 1910,
      "Conf": 1911,
      "While": 1912,
      "prior": 1913,
      "referred": 1914,
      "references": 1915,
      "behaviors": 1916,
      "##ificant": 1917,
      "Liberty": 1918,
      "educ": 1919,
      "economics": 1920,
      "From": 1921,
      "France": 1922,
      "became": 1923,
      "because": 1924,
      "natural": 1925,
      "recogn": 1926,
      "attemp": 1927,
      ";''&": 1928,
      ";'',": 1929,
      "##T15": 1930,
      "]]).": 1931,
      "students": 1932,
      "particular": 1933,
      "particularly": 1934,
      "among": 1935,
      "views": 1936,
      "environmental": 1937,
      "aff": 1938,
      "objec": 1939,
      "##ential": 1940,
      "##omsky": 1941,
      "European": 1942,
      "Ass": 1943,
      "books": 1944,
      "famous": 1945,
      "little": 1946,
      "patterns": 1947,
      "significant": 1948,
      "Anarqu": 1949,
      "better": 1950,
      "between": 1951,
      "increase": 1952,
      "culture": 1953,
      "concepts": 1954,
      "capitalist": 1955,
      "complete": 1956,
      "Bolsheviks": 1957,
      "Arm": 1958,
      "ethics": 1959,
      "market": 1960,
      "occur": 1961,
      "Andre": 1962,
      "conditions": 1963,
      "Disorders": 1964,
      "Emma": 1965,
      "marxists": 1966,
      "extensive": 1967,
      "learning": 1968,
      "interpretations": 1969,
      "Statistical": 1970,
      "Noam": 1971,
      "William": 1972,
      "democ": 1973,
      "human": 1974,
      "single": 1975,
      "##anarchism": 1976,
      "involved": 1977,
      "Diagnostic": 1978,
      "problems": 1979,
      "Bryan": 1980,
      "CGT": 1981,
      "Greek": 1982,
      "Western": 1983,
      "routin": 1984,
      "redirect": 1985,
      "stereot": 1986,
      "##yclop": 1987,
      "continu": 1988,
      "exhibit": 1989,
      "##abapt": 1990,
      "##ikipedia": 1991,
      "sovereignty": 1992,
      "themselves": 1993,
      "stereotyped": 1994,
      "'.": 1995,
      "([[": 1996,
      "*[": 1997,
      ".,": 1998,
      ".]]": 1999,
      "000": 2000,
      "12": 2001,
      "27": 2002,
      "300": 2003,
      "80": 2004,
      "96": 2005,
      "?]]": 2006,
      "Aid": 2007,
      "App": 2008,
      "Action": 2009,
      "Apr": 2010,
      "Bar": 2011,
      "But": 2012,
      "Cle": 2013,
      "Cam": 2014,
      "Ego": 2015,
      "Enc": 2016,
      "FA": 2017,
      "Fact": 2018,
      "Germ": 2019,
      "Hans": 2020,
      "IC": 2021,
      "Its": 2022,
      "Land": 2023,
      "Mc": 2024,
      "Mak": 2025,
      "Media": 2026,
      "Max": 2027,
      "Pl": 2028,
      "Pri": 2029,
      "Poli": 2030,
      "Sensory": 2031,
      "UK": 2032,
      "Yar": 2033,
      "Zap": 2034,
      "],": 2035,
      "around": 2036,
      "bir": 2037,
      "cr": 2038,
      "could": 2039,
      "case": 2040,
      "cited": 2041,
      "cause": 2042,
      "cases": 2043,
      "es": 2044,
      "ef": 2045,
      "eq": 2046,
      "fav": 2047,
      "giv": 2048,
      "give": 2049,
      "here": 2050,
      "histor": 2051,
      "having": 2052,
      "jus": 2053,
      "just": 2054,
      "lim": 2055,
      "long": 2056,
      "living": 2057,
      "mis": 2058,
      "now": 2059,
      "old": 2060,
      "per": 2061,
      "pit": 2062,
      "punk": 2063,
      "psych": 2064,
      "ro": 2065,
      "ru": 2066,
      "rac": 2067,
      "rul": 2068,
      "rest": 2069,
      "rad": 2070,
      "same": 2071,
      "says": 2072,
      "since": 2073,
      "sense": 2074,
      "ter": 2075,
      "tucker": 2076,
      "treat": 2077,
      "utopian": 2078,
      "ve": 2079,
      "var": 2080,
      "voc": 2081,
      "voting": 2082,
      "wr": 2083,
      "ws": 2084,
      "wing": 2085,
      "wid": 2086,
      "writ": 2087,
      "wiki": 2088,
      "##ox": 2089,
      "##ovement": 2090,
      "##ros": 2091,
      "##rand": 2092,
      "##tan": 2093,
      "##tain": 2094,
      "##ix": 2095,
      "##iat": 2096,
      "##itive": 2097,
      "##nic": 2098,
      "##national": 2099,
      "##normal": 2100,
      "##eat": 2101,
      "##eas": 2102,
      "##eth": 2103,
      "##ease": 2104,
      "##eology": 2105,
      "##mac": 2106,
      "##pation": 2107,
      "##ao": 2108,
      "##ym": 2109,
      "##giti": 2110,
      "##set": 2111,
      "##dd": 2112,
      "##upation": 2113,
      "##ling": 2114,
      "##cient": 2115,
      "##bell": 2116,
      "##volution": 2117,
      "##viol": 2118,
      "##wiki": 2119,
      "##foshop": 2120,
      "##48": 2121,
      "##jac": 2122,
      "##Case": 2123,
      "##T0": 2124,
      "##ery": 2125,
      "##erg": 2126,
      "##erc": 2127,
      "##tile": 2128,
      "##tique": 2129,
      "anx": 2130,
      "answ": 2131,
      "##ene": 2132,
      "##ines": 2133,
      "]]]]": 2134,
      "##orth": 2135,
      "##alph": 2136,
      "##any": 2137,
      "insp": 2138,
      "##isms": 2139,
      "##omated": 2140,
      "##ots": 2141,
      "too": 2142,
      "tox": 2143,
      "toward": 2144,
      "##ico": 2145,
      "rem": 2146,
      "rebell": 2147,
      "##reed": 2148,
      "##oly": 2149,
      "##ops": 2150,
      "##ilit": 2151,
      "##elCase": 2152,
      "##tice": 2153,
      "##ages": 2154,
      "##agand": 2155,
      "##riarchy": 2156,
      "##ript": 2157,
      "''.": 2158,
      "##ock": 2159,
      "##ocol": 2160,
      "##lying": 2161,
      "##ths": 2162,
      "##thing": 2163,
      "begin": 2164,
      "##ersity": 2165,
      "comb": 2166,
      "prot": 2167,
      "These": 2168,
      "Anarchizm": 2169,
      "##ired": 2170,
      "##ulties": 2171,
      "stri": 2172,
      "stress": 2173,
      "##ets": 2174,
      "##ection": 2175,
      "##use": 2176,
      "##ually": 2177,
      "]].&": 2178,
      "using": 2179,
      "noted": 2180,
      "##ably": 2181,
      "##ically": 2182,
      "areas": 2183,
      "Integr": 2184,
      "Infoshop": 2185,
      "chang": 2186,
      "19th": 2187,
      "speech": 2188,
      "syn": 2189,
      "act": 2190,
      "acts": 2191,
      "active": 2192,
      "front": 2193,
      "##udd": 2194,
      "attention": 2195,
      "##ograph": 2196,
      "communists": 2197,
      "arch": 2198,
      "abnormal": 2199,
      "##igg": 2200,
      "##arianism": 2201,
      "enter": 2202,
      "until": 2203,
      "explic": 2204,
      "}}</": 2205,
      "188": 2206,
      "Chomsky": 2207,
      "adding": 2208,
      "##ought": 2209,
      "neur": 2210,
      "works": 2211,
      "Automated": 2212,
      "trade": 2213,
      "infoshop": 2214,
      "appar": 2215,
      "appropri": 2216,
      "##aily": 2217,
      "idea": 2218,
      "gene": 2219,
      "labels": 2220,
      "repres": 2221,
      "strong": 2222,
      "strateg": 2223,
      "After": 2224,
      "impair": 2225,
      "important": 2226,
      "resist": 2227,
      "difference": 2228,
      "diagnoses": 2229,
      "believed": 2230,
      "going": 2231,
      "##version": 2232,
      "competi": 2233,
      "##roy": 2234,
      "##ficial": 2235,
      "fascists": 2236,
      "highly": 2237,
      "assert": 2238,
      "Conversion": 2239,
      "##atively": 2240,
      "prefer": 2241,
      "Anarchist_": 2242,
      "critics": 2243,
      "critique": 2244,
      "upon": 2245,
      "##ification": 2246,
      "factors": 2247,
      "examples": 2248,
      "tendency": 2249,
      "Communists": 2250,
      "Health": 2251,
      "Socialism": 2252,
      "intellectual": 2253,
      "profit": 2254,
      "opposition": 2255,
      "Marxist": 2256,
      "Russell": 2257,
      "delays": 2258,
      "regard": 2259,
      "subject": 2260,
      "argued": 2261,
      "difficulties": 2262,
      "make": 2263,
      "makes": 2264,
      "making": 2265,
      "script": 2266,
      "web": 2267,
      "teacher": 2268,
      "##lied": 2269,
      "1910": 2270,
      "words": 2271,
      "Individual": 2272,
      "One": 2273,
      "patriarchy": 2274,
      "throughout": 2275,
      "Anarh": 2276,
      "11Z": 2277,
      "Def": 2278,
      "cultural": 2279,
      "conversion": 2280,
      "1936": 2281,
      "explain": 2282,
      "difficulty": 2283,
      "understanding": 2284,
      "25T15": 2285,
      "Paris": 2286,
      "section": 2287,
      "theorists": 2288,
      "Anarkisme": 2289,
      "control": 2290,
      "Children": 2291,
      "Insurrection": 2292,
      "accepted": 2293,
      "clinicians": 2294,
      "##itivism": 2295,
      "civilization": 2296,
      "Chinese": 2297,
      "infantile": 2298,
      "private": 2299,
      "attachment": 2300,
      "Kingdom": 2301,
      "Organ": 2302,
      "Synd": 2303,
      "emo": 2304,
      "easily": 2305,
      "mediawiki": 2306,
      "stimul": 2307,
      "##ihil": 2308,
      "##onialism": 2309,
      "##olidarity": 2310,
      "autonomous": 2311,
      "degree": 2312,
      "discuss": 2313,
      "##obalization": 2314,
      "struggle": 2315,
      "April": 2316,
      "CamelCase": 2317,
      "Encyclop": 2318,
      "Factor": 2319,
      "ICD": 2320,
      "Makhn": 2321,
      "Platform": 2322,
      "Yarros": 2323,
      "Zapat": 2324,
      "birth": 2325,
      "equal": 2326,
      "given": 2327,
      "terror": 2328,
      "treatment": 2329,
      "wrote": 2330,
      "##jacque": 2331,
      "rebellion": 2332,
      "##aganda": 2333,
      "explicit": 2334,
      "appropriate": 2335,
      "competition": 2336,
      "Insurrectionary": 2337,
      "/~": 2338,
      "07": 2339,
      "04": 2340,
      "100": 2341,
      "21": 2342,
      "39": 2343,
      "42": 2344,
      ";)": 2345,
      "At": 2346,
      "Ad": 2347,
      "Austri": 2348,
      "Access": 2349,
      "Ber": 2350,
      "Bec": 2351,
      "Bert": 2352,
      "Bey": 2353,
      "Black": 2354,
      "Cri": 2355,
      "Carl": 2356,
      "Due": 2357,
      "David": 2358,
      "Dysfunction": 2359,
      "Digg": 2360,
      "Er": 2361,
      "Earth": 2362,
      "Evolution": 2363,
      "Feb": 2364,
      "Federation": 2365,
      "Feminism": 2366,
      "Gen": 2367,
      "Gust": 2368,
      "Hak": 2369,
      "Herb": 2370,
      "Id": 2371,
      "Jes": 2372,
      "Jan": 2373,
      "Journal": 2374,
      "Kron": 2375,
      "Lab": 2376,
      "LFA": 2377,
      "Mol": 2378,
      "May": 2379,
      "Magn": 2380,
      "Mans": 2381,
      "Movement": 2382,
      "Oct": 2383,
      "Others": 2384,
      "Ph": 2385,
      "Ra": 2386,
      "Rob": 2387,
      "Ralph": 2388,
      "So": 2389,
      "Solidarity": 2390,
      "Te": 2391,
      "Vict": 2392,
      "Voluntary": 2393,
      "With": 2394,
      "Wikipedia": 2395,
      "You": 2396,
      "ach": 2397,
      "aid": 2398,
      "aide": 2399,
      "best": 2400,
      "band": 2401,
      "bour": 2402,
      "base": 2403,
      "bene": 2404,
      "ca": 2405,
      "cur": 2406,
      "cul": 2407,
      "caus": 2408,
      "did": 2409,
      "divid": 2410,
      "dward": 2411,
      "daily": 2412,
      "ey": 2413,
      "est": 2414,
      "end": 2415,
      "eng": 2416,
      "esp": 2417,
      "ete": 2418,
      "emb": 2419,
      "earth": 2420,
      "election": 2421,
      "fin": 2422,
      "fri": 2423,
      "fem": 2424,
      "feder": 2425,
      "fought": 2426,
      "green": 2427,
      "great": 2428,
      "grow": 2429,
      "har": 2430,
      "however": 2431,
      "history": 2432,
      "journal": 2433,
      "kind": 2434,
      "lot": 2435,
      "low": 2436,
      "look": 2437,
      "lives": 2438,
      "my": 2439,
      "mid": 2440,
      "medi": 2441,
      "made": 2442,
      "necess": 2443,
      "pur": 2444,
      "peri": 2445,
      "polic": 2446,
      "sl": 2447,
      "ser": 2448,
      "saw": 2449,
      "ton": 2450,
      "ut": 2451,
      "vo": 2452,
      "vis": 2453,
      "vary": 2454,
      "vision": 2455,
      "voluntary": 2456,
      "wave": 2457,
      "wish": 2458,
      "ways": 2459,
      "xs": 2460,
      "zh": 2461,
      "Ан": 2462,
      "##oa": 2463,
      "##ois": 2464,
      "##oid": 2465,
      "##ral": 2466,
      "##ram": 2467,
      "##ration": 2468,
      "##ray": 2469,
      "##rase": 2470,
      "##ruct": 2471,
      "##roduc": 2472,
      "##rchives": 2473,
      "##tr": 2474,
      "##temporary": 2475,
      "##iar": 2476,
      "##ien": 2477,
      "##ied": 2478,
      "##iet": 2479,
      "##iting": 2480,
      "##ience": 2481,
      "##iety": 2482,
      "##ness": 2483,
      "##eed": 2484,
      "##mate": 2485,
      "##most": 2486,
      "##pan": 2487,
      "##ple": 2488,
      "##ply": 2489,
      "##pid": 2490,
      "##pub": 2491,
      "##aos": 2492,
      "##yre": 2493,
      "##get": 2494,
      "##ser": 2495,
      "##37": 2496,
      "##der": 2497,
      "##ug": 2498,
      "##uly": 2499,
      "##19": 2500,
      "##15": 2501,
      "##khan": 2502,
      "##ler": 2503,
      "##led": 2504,
      "##lus": 2505,
      "##log": 2506,
      "##cupation": 2507,
      "##he": 2508,
      "##ving": 2509,
      "##wh": 2510,
      "##fy": 2511,
      "##fort": 2512,
      "##zer": 2513,
      "##40s": 2514,
      "##..": 2515,
      "##ón": 2516,
      "##Archives": 2517,
      "##RC": 2518,
      "##HI": 2519,
      "##ар": 2520,
      "##хи": 2521,
      "##Wiki": 2522,
      "##iss": 2523,
      "##isting": 2524,
      "##erat": 2525,
      "##erap": 2526,
      "thing": 2527,
      "##onse": 2528,
      "##onents": 2529,
      "ann": 2530,
      "anabapt": 2531,
      "theore": 2532,
      "##enn": 2533,
      "##inn": 2534,
      "##inari": 2535,
      "##initions": 2536,
      "]];": 2537,
      "]]{{": 2538,
      "##ork": 2539,
      "##ortion": 2540,
      "##esis": 2541,
      "##ches": 2542,
      "##ality": 2543,
      "##ansp": 2544,
      "##edical": 2545,
      "offer": 2546,
      "inher": 2547,
      "integr": 2548,
      "inability": 2549,
      "##ators": 2550,
      "##ites": 2551,
      "##itative": 2552,
      "##ista": 2553,
      "##omb": 2554,
      "##omen": 2555,
      "##tionary": 2556,
      "##lex": 2557,
      "##leed": 2558,
      "##ented": 2559,
      "##inger": 2560,
      "##ick": 2561,
      "anarchistic": 2562,
      "ret": 2563,
      "reas": 2564,
      "reaction": 2565,
      "rejec": 2566,
      "##ream": 2567,
      "##asive": 2568,
      "##state": 2569,
      "##stain": 2570,
      "##stad": 2571,
      "##ament": 2572,
      "##aces": 2573,
      "##iliar": 2574,
      "##eld": 2575,
      "##ague": 2576,
      "##agaz": 2577,
      "##ried": 2578,
      "Ancient": 2579,
      "##occupation": 2580,
      "##mental": 2581,
      "issu": 2582,
      "##thod": 2583,
      "##thics": 2584,
      "##theless": 2585,
      "##thesis": 2586,
      "##ersion": 2587,
      "conn": 2588,
      "identi": 2589,
      "##ither": 2590,
      "prou": 2591,
      "proc": 2592,
      "prax": 2593,
      "promin": 2594,
      "##irit": 2595,
      "##emic": 2596,
      "##ociation": 2597,
      "##own": 2598,
      "##ived": 2599,
      "sty": 2600,
      "exc": 2601,
      "onset": 2602,
      "Theory": 2603,
      "alien": 2604,
      "moved": 2605,
      "##istics": 2606,
      "success": 2607,
      "sustain": 2608,
      "##essed": 2609,
      "uses": 2610,
      "deed": 2611,
      "deter": 2612,
      "notes": 2613,
      "##abb": 2614,
      "societi": 2615,
      "##iance": 2616,
      "Int": 2617,
      "chur": 2618,
      "chaos": 2619,
      "190": 2620,
      "1940s": 2621,
      "spoken": 2622,
      "technology": 2623,
      "indic": 2624,
      "manage": 2625,
      "##izes": 2626,
      "##izations": 2627,
      "##osts": 2628,
      "wasn": 2629,
      "##ander": 2630,
      "socialism": 2631,
      "unc": 2632,
      "export": 2633,
      "displ": 2634,
      "something": 2635,
      "}}.": 2636,
      "international": 2637,
      "agg": 2638,
      "agit": 2639,
      "##ference": 2640,
      "##hort": 2641,
      "##ourt": 2642,
      "##ours": 2643,
      "##oured": 2644,
      "##ources": 2645,
      "##ording": 2646,
      "neo": 2647,
      "##ternal": 2648,
      "Stud": 2649,
      "##ressed": 2650,
      "worker": 2651,
      "##hontan": 2652,
      "php": 2653,
      "phrase": 2654,
      "truly": 2655,
      "2005": 2656,
      "##ftism": 2657,
      "##encies": 2658,
      "##ober": 2659,
      "developed": 2660,
      "developing": 2661,
      "relatively": 2662,
      "included": 2663,
      "head": 2664,
      "method": 2665,
      "mind": 2666,
      "itself": 2667,
      "impact": 2668,
      "resources": 2669,
      "consistent": 2670,
      "diagnostic": 2671,
      "event": 2672,
      "events": 2673,
      "oppose": 2674,
      "classical": 2675,
      "classification": 2676,
      "##quote": 2677,
      "##tives": 2678,
      "leftist": 2679,
      "higher": 2680,
      "syndicalists": 2681,
      "Also": 2682,
      "Contemporary": 2683,
      "nonviol": 2684,
      "##tically": 2685,
      "preoccupation": 2686,
      "##geois": 2687,
      "place": 2688,
      "sched": 2689,
      "accoun": 2690,
      "outside": 2691,
      "site": 2692,
      "##ooks": 2693,
      "organization": 2694,
      "organized": 2695,
      "generally": 2696,
      "followers": 2697,
      "tends": 2698,
      "tendencies": 2699,
      "become": 2700,
      "communicate": 2701,
      "philosophies": 2702,
      "Commune": 2703,
      "Communic": 2704,
      "desir": 2705,
      "taking": 2706,
      "##titute": 2707,
      "##empl": 2708,
      "Russia": 2709,
      "coerc": 2710,
      "##T13": 2711,
      "##ediat": 2712,
      "support": 2713,
      "party": 2714,
      "particip": 2715,
      "politics": 2716,
      "defend": 2717,
      "defined": 2718,
      "teachers": 2719,
      "teachings": 2720,
      "association": 2721,
      "advocated": 2722,
      "advocates": 2723,
      "held": 2724,
      "listed": 2725,
      "##ricted": 2726,
      "##liament": 2727,
      "##ounc": 2728,
      "1917": 2729,
      "1926": 2730,
      "1921": 2731,
      "manifested": 2732,
      "Industrial": 2733,
      "few": 2734,
      "possible": 2735,
      "describe": 2736,
      "facial": 2737,
      "months": 2738,
      "##ervasive": 2739,
      "conversation": 2740,
      "conception": 2741,
      "claims": 2742,
      "religion": 2743,
      "capitalists": 2744,
      "meaning": 2745,
      "complex": 2746,
      "publicly": 2747,
      "situations": 2748,
      "principle": 2749,
      "marked": 2750,
      "pacifism": 2751,
      "pacifists": 2752,
      "second": 2753,
      "typically": 2754,
      "##part": 2755,
      "theories": 2756,
      "characterised": 2757,
      "1872": 2758,
      "Childhood": 2759,
      "seeks": 2760,
      "influenced": 2761,
      "influential": 2762,
      "professional": 2763,
      "Disorder": 2764,
      "helped": 2765,
      "John": 2766,
      "Johan": 2767,
      "create": 2768,
      "current": 2769,
      "joined": 2770,
      "##ratic": 2771,
      "##auer": 2772,
      "statist": 2773,
      "accept": 2774,
      "unionism": 2775,
      "expressions": 2776,
      "researchers": 2777,
      "goods": 2778,
      "criticised": 2779,
      "Newman": 2780,
      "Lahontan": 2781,
      "away": 2782,
      "domination": 2783,
      "egoism": 2784,
      "mutualism": 2785,
      "##ruary": 2786,
      "##ynam": 2787,
      "instead": 2788,
      "1895": 2789,
      "feelings": 2790,
      "imaginative": 2791,
      "Center": 2792,
      "Please": 2793,
      "destroy": 2794,
      "fully": 2795,
      "gestures": 2796,
      "hierarchy": 2797,
      "lesser": 2798,
      "music": 2799,
      "pati": 2800,
      "total": 2801,
      "victory": 2802,
      "variety": 2803,
      "initially": 2804,
      "##leton": 2805,
      "production": 2806,
      "existed": 2807,
      "alternative": 2808,
      "alongside": 2809,
      "1970s": 2810,
      "symbolic": 2811,
      "tradition": 2812,
      "education": 2813,
      "recognize": 2814,
      "amongst": 2815,
      "objects": 2816,
      "Association": 2817,
      "Anarquismo": 2818,
      "extensively": 2819,
      "Cleyre": 2820,
      "FAQ": 2821,
      "Germany": 2822,
      "Landauer": 2823,
      "MediaWiki": 2824,
      "Political": 2825,
      "justi": 2826,
      "mises": 2827,
      "pitzer": 2828,
      "psychiat": 2829,
      "rule": 2830,
      "restricted": 2831,
      "radical": 2832,
      "various": 2833,
      "widely": 2834,
      "##aoism": 2835,
      "##gitimate": 2836,
      "anxiety": 2837,
      "answer": 2838,
      "toxin": 2839,
      "towards": 2840,
      "remain": 2841,
      "##ocolonialism": 2842,
      "strike": 2843,
      "Integration": 2844,
      "changes": 2845,
      "synthesis": 2846,
      "##ography": 2847,
      "archive": 2848,
      "represented": 2849,
      "strategy": 2850,
      "impairment": 2851,
      "Anarchist_Archives": 2852,
      "regarded": 2853,
      "Definitions": 2854,
      "Syndical": 2855,
      "emotional": 2856,
      "discussion": 2857,
      "Zapatista": 2858,
      "terrorism": 2859,
      "Because": 2860,
      "Bertrand": 2861,
      "Diggers": 2862,
      "February": 2863,
      "General": 2864,
      "Gustave": 2865,
      "Hakim": 2866,
      "Herbert": 2867,
      "Jesus": 2868,
      "Kronstad": 2869,
      "Molinari": 2870,
      "Magnus": 2871,
      "Manske": 2872,
      "October": 2873,
      "Raico": 2874,
      "Robert": 2875,
      "Victor": 2876,
      "achie": 2877,
      "bourgeois": 2878,
      "beneficial": 2879,
      "divided": 2880,
      "dwardmac": 2881,
      "eye": 2882,
      "estab": 2883,
      "etext": 2884,
      "friend": 2885,
      "period": 2886,
      "policy": 2887,
      "visual": 2888,
      "Анар": 2889,
      "##khanov": 2890,
      "##logs": 2891,
      "##хиз": 2892,
      "theoretical": 2893,
      "##ansport": 2894,
      "praxeology": 2895,
      "prominent": 2896,
      "societies": 2897,
      "professionals": 2898,
      "Johann": 2899,
      "Kronstadt": 2900,
      "Анархиз": 2901,
      "(&": 2902,
      "(''": 2903,
      "):": 2904,
      ")]]": 2905,
      "**": 2906,
      ".''": 2907,
      ".{{": 2908,
      "08": 2909,
      "05": 2910,
      "29": 2911,
      "22": 2912,
      "36": 2913,
      "41": 2914,
      "47": 2915,
      "44": 2916,
      "50": 2917,
      "58": 2918,
      "75": 2919,
      "95": 2920,
      "9_": 2921,
      "943": 2922,
      ":&": 2923,
      ";{{": 2924,
      ">#": 2925,
      "?&": 2926,
      "Ag": 2927,
      "AN": 2928,
      "Alex": 2929,
      "Bob": 2930,
      "Brit": 2931,
      "Co": 2932,
      "Cr": 2933,
      "Cong": 2934,
      "Dé": 2935,
      "Don": 2936,
      "Dut": 2937,
      "Doc": 2938,
      "Dave": 2939,
      "Early": 2940,
      "Ethics": 2941,
      "Fl": 2942,
      "Fre": 2943,
      "Fore": 2944,
      "Fasc": 2945,
      "Fix": 2946,
      "Fried": 2947,
      "Ge": 2948,
      "Gu": 2949,
      "Gl": 2950,
      "GM": 2951,
      "Hel": 2952,
      "HFA": 2953,
      "Hague": 2954,
      "If": 2955,
      "IW": 2956,
      "Jos": 2957,
      "Jenn": 2958,
      "Lou": 2959,
      "Link": 2960,
      "Mon": 2961,
      "Mal": 2962,
      "Main": 2963,
      "Much": 2964,
      "Mex": 2965,
      "Milit": 2966,
      "Not": 2967,
      "Nest": 2968,
      "Never": 2969,
      "Of": 2970,
      "Own": 2971,
      "Origin": 2972,
      "PS": 2973,
      "Pre": 2974,
      "Pay": 2975,
      "Port": 2976,
      "Pacif": 2977,
      "Qu": 2978,
      "Ri": 2979,
      "Rac": 2980,
      "Ret": 2981,
      "Rec": 2982,
      "Rome": 2983,
      "Rand": 2984,
      "Rese": 2985,
      "Sm": 2986,
      "Sa": 2987,
      "Sc": 2988,
      "Sam": 2989,
      "Sub": 2990,
      "Such": 2991,
      "Small": 2992,
      "She": 2993,
      "Tw": 2994,
      "TR": 2995,
      "Tim": 2996,
      "Talk": 2997,
      "Typical": 2998,
      "Templ": 2999,
      "Taoism": 3000,
      "Utop": 3001,
      "User": 3002,
      "Viol": 3003,
      "Voting": 3004,
      "WT": 3005,
      "Wiki": 3006,
      "Wired": 3007,
      "York": 3008,
      "Zen": 3009,
      "av": 3010,
      "ath": 3011,
      "aim": 3012,
      "apart": 3013,
      "bi": 3014,
      "bn": 3015,
      "bul": 3016,
      "big": 3017,
      "bill": 3018,
      "back": 3019,
      "bro": 3020,
      "brough": 3021,
      "bank": 3022,
      "bleed": 3023,
      "ce": 3024,
      "cg": 3025,
      "cor": 3026,
      "cal": 3027,
      "cou": 3028,
      "cir": 3029,
      "camp": 3030,
      "came": 3031,
      "cost": 3032,
      "cure": 3033,
      "coun": 3034,
      "cudd": 3035,
      "ded": 3036,
      "doc": 3037,
      "dysfunction": 3038,
      "dynam": 3039,
      "ear": 3040,
      "emp": 3041,
      "each": 3042,
      "epid": 3043,
      "either": 3044,
      "fa": 3045,
      "far": 3046,
      "fou": 3047,
      "fil": 3048,
      "fig": 3049,
      "fight": 3050,
      "five": 3051,
      "fall": 3052,
      "faction": 3053,
      "file": 3054,
      "fair": 3055,
      "fund": 3056,
      "freed": 3057,
      "finger": 3058,
      "gr": 3059,
      "gut": 3060,
      "get": 3061,
      "gif": 3062,
      "gain": 3063,
      "god": 3064,
      "gard": 3065,
      "gall": 3066,
      "gather": 3067,
      "gaz": 3068,
      "geek": 3069,
      "hist": 3070,
      "hun": 3071,
      "hous": 3072,
      "hours": 3073,
      "jsp": 3074,
      "king": 3075,
      "land": 3076,
      "mat": 3077,
      "mom": 3078,
      "mot": 3079,
      "mir": 3080,
      "mul": 3081,
      "mill": 3082,
      "mass": 3083,
      "mainst": 3084,
      "mys": 3085,
      "male": 3086,
      "mental": 3087,
      "medical": 3088,
      "magaz": 3089,
      "nihil": 3090,
      "om": 3091,
      "our": 3092,
      "ple": 3093,
      "pay": 3094,
      "pap": 3095,
      "pass": 3096,
      "past": 3097,
      "pediat": 3098,
      "pervasive": 3099,
      "ri": 3100,
      "red": 3101,
      "rothbard": 3102,
      "rock": 3103,
      "sa": 3104,
      "sv": 3105,
      "say": 3106,
      "sus": 3107,
      "sour": 3108,
      "sans": 3109,
      "sev": 3110,
      "song": 3111,
      "sound": 3112,
      "serv": 3113,
      "size": 3114,
      "six": 3115,
      "short": 3116,
      "tre": 3117,
      "tac": 3118,
      "typ": 3119,
      "tax": 3120,
      "tau": 3121,
      "uk": 3122,
      "util": 3123,
      "val": 3124,
      "vot": 3125,
      "vac": 3126,
      "varian": 3127,
      "vote": 3128,
      "verb": 3129,
      "very": 3130,
      "version": 3131,
      "want": 3132,
      "wide": 3133,
      "wikipedia": 3134,
      "##oic": 3135,
      "##ove": 3136,
      "##oved": 3137,
      "##oeb": 3138,
      "##rs": 3139,
      "##rat": 3140,
      "##rist": 3141,
      "##roc": 3142,
      "##ruc": 3143,
      "##rated": 3144,
      "##rics": 3145,
      "##to": 3146,
      "##try": 3147,
      "##iated": 3148,
      "##ión": 3149,
      "##ne": 3150,
      "##ns": 3151,
      "##ners": 3152,
      "##ep": 3153,
      "##ew": 3154,
      "##ef": 3155,
      "##eous": 3156,
      "##eated": 3157,
      "##ether": 3158,
      "##me": 3159,
      "##men": 3160,
      "##mend": 3161,
      "##mark": 3162,
      "##mitivism": 3163,
      "##pic": 3164,
      "##pop": 3165,
      "##page": 3166,
      "##petitive": 3167,
      "##ati": 3168,
      "##aedia": 3169,
      "##aire": 3170,
      "##atives": 3171,
      "##gger": 3172,
      "##glop": 3173,
      "##ss": 3174,
      "##s8": 3175,
      "##sib": 3176,
      "##sue": 3177,
      "##sure": 3178,
      "##self": 3179,
      "##site": 3180,
      "##93": 3181,
      "##32": 3182,
      "##dle": 3183,
      "##69": 3184,
      "##637": 3185,
      "##03": 3186,
      "##0637": 3187,
      "##uary": 3188,
      "##uting": 3189,
      "##]&": 3190,
      "##13": 3191,
      "##10": 3192,
      "##14": 3193,
      "##kl": 3194,
      "##kman": 3195,
      "##lit": 3196,
      "##lers": 3197,
      "##lated": 3198,
      "##lass": 3199,
      "##lies": 3200,
      "##like": 3201,
      "##laim": 3202,
      "##line": 3203,
      "##lined": 3204,
      "##cel": 3205,
      "##cray": 3206,
      "##by": 3207,
      "##body": 3208,
      "##berg": 3209,
      "##books": 3210,
      "##hap": 3211,
      "##head": 3212,
      "##70": 3213,
      "##vant": 3214,
      "##voting": 3215,
      "##ID": 3216,
      "##ways": 3217,
      "##wide": 3218,
      "##worth": 3219,
      "##fo": 3220,
      "##fa": 3221,
      "##fec": 3222,
      "##face": 3223,
      "##fred": 3224,
      "##ze": 3225,
      "##zee": 3226,
      "##87": 3227,
      "##29": 3228,
      "##20": 3229,
      "##22": 3230,
      "##200": 3231,
      "##5px": 3232,
      "##40": 3233,
      "##Tr": 3234,
      "##T22": 3235,
      "##_d": 3236,
      "##_P": 3237,
      "##_ch": 3238,
      "##_id": 3239,
      "##_te": 3240,
      "##_of": 3241,
      "##_anarchism": 3242,
      "##_kl": 3243,
      "##ARC": 3244,
      "##OU": 3245,
      "##Joseph": 3246,
      "##ธิ": 3247,
      "##ising": 3248,
      "##istive": 3249,
      "##erun": 3250,
      "##eralism": 3251,
      "thus": 3252,
      "therap": 3253,
      "##ona": 3254,
      "##ones": 3255,
      "##onent": 3256,
      "##onym": 3257,
      "##aren": 3258,
      "##arily": 3259,
      "##tire": 3260,
      "##tiple": 3261,
      "then": 3262,
      "##ened": 3263,
      "##ention": 3264,
      "##ename": 3265,
      "##enberg": 3266,
      "##int": 3267,
      "##ina": 3268,
      "##inist": 3269,
      "##iness": 3270,
      "##inition": 3271,
      "##inology": 3272,
      "##integr": 3273,
      "##info": 3274,
      "##oral": 3275,
      "##ories": 3276,
      "##orious": 3277,
      "##estion": 3278,
      "##cher": 3279,
      "##change": 3280,
      "##china": 3281,
      "##alle": 3282,
      "##also": 3283,
      "##alitative": 3284,
      "##anity": 3285,
      "##ants": 3286,
      "##ances": 3287,
      "##annic": 3288,
      "##anches": 3289,
      "##aneous": 3290,
      "##ath": 3291,
      "##atest": 3292,
      "##itor": 3293,
      "##ital": 3294,
      "##itant": 3295,
      "##itler": 3296,
      "##oming": 3297,
      "##ott": 3298,
      "##uted": 3299,
      "##utter": 3300,
      "##leb": 3301,
      "##lely": 3302,
      "##lets": 3303,
      "##legitimate": 3304,
      "##enty": 3305,
      "##entally": 3306,
      "##entral": 3307,
      "##ingness": 3308,
      "##ingmen": 3309,
      "##icated": 3310,
      "##icpop": 3311,
      "read": 3312,
      "react": 3313,
      "reject": 3314,
      "relying": 3315,
      "##olt": 3316,
      "##olf": 3317,
      "##oles": 3318,
      "##olute": 3319,
      "##ollection": 3320,
      "##opag": 3321,
      "##opted": 3322,
      "##opoly": 3323,
      "##ston": 3324,
      "##struct": 3325,
      "##actice": 3326,
      "##ación": 3327,
      "##ilst": 3328,
      "##ilities": 3329,
      "quite": 3330,
      "question": 3331,
      "qualitative": 3332,
      "##elming": 3333,
      "##ticisms": 3334,
      "##aged": 3335,
      "##agree": 3336,
      "##agraph": 3337,
      "##ries": 3338,
      "##rich": 3339,
      "##rive": 3340,
      "Another": 3341,
      "Anabapt": 3342,
      "Anglop": 3343,
      "##ocal": 3344,
      "##ocris": 3345,
      "order": 3346,
      "issue": 3347,
      "##throw": 3348,
      "##osing": 3349,
      "beings": 3350,
      "##erse": 3351,
      "conce": 3352,
      "consequ": 3353,
      "comes": 3354,
      "comfort": 3355,
      "##terly": 3356,
      "##terod": 3357,
      "##ght": 3358,
      "prod": 3359,
      "prog": 3360,
      "prov": 3361,
      "price": 3362,
      "practice": 3363,
      "##urb": 3364,
      "##urately": 3365,
      "whate": 3366,
      "whose": 3367,
      "##ules": 3368,
      "##ulation": 3369,
      "forerun": 3370,
      "##ema": 3371,
      "##emy": 3372,
      "##ions": 3373,
      "##ests": 3374,
      "##ested": 3375,
      "##estones": 3376,
      "refuse": 3377,
      "##oward": 3378,
      "##ivable": 3379,
      "##iversity": 3380,
      "stay": 3381,
      "start": 3382,
      "stoic": 3383,
      "##ime": 3384,
      "##impan": 3385,
      "##ete": 3386,
      "##ective": 3387,
      "##ecial": 3388,
      "##ifically": 3389,
      "##used": 3390,
      "extre": 3391,
      "existing": 3392,
      "ones": 3393,
      "alone": 3394,
      "almost": 3395,
      "always": 3396,
      "##'',": 3397,
      "##istically": 3398,
      "]].''": 3399,
      "]].]]": 3400,
      "]]...": 3401,
      "sugg": 3402,
      "sudd": 3403,
      "##essive": 3404,
      "usually": 3405,
      "deb": 3406,
      "notable": 3407,
      "##abaj": 3408,
      "Inc": 3409,
      "cho": 3410,
      "chance": 3411,
      "chimpan": 3412,
      "##ode": 3413,
      "1900": 3414,
      "1943": 3415,
      "1968": 3416,
      "spend": 3417,
      "spont": 3418,
      "spread": 3419,
      "spirit": 3420,
      "##eeting": 3421,
      "contemporary": 3422,
      "acting": 3423,
      "actions": 3424,
      "frame": 3425,
      "techn": 3426,
      "##ums": 3427,
      "##udiated": 3428,
      "peas": 3429,
      "index": 3430,
      "indeed": 3431,
      "manner": 3432,
      "##iktionary": 3433,
      "##ucial": 3434,
      "arrive": 3435,
      "times": 3436,
      "##gure": 3437,
      "##oston": 3438,
      "##ouses": 3439,
      "Anarchisme": 3440,
      "Anarchismus": 3441,
      "=\"-": 3442,
      "abol": 3443,
      "abuse": 3444,
      "above": 3445,
      "##andstate": 3446,
      "incid": 3447,
      "enough": 3448,
      "ensure": 3449,
      "entire": 3450,
      "unf": 3451,
      "univ": 3452,
      "unity": 3453,
      "united": 3454,
      "unable": 3455,
      "unite": 3456,
      "##erns": 3457,
      "namespaces": 3458,
      "##iah": 3459,
      "##vellers": 3460,
      "express": 3461,
      "distin": 3462,
      "disease": 3463,
      "disagree": 3464,
      "someone": 3465,
      "interact": 3466,
      "interven": 3467,
      "186": 3468,
      "182": 3469,
      "185": 3470,
      "1848": 3471,
      "180637": 3472,
      "1840": 3473,
      "parliament": 3474,
      "##ouraged": 3475,
      "##illing": 3476,
      "childhood": 3477,
      ";/&": 3478,
      "add": 3479,
      "adher": 3480,
      "adopted": 3481,
      "##order": 3482,
      "##ologists": 3483,
      "##ologue": 3484,
      "next": 3485,
      "neocolonialism": 3486,
      "cann": 3487,
      "direction": 3488,
      "seealso": 3489,
      "##spoken": 3490,
      "##assination": 3491,
      "Stal": 3492,
      "##hone": 3493,
      "Speech": 3494,
      "train": 3495,
      "##velopmental": 3496,
      "2003": 3497,
      "2001": 3498,
      "2004": 3499,
      "##iproc": 3500,
      "##oblogs": 3501,
      "proper": 3502,
      "propri": 3503,
      "propaganda": 3504,
      "proportion": 3505,
      "forms": 3506,
      "formed": 3507,
      "develops": 3508,
      "applying": 3509,
      "applied": 3510,
      "appleton": 3511,
      "relating": 3512,
      "ideology": 3513,
      "ideological": 3514,
      "includes": 3515,
      "generat": 3516,
      "hear": 3517,
      "hearing": 3518,
      "heterod": 3519,
      "she": 3520,
      "shar": 3521,
      "sharing": 3522,
      "xmlns": 3523,
      "##onomy": 3524,
      "repressive": 3525,
      "repeat": 3526,
      "repeated": 3527,
      "repudiated": 3528,
      "minarch": 3529,
      "soon": 3530,
      "solely": 3531,
      "##ypocris": 3532,
      "##ortun": 3533,
      "strict": 3534,
      "resul": 3535,
      "##elled": 3536,
      "##ellig": 3537,
      "consc": 3538,
      "##ultural": 3539,
      "differing": 3540,
      "doing": 3541,
      "evolved": 3542,
      "opportun": 3543,
      "classro": 3544,
      "##ques": 3545,
      "##quate": 3546,
      "##antly": 3547,
      "##lishing": 3548,
      "assassination": 3549,
      "All": 3550,
      "Alger": 3551,
      "Alfred": 3552,
      "Concep": 3553,
      "Conference": 3554,
      "Who": 3555,
      "When": 3556,
      "persistent": 3557,
      "seen": 3558,
      "##ofeminism": 3559,
      "##shops": 3560,
      "liberty": 3561,
      "prec": 3562,
      "publishing": 3563,
      "##timate": 3564,
      "behavioral": 3565,
      "authoritarianism": 3566,
      "AfghanistanTr": 3567,
      "Amoeb": 3568,
      "Ams8": 3569,
      "mainly": 3570,
      "maintain": 3571,
      "platform": 3572,
      "upris": 3573,
      "]]''.": 3574,
      "##ifications": 3575,
      "access": 3576,
      "accomp": 3577,
      "according": 3578,
      "accurately": 3579,
      "##ilosophy": 3580,
      "Libert": 3581,
      "Liberation": 3582,
      "factory": 3583,
      "outspoken": 3584,
      "sitename": 3585,
      "organised": 3586,
      "organisation": 3587,
      "organizations": 3588,
      "economy": 3589,
      "Fred": 3590,
      "Ital": 3591,
      "Leftism": 3592,
      "Levellers": 3593,
      "notion": 3594,
      "overwh": 3595,
      "overthrow": 3596,
      "##ericourt": 3597,
      "therefore": 3598,
      "becoming": 3599,
      "communicating": 3600,
      "Communism": 3601,
      "Communist": 3602,
      "persons": 3603,
      "Society": 3604,
      "numbers": 3605,
      "postanarchism": 3606,
      "twenti": 3607,
      "taken": 3608,
      "takes": 3609,
      "##aware": 3610,
      "thoughts": 3611,
      "introduc": 3612,
      "recent": 3613,
      "recollection": 3614,
      "reciproc": 3615,
      "attribut": 3616,
      "advance": 3617,
      "1589894": 3618,
      "opposes": 3619,
      "opposing": 3620,
      "Marxism": 3621,
      "Marxists": 3622,
      "Neal": 3623,
      "People": 3624,
      "Unlike": 3625,
      "##oyment": 3626,
      "##T11": 3627,
      "]]),": 3628,
      "insurrection": 3629,
      "regressive": 3630,
      "regulate": 3631,
      "subtle": 3632,
      "revolutions": 3633,
      "partly": 3634,
      "Trad": 3635,
      "Trav": 3636,
      "True": 3637,
      "Transport": 3638,
      "Trabaj": 3639,
      "amoun": 3640,
      "science": 3641,
      "viewed": 3642,
      "wealth": 3643,
      "##rying": 3644,
      "modes": 3645,
      "definition": 3646,
      "teaching": 3647,
      "popularity": 3648,
      "environments": 3649,
      "obs": 3650,
      "simply": 3651,
      "##liest": 3652,
      "1920s": 3653,
      "activities": 3654,
      "manifesto": 3655,
      "Workingmen": 3656,
      "Bolshevism": 3657,
      "Read": 3658,
      "Repetitive": 3659,
      "family": 3660,
      "familiar": 3661,
      "liter": 3662,
      "position": 3663,
      "positive": 3664,
      "signs": 3665,
      "increased": 3666,
      "increases": 3667,
      "needs": 3668,
      "175px": 3669,
      "Propaganda": 3670,
      "care": 3671,
      "decreed": 3672,
      "decentral": 3673,
      "monologue": 3674,
      "points": 3675,
      "respect": 3676,
      "respond": 3677,
      "response": 3678,
      "##ggers": 3679,
      "##ervous": 3680,
      "converse": 3681,
      "1934": 3682,
      "specifically": 3683,
      "levels": 3684,
      "explo": 3685,
      "explos": 3686,
      "meanings": 3687,
      "structure": 3688,
      "everyday": 3689,
      "25T22": 3690,
      "division": 3691,
      "diversity": 3692,
      "diverse": 3693,
      "ethnic": 3694,
      "fix": 3695,
      "field": 3696,
      "figure": 3697,
      "larg": 3698,
      "membership": 3699,
      "pacifist": 3700,
      "setting": 3701,
      "anybody": 3702,
      "Anarkism": 3703,
      "condition": 3704,
      "whereby": 3705,
      "speaking": 3706,
      "army": 3707,
      "arms": 3708,
      "armed": 3709,
      "armoured": 3710,
      "1871": 3711,
      "seeking": 3712,
      "seems": 3713,
      "professor": 3714,
      "collective": 3715,
      "focuses": 3716,
      "controversy": 3717,
      "03T0": 3718,
      "03T11": 3719,
      "20th": 3720,
      "Emile": 3721,
      "Mutualism": 3722,
      "creation": 3723,
      "created": 3724,
      "currents": 3725,
      "currently": 3726,
      "founded": 3727,
      "commonly": 3728,
      "predic": 3729,
      "predict": 3730,
      "predomin": 3731,
      "statism": 3732,
      "stateless": 3733,
      "Institute": 3734,
      "1999": 3735,
      "leaders": 3736,
      "unions": 3737,
      "unusually": 3738,
      "##itivists": 3739,
      "primitivism": 3740,
      "primitivists": 3741,
      "criticizes": 3742,
      "Statistics": 3743,
      "delayed": 3744,
      "similarities": 3745,
      "Exp": 3746,
      "External": 3747,
      "Greene": 3748,
      "Latin": 3749,
      "awaren": 3750,
      "elim": 3751,
      "egoist": 3752,
      "flag": 3753,
      "flapp": 3754,
      "militant": 3755,
      "milestones": 3756,
      "turns": 3757,
      "writings": 3758,
      "##ruism": 3759,
      "thinkers": 3760,
      "instance": 3761,
      "intense": 3762,
      "intentions": 3763,
      "##omputing": 3764,
      "reality": 3765,
      "worldwide": 3766,
      "encouraged": 3767,
      "experience": 3768,
      "China": 3769,
      "translated": 3770,
      "infants": 3771,
      "appeared": 3772,
      "beliefs": 3773,
      "attached": 3774,
      "imaginary": 3775,
      "09T13": 3776,
      "166": 3777,
      "Plekhanov": 3778,
      "bring": 3779,
      "branches": 3780,
      "blackcray": 3781,
      "clear": 3782,
      "disturb": 3783,
      "destruc": 3784,
      "etc": 3785,
      "failure": 3786,
      "globalization": 3787,
      "himself": 3788,
      "holds": 3789,
      "hierarch": 3790,
      "ill": 3791,
      "illegitimate": 3792,
      "operation": 3793,
      "originated": 3794,
      "paid": 3795,
      "severe": 3796,
      "several": 3797,
      "smaller": 3798,
      "totse": 3799,
      "trigger": 3800,
      "triggers": 3801,
      "victorious": 3802,
      "##racy": 3803,
      "##mining": 3804,
      "##hips": 3805,
      "##ederación": 3806,
      "initiate": 3807,
      "receive": 3808,
      "received": 3809,
      "conclud": 3810,
      "concerns": 3811,
      "##undred": 3812,
      "symbol": 3813,
      "absence": 3814,
      "absolute": 3815,
      "##sequent": 3816,
      "directly": 3817,
      "relationships": 3818,
      "allows": 3819,
      "impossible": 3820,
      "Confederation": 3821,
      "Confederación": 3822,
      "educational": 3823,
      "attempt": 3824,
      "attempted": 3825,
      "affected": 3826,
      "Assistive": 3827,
      "Armed": 3828,
      "Armand": 3829,
      "occurs": 3830,
      "democrat": 3831,
      "democracy": 3832,
      "routine": 3833,
      "routines": 3834,
      "continues": 3835,
      "continuum": 3836,
      "exhibits": 3837,
      "8029": 3838,
      "961": 3839,
      "967": 3840,
      "?]]''": 3841,
      "Applied": 3842,
      "Baron": 3843,
      "Barcel": 3844,
      "Egoism": 3845,
      "Primitivism": 3846,
      "crucial": 3847,
      "estimate": 3848,
      "favor": 3849,
      "historical": 3850,
      "limit": 3851,
      "limited": 3852,
      "perform": 3853,
      "perhap": 3854,
      "racist": 3855,
      "ruling": 3856,
      "vegan": 3857,
      "veget": 3858,
      "vocal": 3859,
      "vocab": 3860,
      "writes": 3861,
      "wikiquote": 3862,
      "inspire": 3863,
      "inspired": 3864,
      "combination": 3865,
      "protest": 3866,
      "Anarchizmus": 3867,
      "actually": 3868,
      "entering": 3869,
      "1884": 3870,
      "neurological": 3871,
      "apparent": 3872,
      "apparently": 3873,
      "genetic": 3874,
      "strongly": 3875,
      "website": 3876,
      "Anarhism": 3877,
      "Anarhiz": 3878,
      "Organization": 3879,
      "Encyclopedia": 3880,
      "Encyclopaedia": 3881,
      "ICD9": 3882,
      "Makhno": 3883,
      "Makhnov": 3884,
      "equality": 3885,
      "explicitly": 3886,
      "Austrian": 3887,
      "Accessible": 3888,
      "Berkman": 3889,
      "Criticisms": 3890,
      "Ideas": 3891,
      "January": 3892,
      "Labour": 3893,
      "Philosophy": 3894,
      "Teach": 3895,
      "Voluntaryist": 3896,
      "Within": 3897,
      "cur_id": 3898,
      "causes": 3899,
      "engage": 3900,
      "embrac": 3901,
      "earthly": 3902,
      "elections": 3903,
      "final": 3904,
      "female": 3905,
      "federations": 3906,
      "middle": 3907,
      "necessarily": 3908,
      "pursu": 3909,
      "slight": 3910,
      "utterly": 3911,
      "voice": 3912,
      "xsi": 3913,
      "##ramming": 3914,
      "##lusions": 3915,
      "annihil": 3916,
      "inherent": 3917,
      "reasons": 3918,
      "issues": 3919,
      "connection": 3920,
      "proudhon": 3921,
      "style": 3922,
      "excessive": 3923,
      "alienation": 3924,
      "determining": 3925,
      "Intellectual": 3926,
      "church": 3927,
      "management": 3928,
      "uncon": 3929,
      "display": 3930,
      "internationals": 3931,
      "aggression": 3932,
      "Studies": 3933,
      "eventual": 3934,
      "nonviolent": 3935,
      "schedules": 3936,
      "accounted": 3937,
      "siteinfo": 3938,
      "Communication": 3939,
      "desirable": 3940,
      "coercion": 3941,
      "participated": 3942,
      "##ounced": 3943,
      "Johns": 3944,
      "patients": 3945,
      "justify": 3946,
      "psychiatrist": 3947,
      "Syndicalism": 3948,
      "achievement": 3949,
      "established": 3950,
      "periodical": 3951,
      "***": 3952,
      "299": 3953,
      "44Z": 3954,
      "7543": 3955,
      "957": 3956,
      "9_2": 3957,
      "Against": 3958,
      "ANARC": 3959,
      "Alexander": 3960,
      "Britannic": 3961,
      "Congress": 3962,
      "Déjacque": 3963,
      "Dutch": 3964,
      "Docu": 3965,
      "Foreign": 3966,
      "Fixing": 3967,
      "Globalization": 3968,
      "Help": 3969,
      "IWW": 3970,
      "Josiah": 3971,
      "Jenny": 3972,
      "Louis": 3973,
      "Links": 3974,
      "Malatest": 3975,
      "Nestor": 3976,
      "Nevertheless": 3977,
      "Origins": 3978,
      "Portal": 3979,
      "Pacifism": 3980,
      "Racist": 3981,
      "Rett": 3982,
      "Research": 3983,
      "Saul": 3984,
      "Subsequent": 3985,
      "Template": 3986,
      "Utopia": 3987,
      "Violence": 3988,
      "WTO": 3989,
      "Zeno": 3990,
      "aiming": 3991,
      "bullets": 3992,
      "broad": 3993,
      "brought": 3994,
      "celeb": 3995,
      "cgi": 3996,
      "calming": 3997,
      "coup": 3998,
      "circ": 3999,
      "camps": 4000,
      "cuddling": 4001,
      "dedicated": 4002,
      "doctr": 4003,
      "earliest": 4004,
      "epidemic": 4005,
      "founder": 4006,
      "figures": 4007,
      "freedom": 4008,
      "gutenberg": 4009,
      "godandstate": 4010,
      "gallery": 4011,
      "gatherer": 4012,
      "gaze": 4013,
      "hunter": 4014,
      "moment": 4015,
      "motor": 4016,
      "mirror": 4017,
      "multiple": 4018,
      "million": 4019,
      "mainstream": 4020,
      "paper": 4021,
      "said": 4022,
      "susp": 4023,
      "source": 4024,
      "seven": 4025,
      "sounds": 4026,
      "tremend": 4027,
      "value": 4028,
      "votes": 4029,
      "variant": 4030,
      "verbal": 4031,
      "##fects": 4032,
      "##_kl2": 4033,
      "##onymous": 4034,
      "##integrative": 4035,
      "##allel": 4036,
      "##opagan": 4037,
      "Anglophone": 4038,
      "conceivable": 4039,
      "product": 4040,
      "programming": 4041,
      "whatever": 4042,
      "forerunners": 4043,
      "suggested": 4044,
      "sudden": 4045,
      "chimpanzee": 4046,
      "spontaneous": 4047,
      "entirely": 4048,
      "distinct": 4049,
      "disagreement": 4050,
      "parliamentary": 4051,
      "generator": 4052,
      "heterodox": 4053,
      "repeatedly": 4054,
      "##ypocrisy": 4055,
      "classroom": 4056,
      "Amoeboid": 4057,
      "Ams80": 4058,
      "overwhelming": 4059,
      "twentieth": 4060,
      "introduced": 4061,
      "recollectionbooks": 4062,
      "Transportation": 4063,
      "Trabajo": 4064,
      "predominantly": 4065,
      "awareness": 4066,
      "flapping": 4067,
      "blackcrayon": 4068,
      "destruction": 4069,
      "triggering": 4070,
      "democrats": 4071,
      "Barcelona": 4072,
      "perhaps": 4073,
      "ANARCHI": 4074,
      "Britannica": 4075,
      "Malatesta": 4076,
      "tremendous": 4077,
      "!]]": 4078,
      "%&": 4079,
      "'[[": 4080,
      ")&": 4081,
      ")'',": 4082,
      "*/": 4083,
      ".]": 4084,
      ".)": 4085,
      "/]": 4086,
      "/&": 4087,
      "/?": 4088,
      "/\"": 4089,
      "00": 4090,
      "01": 4091,
      "068": 4092,
      "23": 4093,
      "26": 4094,
      "24": 4095,
      "20s": 4096,
      "30": 4097,
      "37": 4098,
      "38": 4099,
      "32": 4100,
      "35": 4101,
      "30s": 4102,
      "46": 4103,
      "400": 4104,
      "570": 4105,
      "60": 4106,
      "6alph": 4107,
      "614": 4108,
      "70s": 4109,
      "85": 4110,
      "832": 4111,
      "91": 4112,
      ";]": 4113,
      ";'": 4114,
      ";|": 4115,
      ";]]": 4116,
      ">/": 4117,
      ">--": 4118,
      "?]": 4119,
      "Aa": 4120,
      "Au": 4121,
      "Ax": 4122,
      "Ac": 4123,
      "Ab": 4124,
      "AS": 4125,
      "AA": 4126,
      "Aub": 4127,
      "Ash": 4128,
      "Acc": 4129,
      "Ayn": 4130,
      "Avant": 4131,
      "Be": 4132,
      "BY": 4133,
      "Bon": 4134,
      "Bal": 4135,
      "Ble": 4136,
      "Bour": 4137,
      "Both": 4138,
      "Bible": 4139,
      "Bank": 4140,
      "Bread": 4141,
      "Budd": 4142,
      "Bomb": 4143,
      "Bleed": 4144,
      "Bours": 4145,
      "Books": 4146,
      "Blogs": 4147,
      "Boston": 4148,
      "CJ": 4149,
      "Cal": 4150,
      "Can": 4151,
      "Cat": 4152,
      "Col": 4153,
      "Cop": 4154,
      "Citi": 4155,
      "Cyp": 4156,
      "Cogn": 4157,
      "Cerc": 4158,
      "Counc": 4159,
      "Class": 4160,
      "Cultural": 4161,
      "Den": 4162,
      "Des": 4163,
      "Dic": 4164,
      "Del": 4165,
      "Dem": 4166,
      "Distor": 4167,
      "Daily": 4168,
      "DHI": 4169,
      "Dynam": 4170,
      "En": 4171,
      "Ep": 4172,
      "Ed": 4173,
      "El": 4174,
      "Eb": 4175,
      "Ef": 4176,
      "Eas": 4177,
      "Ever": 4178,
      "Eight": 4179,
      "Even": 4180,
      "Epid": 4181,
      "Eug": 4182,
      "Ess": 4183,
      "Fi": 4184,
      "F8": 4185,
      "Fé": 4186,
      "Fam": 4187,
      "Fac": 4188,
      "Femin": 4189,
      "Form": 4190,
      "Fall": 4191,
      "Free": 4192,
      "Food": 4193,
      "Further": 4194,
      "Fabb": 4195,
      "Few": 4196,
      "Faire": 4197,
      "Gr": 4198,
      "G8": 4199,
      "Gé": 4200,
      "GN": 4201,
      "GO": 4202,
      "Gary": 4203,
      "Gill": 4204,
      "Group": 4205,
      "Giron": 4206,
      "Gra": 4207,
      "Geek": 4208,
      "Hu": 4209,
      "Hé": 4210,
      "Har": 4211,
      "Hop": 4212,
      "Hos": 4213,
      "Hay": 4214,
      "Hum": 4215,
      "Hust": 4216,
      "Hear": 4217,
      "Histor": 4218,
      "Hart": 4219,
      "Holy": 4220,
      "Hitler": 4221,
      "Hutter": 4222,
      "Howard": 4223,
      "Hericourt": 4224,
      "Hundred": 4225,
      "Hypocrisy": 4226,
      "Is": 4227,
      "II": 4228,
      "IS": 4229,
      "Ire": 4230,
      "Iain": 4231,
      "Imp": 4232,
      "Je": 4233,
      "Js": 4234,
      "JP": 4235,
      "Jas": 4236,
      "Jac": 4237,
      "Jul": 4238,
      "Jus": 4239,
      "Just": 4240,
      "Joy": 4241,
      "Kr": 4242,
      "Karl": 4243,
      "Komb": 4244,
      "Killing": 4245,
      "Lu": 4246,
      "Lin": 4247,
      "Lor": 4248,
      "Lom": 4249,
      "Ling": 4250,
      "Lac": 4251,
      "Low": 4252,
      "Let": 4253,
      "Langu": 4254,
      "Lys": 4255,
      "Law": 4256,
      "Later": 4257,
      "Ludd": 4258,
      "Local": 4259,
      "Me": 4260,
      "Mb": 4261,
      "MI": 4262,
      "MR": 4263,
      "Mas": 4264,
      "Mag": 4265,
      "Mod": 4266,
      "Mary": 4267,
      "Mill": 4268,
      "Members": 4269,
      "Major": 4270,
      "Meth": 4271,
      "Miss": 4272,
      "Medical": 4273,
      "Magaz": 4274,
      "Minist": 4275,
      "Meeting": 4276,
      "NY": 4277,
      "NE": 4278,
      "NO": 4279,
      "Non": 4280,
      "Nar": 4281,
      "Nat": 4282,
      "Nic": 4283,
      "Nou": 4284,
      "Nac": 4285,
      "Name": 4286,
      "Native": 4287,
      "Naz": 4288,
      "None": 4289,
      "Nih": 4290,
      "North": 4291,
      "Nervous": 4292,
      "Ox": 4293,
      "Ow": 4294,
      "Opp": 4295,
      "Occ": 4296,
      "Ohn": 4297,
      "Pu": 4298,
      "PD": 4299,
      "Pan": 4300,
      "Pat": 4301,
      "Pou": 4302,
      "Pol": 4303,
      "Pers": 4304,
      "Pap": 4305,
      "Press": 4306,
      "Pub": 4307,
      "Pear": 4308,
      "Poin": 4309,
      "Past": 4310,
      "Psych": 4311,
      "Poly": 4312,
      "Produc": 4313,
      "Pediat": 4314,
      "Pervasive": 4315,
      "POU": 4316,
      "Ro": 4317,
      "Ric": 4318,
      "Rel": 4319,
      "Roc": 4320,
      "Ros": 4321,
      "Rain": 4322,
      "Rum": 4323,
      "Rud": 4324,
      "Rous": 4325,
      "Se": 4326,
      "SI": 4327,
      "Sw": 4328,
      "Ser": 4329,
      "San": 4330,
      "Sing": 4331,
      "Sir": 4332,
      "Sec": 4333,
      "Sever": 4334,
      "Sect": 4335,
      "Self": 4336,
      "Sov": 4337,
      "Still": 4338,
      "Seat": 4339,
      "Section": 4340,
      "Short": 4341,
      "SOU": 4342,
      "Ta": 4343,
      "TH": 4344,
      "Tor": 4345,
      "Tac": 4346,
      "Tod": 4347,
      "Term": 4348,
      "Typ": 4349,
      "Tens": 4350,
      "Tex": 4351,
      "Tox": 4352,
      "Toward": 4353,
      "Uk": 4354,
      "Use": 4355,
      "Utopian": 4356,
      "Urs": 4357,
      "VI": 4358,
      "Vangu": 4359,
      "Version": 4360,
      "Vanity": 4361,
      "Volt": 4362,
      "Would": 4363,
      "Wend": 4364,
      "Woll": 4365,
      "Wood": 4366,
      "Writing": 4367,
      "Women": 4368,
      "Wolf": 4369,
      "Wiktionary": 4370,
      "Xu": 4371,
      "XI": 4372,
      "XM": 4373,
      "Zer": 4374,
      "Zinn": 4375,
      "[,": 4376,
      "].": 4377,
      "ai": 4378,
      "au": 4379,
      "aan": 4380,
      "aol": 4381,
      "ast": 4382,
      "aud": 4383,
      "apx": 4384,
      "aries": 4385,
      "bo": 4386,
      "bg": 4387,
      "bs": 4388,
      "bu": 4389,
      "bl": 4390,
      "bc": 4391,
      "ber": 4392,
      "bon": 4393,
      "bit": 4394,
      "bil": 4395,
      "bri": 4396,
      "bay": 4397,
      "bus": 4398,
      "bab": 4399,
      "bad": 4400,
      "ball": 4401,
      "bure": 4402,
      "bakunin": 4403,
      "brit": 4404,
      "bomb": 4405,
      "babb": 4406,
      "bath": 4407,
      "border": 4408,
      "cy": 4409,
      "cs": 4410,
      "cu": 4411,
      "cf": 4412,
      "cas": 4413,
      "cop": 4414,
      "city": 4415,
      "cris": 4416,
      "cope": 4417,
      "cite": 4418,
      "category": 4419,
      "crow": 4420,
      "cease": 4421,
      "cock": 4422,
      "crying": 4423,
      "da": 4424,
      "du": 4425,
      "dh": 4426,
      "dv": 4427,
      "df": 4428,
      "der": 4429,
      "don": 4430,
      "den": 4431,
      "dan": 4432,
      "dism": 4433,
      "dam": 4434,
      "dri": 4435,
      "dog": 4436,
      "dig": 4437,
      "dress": 4438,
      "dans": 4439,
      "dates": 4440,
      "distance": 4441,
      "david": 4442,
      "dram": 4443,
      "down": 4444,
      "eo": 4445,
      "eg": 4446,
      "eu": 4447,
      "eti": 4448,
      "ech": 4449,
      "ele": 4450,
      "eur": 4451,
      "elec": 4452,
      "earn": 4453,
      "elect": 4454,
      "era": 4455,
      "ety": 4456,
      "earl": 4457,
      "ers": 4458,
      "equate": 4459,
      "fer": 4460,
      "fed": 4461,
      "fic": 4462,
      "fre": 4463,
      "fol": 4464,
      "fel": 4465,
      "fun": 4466,
      "fet": 4467,
      "figh": 4468,
      "four": 4469,
      "font": 4470,
      "find": 4471,
      "ge": 4472,
      "gm": 4473,
      "gu": 4474,
      "gh": 4475,
      "gī": 4476,
      "gor": 4477,
      "gre": 4478,
      "gun": 4479,
      "germ": 4480,
      "gend": 4481,
      "gold": 4482,
      "goldman": 4483,
      "gives": 4484,
      "graph": 4485,
      "ground": 4486,
      "giving": 4487,
      "hu": 4488,
      "hin": 4489,
      "hop": 4490,
      "hur": 4491,
      "hid": 4492,
      "home": 4493,
      "hard": 4494,
      "hip": 4495,
      "happ": 4496,
      "hart": 4497,
      "hug": 4498,
      "hosts": 4499,
      "hitler": 4500,
      "hericourt": 4501,
      "hundred": 4502,
      "hypocrisy": 4503,
      "ig": 4504,
      "iww": 4505,
      "image": 4506,
      "jo": 4507,
      "ja": 4508,
      "jl": 4509,
      "jly": 4510,
      "joy": 4511,
      "joseph": 4512,
      "ko": 4513,
      "kee": 4514,
      "kanner": 4515,
      "lu": 4516,
      "lin": 4517,
      "lou": 4518,
      "las": 4519,
      "lth": 4520,
      "ligh": 4521,
      "light": 4522,
      "last": 4523,
      "line": 4524,
      "lower": 4525,
      "lang": 4526,
      "linger": 4527,
      "loved": 4528,
      "local": 4529,
      "losing": 4530,
      "ms": 4531,
      "mâ": 4532,
      "mer": 4533,
      "mut": 4534,
      "mac": 4535,
      "mel": 4536,
      "met": 4537,
      "mess": 4538,
      "mere": 4539,
      "mild": 4540,
      "magn": 4541,
      "mother": 4542,
      "mater": 4543,
      "mute": 4544,
      "merg": 4545,
      "mention": 4546,
      "moral": 4547,
      "mentally": 4548,
      "mime": 4549,
      "meeting": 4550,
      "nn": 4551,
      "ns": 4552,
      "nl": 4553,
      "nor": 4554,
      "nan": 4555,
      "nation": 4556,
      "nuc": 4557,
      "national": 4558,
      "nice": 4559,
      "north": 4560,
      "node": 4561,
      "nervous": 4562,
      "overs": 4563,
      "odd": 4564,
      "po": 4565,
      "pt": 4566,
      "pd": 4567,
      "pj": 4568,
      "pan": 4569,
      "pot": 4570,
      "put": 4571,
      "pol": 4572,
      "png": 4573,
      "pse": 4574,
      "port": 4575,
      "pair": 4576,
      "panarch": 4577,
      "pages": 4578,
      "pinn": 4579,
      "portion": 4580,
      "ra": 4581,
      "rv": 4582,
      "ren": 4583,
      "rit": 4584,
      "rom": 4585,
      "ram": 4586,
      "riv": 4587,
      "rif": 4588,
      "rose": 4589,
      "rout": 4590,
      "rob": 4591,
      "rub": 4592,
      "rural": 4593,
      "rank": 4594,
      "range": 4595,
      "rising": 4596,
      "roles": 4597,
      "sr": 4598,
      "si": 4599,
      "sm": 4600,
      "sat": 4601,
      "sel": 4602,
      "soc": 4603,
      "sun": 4604,
      "sur": 4605,
      "samp": 4606,
      "sig": 4607,
      "semin": 4608,
      "sect": 4609,
      "squ": 4610,
      "sens": 4611,
      "sally": 4612,
      "sights": 4613,
      "stirner": 4614,
      "sought": 4615,
      "solidarity": 4616,
      "tī": 4617,
      "ten": 4618,
      "tas": 4619,
      "tree": 4620,
      "tell": 4621,
      "table": 4622,
      "tone": 4623,
      "temporary": 4624,
      "tao": 4625,
      "taoism": 4626,
      "tests": 4627,
      "ul": 4628,
      "und": 4629,
      "ung": 4630,
      "uph": 4631,
      "vl": 4632,
      "vit": 4633,
      "vir": 4634,
      "vul": 4635,
      "vain": 4636,
      "voy": 4637,
      "vaz": 4638,
      "vague": 4639,
      "wa": 4640,
      "w3": 4641,
      "went": 4642,
      "wild": 4643,
      "wigg": 4644,
      "women": 4645,
      "wants": 4646,
      "wiktionary": 4647,
      "you": 4648,
      "yet": 4649,
      "your": 4650,
      "zm": 4651,
      "zpub": 4652,
      "zete": 4653,
      "|'": 4654,
      "|*": 4655,
      "|''": 4656,
      "élit": 4657,
      "être": 4658,
      "אנ": 4659,
      "دو": 4660,
      "لا": 4661,
      "ลั": 4662,
      "–)": 4663,
      "アナ": 4664,
      "无政": 4665,
      "아나": 4666,
      "##oS": 4667,
      "##oon": 4668,
      "##oti": 4669,
      "##och": 4670,
      "##oit": 4671,
      "##oil": 4672,
      "##oots": 4673,
      "##oops": 4674,
      "##rn": 4675,
      "##rom": 4676,
      "##ring": 4677,
      "##rain": 4678,
      "##resp": 4679,
      "##ract": 4680,
      "##raw": 4681,
      "##rors": 4682,
      "##rale": 4683,
      "##rock": 4684,
      "##tu": 4685,
      "##té": 4686,
      "##tist": 4687,
      "##ters": 4688,
      "##tate": 4689,
      "##tog": 4690,
      "##tail": 4691,
      "##tely": 4692,
      "##tari": 4693,
      "##tra": 4694,
      "##toni": 4695,
      "##t19": 4696,
      "##town": 4697,
      "##tography": 4698,
      "##tries": 4699,
      "##truism": 4700,
      "##iA": 4701,
      "##iment": 4702,
      "##ios": 4703,
      "##iap": 4704,
      "##igu": 4705,
      "##iagnos": 4706,
      "##iology": 4707,
      "##ienti": 4708,
      "##irect": 4709,
      "##iences": 4710,
      "##ique": 4711,
      "##iismo": 4712,
      "##iological": 4713,
      "##icher": 4714,
      "##iologists": 4715,
      "##iques": 4716,
      "##no": 4717,
      "##na": 4718,
      "##né": 4719,
      "##nch": 4720,
      "##noc": 4721,
      "##net": 4722,
      "##nore": 4723,
      "##nia": 4724,
      "##nip": 4725,
      "##nings": 4726,
      "##nected": 4727,
      "##necess": 4728,
      "##ntry": 4729,
      "##eg": 4730,
      "##eal": 4731,
      "##eent": 4732,
      "##eople": 4733,
      "##ext": 4734,
      "##eph": 4735,
      "##echnology": 4736,
      "##eography": 4737,
      "##equate": 4738,
      "##mm": 4739,
      "##mod": 4740,
      "##mology": 4741,
      "##marx": 4742,
      "##mely": 4743,
      "##mise": 4744,
      "##mine": 4745,
      "##movement": 4746,
      "##meth": 4747,
      "##m200": 4748,
      "##per": 4749,
      "##por": 4750,
      "##ption": 4751,
      "##put": 4752,
      "##pos": 4753,
      "##pted": 4754,
      "##pro": 4755,
      "##pics": 4756,
      "##poli": 4757,
      "##peti": 4758,
      "##pute": 4759,
      "##punk": 4760,
      "##posts": 4761,
      "##pressed": 4762,
      "##pital": 4763,
      "##pective": 4764,
      "##ah": 4765,
      "##aac": 4766,
      "##atic": 4767,
      "##aud": 4768,
      "##auc": 4769,
      "##aev": 4770,
      "##atically": 4771,
      "##y_": 4772,
      "##you": 4773,
      "##ync": 4774,
      "##yond": 4775,
      "##gs": 4776,
      "##gen": 4777,
      "##group": 4778,
      "##ground": 4779,
      "##gatively": 4780,
      "##sor": 4781,
      "##sil": 4782,
      "##sid": 4783,
      "##sess": 4784,
      "##sity": 4785,
      "##sell": 4786,
      "##scrib": 4787,
      "##sjam": 4788,
      "##ssu": 4789,
      "##schina": 4790,
      "##96": 4791,
      "##95": 4792,
      "##94": 4793,
      "##33": 4794,
      "##31": 4795,
      "##38": 4796,
      "##dé": 4797,
      "##den": 4798,
      "##din": 4799,
      "##dly": 4800,
      "##dity": 4801,
      "##dated": 4802,
      "##deb": 4803,
      "##darity": 4804,
      "##draw": 4805,
      "##diagnos": 4806,
      "##689": 4807,
      "##60s": 4808,
      "##615": 4809,
      "##019": 4810,
      "##020": 4811,
      "##ux": 4812,
      "##ule": 4813,
      "##uation": 4814,
      "##uce": 4815,
      "##uum": 4816,
      "##uations": 4817,
      "##uell": 4818,
      "##uine": 4819,
      "##uiting": 4820,
      "##uinn": 4821,
      "##uistics": 4822,
      "##uze": 4823,
      "##11": 4824,
      "##18": 4825,
      "##1pub": 4826,
      "##1net": 4827,
      "##1689": 4828,
      "##ks": 4829,
      "##kent": 4830,
      "##king": 4831,
      "##know": 4832,
      "##lar": 4833,
      "##lin": 4834,
      "##liv": 4835,
      "##lap": 4836,
      "##lik": 4837,
      "##land": 4838,
      "##lant": 4839,
      "##law": 4840,
      "##lroy": 4841,
      "##loyment": 4842,
      "##loch": 4843,
      "##xist": 4844,
      "##xts": 4845,
      "##co": 4846,
      "##cy": 4847,
      "##cle": 4848,
      "##cent": 4849,
      "##cas": 4850,
      "##cri": 4851,
      "##cce": 4852,
      "##cest": 4853,
      "##cap": 4854,
      "##cence": 4855,
      "##ctive": 4856,
      "##cern": 4857,
      "##cies": 4858,
      "##cination": 4859,
      "##conomy": 4860,
      "##computing": 4861,
      "##ber": 4862,
      "##bor": 4863,
      "##bal": 4864,
      "##bit": 4865,
      "##bur": 4866,
      "##bility": 4867,
      "##boston": 4868,
      "##bigu": 4869,
      "##Dis": 4870,
      "##hs": 4871,
      "##hen": 4872,
      "##hed": 4873,
      "##hist": 4874,
      "##has": 4875,
      "##hag": 4876,
      "##hous": 4877,
      "##haw": 4878,
      "##hind": 4879,
      "##hingness": 4880,
      "##77": 4881,
      "##745": 4882,
      "##770": 4883,
      "##720": 4884,
      "##7615": 4885,
      "##vin": 4886,
      "##val": 4887,
      "##vot": 4888,
      "##vation": 4889,
      "##vate": 4890,
      "##vious": 4891,
      "##view": 4892,
      "##vinc": 4893,
      "##vices": 4894,
      "##Inc": 4895,
      "##Issu": 4896,
      "##ws": 4897,
      "##way": 4898,
      "##well": 4899,
      "##wood": 4900,
      "##ware": 4901,
      "##work": 4902,
      "##woS": 4903,
      "##wrock": 4904,
      "##for": 4905,
      "##fac": 4906,
      "##fers": 4907,
      "##fies": 4908,
      "##fect": 4909,
      "##fsh": 4910,
      "##faction": 4911,
      "##fied": 4912,
      "##fessed": 4913,
      "##filling": 4914,
      "##zo": 4915,
      "##zan": 4916,
      "##zick": 4917,
      "##213": 4918,
      "##59": 4919,
      "##52": 4920,
      "##41": 4921,
      "##jp": 4922,
      "##jó": 4923,
      "##jor": 4924,
      "##jud": 4925,
      "##just": 4926,
      "##jury": 4927,
      "##jug": 4928,
      "##joyment": 4929,
      "##ST": 4930,
      "##Sch": 4931,
      "##Sam": 4932,
      "##.&": 4933,
      "##CW": 4934,
      "##Com": 4935,
      "##Cul": 4936,
      "##Computing": 4937,
      "##Most": 4938,
      "##Milit": 4939,
      "##TE": 4940,
      "##Tucker": 4941,
      "##Tax": 4942,
      "##Tolstoy": 4943,
      "##Truism": 4944,
      "##Technology": 4945,
      "##TwoS": 4946,
      "##Ethics": 4947,
      "##Elroy": 4948,
      "##Economy": 4949,
      "##God": 4950,
      "##Geography": 4951,
      "##ée": 4952,
      "##éri": 4953,
      "##été": 4954,
      "##édé": 4955,
      "##óng": 4956,
      "##),": 4957,
      "##_3": 4958,
      "##_or": 4959,
      "##_re": 4960,
      "##_pre": 4961,
      "##_to": 4962,
      "##_voting": 4963,
      "##_Joseph": 4964,
      "##_tu": 4965,
      "##_marx": 4966,
      "##_y_": 4967,
      "##_computing": 4968,
      "##_boston": 4969,
      "##_7615": 4970,
      "##_vot": 4971,
      "##_for": 4972,
      "##AT": 4973,
      "##Aut": 4974,
      "##RS": 4975,
      "##Ho": 4976,
      "##History": 4977,
      "##Utopian": 4978,
      "##People": 4979,
      "##Quinn": 4980,
      "##LD": 4981,
      "##Loc": 4982,
      "##LSch": 4983,
      "##키즘": 4984,
      "##Kay": 4985,
      "##Kropotkin": 4986,
      "##ам": 4987,
      "##ъм": 4988,
      "##ائ": 4989,
      "##سل": 4990,
      "##لت": 4991,
      "##طو": 4992,
      "##ية": 4993,
      "##‌ز": 4994,
      "##دائ": 4995,
      "##ทธิ": 4996,
      "##อน": 4997,
      "##าธิ": 4998,
      "##ปไ": 4999,
      "##ตย": 5000,
      "##şizm": 5001,
      "##キズ": 5002,
      "##ás": 5003,
      "##רכ": 5004,
      "##יז": 5005,
      "##Bold": 5006,
      "##府主": 5007,
      "##isst": 5008,
      "##isse": 5009,
      "##isations": 5010,
      "##isational": 5011,
      "##isons": 5012,
      "##iscent": 5013,
      "##isfaction": 5014,
      "##eron": 5015,
      "##erim": 5016,
      "##erial": 5017,
      "##erative": 5018,
      "##erates": 5019,
      "thri": 5020,
      "thir": 5021,
      "three": 5022,
      "thick": 5023,
      "thóng": 5024,
      "##oned": 5025,
      "##oning": 5026,
      "##onia": 5027,
      "##onding": 5028,
      "##onale": 5029,
      "##onets": 5030,
      "##artic": 5031,
      "##arised": 5032,
      "##arhaw": 5033,
      "##ar_y_": 5034,
      "##tiations": 5035,
      "##tite": 5036,
      "##tially": 5037,
      "anom": 5038,
      "anth": 5039,
      "anger": 5040,
      "ancient": 5041,
      "anonymous": 5042,
      "ancest": 5043,
      "theft": 5044,
      "thelaw": 5045,
      "##enal": 5046,
      "##enage": 5047,
      "##enous": 5048,
      "##entive": 5049,
      "##enomen": 5050,
      "##enpro": 5051,
      "##enhag": 5052,
      "##enzo": 5053,
      "##inal": 5054,
      "##inle": 5055,
      "##inter": 5056,
      "##inists": 5057,
      "##inion": 5058,
      "##inate": 5059,
      "##inity": 5060,
      "##intp": 5061,
      "##intern": 5062,
      "##inance": 5063,
      "##inese": 5064,
      "]]-": 5065,
      "##oron": 5066,
      "##ores": 5067,
      "##orists": 5068,
      "##orate": 5069,
      "##orting": 5070,
      "##oralism": 5071,
      "##orph": 5072,
      "##orge": 5073,
      "##orification": 5074,
      "##ornia": 5075,
      "##orpor": 5076,
      "##esoci": 5077,
      "##estically": 5078,
      "##es745": 5079,
      "##chan": 5080,
      "##ched": 5081,
      "##chard": 5082,
      "##chair": 5083,
      "##chaev": 5084,
      "##als": 5085,
      "##alia": 5086,
      "##alition": 5087,
      "##alitarian": 5088,
      "##alised": 5089,
      "##altimes": 5090,
      "##alistically": 5091,
      "##aluation": 5092,
      "##alonia": 5093,
      "##anti": 5094,
      "##anle": 5095,
      "##anation": 5096,
      "##aners": 5097,
      "##anion": 5098,
      "##anied": 5099,
      "##anno": 5100,
      "##anco": 5101,
      "##eding": 5102,
      "##ediance": 5103,
      "official": 5104,
      "offsh": 5105,
      "inev": 5106,
      "inapp": 5107,
      "input": 5108,
      "ings": 5109,
      "injury": 5110,
      "##ator": 5111,
      "##atter": 5112,
      "##atory": 5113,
      "##atures": 5114,
      "##attari": 5115,
      "##at_pre": 5116,
      "##ité": 5117,
      "##itly": 5118,
      "##itud": 5119,
      "##itory": 5120,
      "##itable": 5121,
      "##ismu": 5122,
      "##ismic": 5123,
      "##ismov": 5124,
      "##istem": 5125,
      "##istency": 5126,
      "##ommon": 5127,
      "##ommod": 5128,
      "##omorph": 5129,
      "##omesoci": 5130,
      "##otence": 5131,
      "##otte": 5132,
      "##otypical": 5133,
      "toy": 5134,
      "toes": 5135,
      "took": 5136,
      "toys": 5137,
      "toge": 5138,
      "touch": 5139,
      "todd": 5140,
      "topic": 5141,
      "topics": 5142,
      "##lear": 5143,
      "##letic": 5144,
      "##left": 5145,
      "##leys": 5146,
      "##leftism": 5147,
      "##levant": 5148,
      "##leuze": 5149,
      "##ente": 5150,
      "##entri": 5151,
      "##entric": 5152,
      "##ican": 5153,
      "##ications": 5154,
      "##icapp": 5155,
      "##icron": 5156,
      "##icators": 5157,
      "anarchoblogs": 5158,
      "reem": 5159,
      "remin": 5160,
      "retain": 5161,
      "relevant": 5162,
      "##rees": 5163,
      "##reac": 5164,
      "##retic": 5165,
      "##rease": 5166,
      "##reets": 5167,
      "##repan": 5168,
      "##reicher": 5169,
      "##rective": 5170,
      "##realistically": 5171,
      "##veau": 5172,
      "##asp": 5173,
      "##asing": 5174,
      "##asion": 5175,
      "##asian": 5176,
      "##aste": 5177,
      "##asional": 5178,
      "##olph": 5179,
      "##olves": 5180,
      "##olency": 5181,
      "##olás": 5182,
      "##olalia": 5183,
      "##operation": 5184,
      "##sts": 5185,
      "##stated": 5186,
      "##stention": 5187,
      "##stances": 5188,
      "##streicher": 5189,
      "##ams": 5190,
      "##amed": 5191,
      "##amental": 5192,
      "##amiliar": 5193,
      "##ames745": 5194,
      "##acy": 5195,
      "##acle": 5196,
      "##acic": 5197,
      "##acus": 5198,
      "##acres": 5199,
      "##acott": 5200,
      "##iles": 5201,
      "##ilies": 5202,
      "quick": 5203,
      "autos": 5204,
      "##elo": 5205,
      "##elle": 5206,
      "##eling": 5207,
      "##eline": 5208,
      "##elBold": 5209,
      "asp": 5210,
      "##ticians": 5211,
      "##riev": 5212,
      "##rities": 5213,
      "##right": 5214,
      "Antoni": 5215,
      "'']": 5216,
      "''[": 5217,
      "''(": 5218,
      "'':": 5219,
      "'']]": 5220,
      "'']&": 5221,
      "''),": 5222,
      "##ocentric": 5223,
      "##thouses": 5224,
      "##osely": 5225,
      "##os_d": 5226,
      "began": 5227,
      "beyond": 5228,
      "behind": 5229,
      "##ersal": 5230,
      "conver": 5231,
      "construct": 5232,
      "coming": 5233,
      "idios": 5234,
      "##tered": 5235,
      "##tering": 5236,
      "##terpar": 5237,
      "##uns": 5238,
      "##unct": 5239,
      "##unismo": 5240,
      "withdraw": 5241,
      "proved": 5242,
      "prisons": 5243,
      "Thus": 5244,
      "Those": 5245,
      "Though": 5246,
      "Therap": 5247,
      "]],&": 5248,
      "##urity": 5249,
      "##uralism": 5250,
      "##ursor": 5251,
      "##urdity": 5252,
      "##cemb": 5253,
      "##iden": 5254,
      "##ided": 5255,
      "##idst": 5256,
      "##iders": 5257,
      "##identally": 5258,
      "##idrich": 5259,
      "Anarchoblogs": 5260,
      "whether": 5261,
      "whilst": 5262,
      "whm200": 5263,
      "##iry": 5264,
      "##ula": 5265,
      "##uler": 5266,
      "##ulary": 5267,
      "##ulated": 5268,
      "##ulating": 5269,
      "##ulsive": 5270,
      "##ulaware": 5271,
      "forum": 5272,
      "forward": 5273,
      "foreign": 5274,
      "##ems": 5275,
      "##emies": 5276,
      "##emID": 5277,
      "##emiologists": 5278,
      "##ocious": 5279,
      "##ocities": 5280,
      "refers": 5281,
      "reform": 5282,
      "reflec": 5283,
      "refuted": 5284,
      "refused": 5285,
      "##owed": 5286,
      "stop": 5287,
      "stab": 5288,
      "story": 5289,
      "stated": 5290,
      "stand": 5291,
      "stages": 5292,
      "step": 5293,
      "stew": 5294,
      "stances": 5295,
      "##imax": 5296,
      "##imized": 5297,
      "##etor": 5298,
      "##etal": 5299,
      "##etown": 5300,
      "##ecting": 5301,
      "##ecra": 5302,
      "##ecuted": 5303,
      "##eciden": 5304,
      "##iffer": 5305,
      "##ifies": 5306,
      "##ified": 5307,
      "##ifornia": 5308,
      "##usation": 5309,
      "##usion": 5310,
      "##ushed": 5311,
      "##uals": 5312,
      "##uality": 5313,
      "exists": 5314,
      "exile": 5315,
      "extr": 5316,
      "external": 5317,
      "exempl": 5318,
      "exchange": 5319,
      "extra": 5320,
      "exiles": 5321,
      "online": 5322,
      "Their": 5323,
      "Theorists": 5324,
      "alph": 5325,
      "alread": 5326,
      "altog": 5327,
      "motion": 5328,
      "move": 5329,
      "motions": 5330,
      "moves": 5331,
      "autismnoc": 5332,
      "]].[": 5333,
      "]].)": 5334,
      "sure": 5335,
      "summ": 5336,
      "super": 5337,
      "succe": 5338,
      "##essment": 5339,
      "usual": 5340,
      "usher": 5341,
      "##vered": 5342,
      "##verbal": 5343,
      "deal": 5344,
      "dejacque": 5345,
      "depart": 5346,
      "deep": 5347,
      "depic": 5348,
      "depressed": 5349,
      "devices": 5350,
      "notably": 5351,
      "nothingness": 5352,
      "##abilities": 5353,
      "##aborate": 5354,
      "sociology": 5355,
      "socities": 5356,
      "societal": 5357,
      "##iant": 5358,
      "##iances": 5359,
      "##mpenpro": 5360,
      "chú": 5361,
      "chat": 5362,
      "chie": 5363,
      "change": 5364,
      "cheek": 5365,
      "ch03": 5366,
      "chinese": 5367,
      "##odly": 5368,
      "##odology": 5369,
      "##odiversity": 5370,
      "##munications": 5371,
      "anarchiste": 5372,
      "##tp3": 5373,
      "##apon": 5374,
      "##apter": 5375,
      "##aphor": 5376,
      "##apjp": 5377,
      "##aceful": 5378,
      "1945": 5379,
      "1969": 5380,
      "1960s": 5381,
      "1959": 5382,
      "spain": 5383,
      "sp00": 5384,
      "spunk": 5385,
      "split": 5386,
      "spoil": 5387,
      "##ighbor": 5388,
      "##ada": 5389,
      "##ades": 5390,
      "##ademic": 5391,
      "##ademy": 5392,
      "content": 5393,
      "contact": 5394,
      "contents": 5395,
      "contex": 5396,
      "context": 5397,
      "##akened": 5398,
      "leav": 5399,
      "leaving": 5400,
      "legiti": 5401,
      "legitimate": 5402,
      "lewrock": 5403,
      "sync": 5404,
      "academic": 5405,
      "frust": 5406,
      "teenage": 5407,
      "teams": 5408,
      "##umstances": 5409,
      "##umulated": 5410,
      "##udo": 5411,
      "##uda": 5412,
      "##udes": 5413,
      "peer": 5414,
      "peers": 5415,
      "pejor": 5416,
      "petite": 5417,
      "indig": 5418,
      "indirect": 5419,
      "indiffer": 5420,
      "attit": 5421,
      "mandated": 5422,
      "##ogyn": 5423,
      "##ibility": 5424,
      "##tend": 5425,
      "##espread": 5426,
      "revolt": 5427,
      "##iker": 5428,
      "commune": 5429,
      "communes": 5430,
      "communal": 5431,
      "communistic": 5432,
      "communitarian": 5433,
      "##ucasian": 5434,
      "arise": 5435,
      "archives": 5436,
      "artist": 5437,
      "arbit": 5438,
      "##izers": 5439,
      "##izational": 5440,
      "##izoph": 5441,
      "##gust": 5442,
      "##ilding": 5443,
      "##xteent": 5444,
      "##oused": 5445,
      "Anarchismo": 5446,
      "##ieu": 5447,
      "abund": 5448,
      "abilities": 5449,
      "abstention": 5450,
      "##igi": 5451,
      "##igious": 5452,
      "socialist": 5453,
      "socially": 5454,
      "socialization": 5455,
      "close": 5456,
      "clutter": 5457,
      "clums": 5458,
      "closely": 5459,
      "climax": 5460,
      "incomp": 5461,
      "inclined": 5462,
      "incentive": 5463,
      "incorpor": 5464,
      "##ributed": 5465,
      "entit": 5466,
      "entry": 5467,
      "enemy": 5468,
      "enters": 5469,
      "enjoyment": 5470,
      "enemies": 5471,
      "items": 5472,
      "unex": 5473,
      "unwin": 5474,
      "unint": 5475,
      "unaware": 5476,
      "unnecess": 5477,
      "unknow": 5478,
      "unrealistically": 5479,
      "unstated": 5480,
      "##renia": 5481,
      "##rencies": 5482,
      "expose": 5483,
      "expans": 5484,
      "expect": 5485,
      "expound": 5486,
      "expense": 5487,
      "expected": 5488,
      "exponents": 5489,
      "exponent": 5490,
      "experim": 5491,
      "\">&": 5492,
      "\">{{": 5493,
      "disapp": 5494,
      "disintegrative": 5495,
      "dispute": 5496,
      "dissid": 5497,
      "dislik": 5498,
      "somewh": 5499,
      "##utionary": 5500,
      "contribute": 5501,
      "##seau": 5502,
      "interfer": 5503,
      "internal": 5504,
      "##eminists": 5505,
      "agree": 5506,
      "agric": 5507,
      "##avily": 5508,
      "##fered": 5509,
      "##ferences": 5510,
      "individualists": 5511,
      "individualistically": 5512,
      "1868": 5513,
      "1814": 5514,
      "1833": 5515,
      "Character": 5516,
      "Change": 5517,
      "Chiap": 5518,
      "Chapter": 5519,
      "parent": 5520,
      "parts": 5521,
      "parents": 5522,
      "parties": 5523,
      "paragraph": 5524,
      "parallel": 5525,
      "partially": 5526,
      "##hority": 5527,
      "##illa": 5528,
      "adult": 5529,
      "adjec": 5530,
      "adpage": 5531,
      "adoles": 5532,
      "adequate": 5533,
      "adjust": 5534,
      "##ished": 5535,
      "##ardo": 5536,
      "##ards": 5537,
      "##ardation": 5538,
      "##ardized": 5539,
      "##orded": 5540,
      "##ordance": 5541,
      "##ologie": 5542,
      "never": 5543,
      "nearly": 5544,
      "nego": 5545,
      "neither": 5546,
      "neopagan": 5547,
      "negatively": 5548,
      "nefac": 5549,
      "neighbor": 5550,
      "diet": 5551,
      "dilet": 5552,
      "directive": 5553,
      "seeing": 5554,
      "##ustrated": 5555,
      "##assing": 5556,
      "##assion": 5557,
      "Strand": 5558,
      "Stories": 5559,
      "Steph": 5560,
      "Stjó": 5561,
      "Starhaw": 5562,
      "Stanle": 5563,
      "Streets": 5564,
      "##resses": 5565,
      "##ively": 5566,
      "worked": 5567,
      "workpl": 5568,
      "workshops": 5569,
      "##itias": 5570,
      "##iesm": 5571,
      "##actarianism": 5572,
      "authors": 5573,
      "Spenc": 5574,
      "Spect": 5575,
      "Spectrum": 5576,
      "Spirit": 5577,
      "Special": 5578,
      "Spoon": 5579,
      "phenomen": 5580,
      "##ropologists": 5581,
      "##8993": 5582,
      "##ansnational": 5583,
      "Autonom": 5584,
      "Autreat": 5585,
      "Authen": 5586,
      "Authority": 5587,
      "belong": 5588,
      "languages": 5589,
      "try": 5590,
      "troops": 5591,
      "##ermined": 5592,
      "infob": 5593,
      "informal": 5594,
      "inflection": 5595,
      "inflex": 5596,
      "presents": 5597,
      "##ipher": 5598,
      "##ftware": 5599,
      "##end11": 5600,
      "##encing": 5601,
      "capable": 5602,
      "##obos": 5603,
      "##obedi": 5604,
      "##objec": 5605,
      "##ubacic": 5606,
      "propose": 5607,
      "former": 5608,
      "formal": 5609,
      "forming": 5610,
      "formation": 5611,
      "formet": 5612,
      "formulate": 5613,
      "formulation": 5614,
      "157": 5615,
      "apply": 5616,
      "applic": 5617,
      "appro": 5618,
      "applies": 5619,
      "appeal": 5620,
      "append11": 5621,
      "##everation": 5622,
      "##ailed": 5623,
      "relation": 5624,
      "relatives": 5625,
      "'''[[": 5626,
      "genes": 5627,
      "genuine": 5628,
      "generates": 5629,
      "grouped": 5630,
      "groupings": 5631,
      "health": 5632,
      "heavily": 5633,
      "labelled": 5634,
      "shell": 5635,
      "shyn": 5636,
      "share": 5637,
      "shuns": 5638,
      "##techn": 5639,
      "##gerous": 5640,
      "##onomic": 5641,
      "repeti": 5642,
      "repression": 5643,
      "reponse": 5644,
      "whole": 5645,
      "whoops": 5646,
      "statement": 5647,
      "alliance": 5648,
      "alliances": 5649,
      "mechan": 5650,
      "mealtimes": 5651,
      "minimized": 5652,
      "software": 5653,
      "##ypto": 5654,
      "##yptography": 5655,
      "##lican": 5656,
      "##licating": 5657,
      "themes": 5658,
      "##ortance": 5659,
      "##ackets": 5660,
      "Afric": 5661,
      "imply": 5662,
      "impro": 5663,
      "impris": 5664,
      "imperi": 5665,
      "implies": 5666,
      "impulsive": 5667,
      "importance": 5668,
      "resort": 5669,
      "results": 5670,
      "##aches": 5671,
      "##ellos_d": 5672,
      "consens": 5673,
      "conserv": 5674,
      "constitution": 5675,
      "consolid": 5676,
      "consistency": 5677,
      "##ulty": 5678,
      "differences": 5679,
      "differential": 5680,
      "diagnosing": 5681,
      "diagnostics": 5682,
      "believes": 5683,
      "believing": 5684,
      "evil": 5685,
      "evaluation": 5686,
      "goals": 5687,
      "oppression": 5688,
      "oppressive": 5689,
      "oppressed": 5690,
      "terminology": 5691,
      "##erals": 5692,
      "##erally": 5693,
      "##itarians": 5694,
      "##itarianism": 5695,
      "compens": 5696,
      "company": 5697,
      "compati": 5698,
      "component": 5699,
      "compete": 5700,
      "comprom": 5701,
      "companion": 5702,
      "compassion": 5703,
      "complicating": 5704,
      "useful": 5705,
      "classes": 5706,
      "classic": 5707,
      "classified": 5708,
      "##ears": 5709,
      "##fication": 5710,
      "##ficient": 5711,
      "##ficiant": 5712,
      "##EDS": 5713,
      "##quest": 5714,
      "##quee": 5715,
      "##quiry": 5716,
      "##tivity": 5717,
      "leftists": 5718,
      "preserving": 5719,
      "preservation": 5720,
      "ecology": 5721,
      "ecrit": 5722,
      "eclec": 5723,
      "ecofeminism": 5724,
      "##ysiology": 5725,
      "##lishment": 5726,
      "##edia_7615": 5727,
      "assist": 5728,
      "assessment": 5729,
      "Alston": 5730,
      "Altruism": 5731,
      "AlTruism": 5732,
      "Consequ": 5733,
      "Concern": 5734,
      "Conquest": 5735,
      "Common": 5736,
      "Competi": 5737,
      "Comintern": 5738,
      "Comunismo": 5739,
      "Why": 5740,
      "Whites": 5741,
      "Whilst": 5742,
      "nonfunction": 5743,
      "nonvoting": 5744,
      "nonverbal": 5745,
      "priests": 5746,
      "perspective": 5747,
      "persecuted": 5748,
      "sees": 5749,
      "search": 5750,
      "separ": 5751,
      "select": 5752,
      "seize": 5753,
      "sept": 5754,
      "sexist": 5755,
      "seismic": 5756,
      "##ship": 5757,
      "##shine": 5758,
      "##shchina": 5759,
      "##ceptional": 5760,
      "##ularies": 5761,
      "referenced": 5762,
      "referring": 5763,
      "Asperger_kl2": 5764,
      "##havioral": 5765,
      "Bakuninful": 5766,
      "Manifest": 5767,
      "liberalism": 5768,
      "libdeb": 5769,
      "liberals": 5770,
      "prepar": 5771,
      "preven": 5772,
      "premise": 5773,
      "preval": 5774,
      "prefers": 5775,
      "prejud": 5776,
      "pretend": 5777,
      "##time": 5778,
      "##timore": 5779,
      "##timately": 5780,
      "##olled": 5781,
      "AfghanistanCom": 5782,
      "AfghanistanMilit": 5783,
      "AfghanistanEconomy": 5784,
      "AfghanistanGeography": 5785,
      "AfghanistanHistory": 5786,
      "AfghanistanPeople": 5787,
      "Améri": 5788,
      "CNRS": 5789,
      "critical": 5790,
      "crimin": 5791,
      "plain": 5792,
      "places": 5793,
      "plat_pre": 5794,
      "schema": 5795,
      "schizoph": 5796,
      "upset": 5797,
      "upenn": 5798,
      "upsil": 5799,
      "##nerabilities": 5800,
      "##kins": 5801,
      "##herent": 5802,
      "##herpunk": 5803,
      "antifa": 5804,
      "]]'',": 5805,
      "accessed": 5806,
      "accommod": 5807,
      "accidentally": 5808,
      "accusation": 5809,
      "accumulated": 5810,
      "accordance": 5811,
      "againstpoli": 5812,
      "Liberalism": 5813,
      "edition": 5814,
      "edited": 5815,
      "editor": 5816,
      "factories": 5817,
      "outlined": 5818,
      "outposts": 5819,
      "outcas": 5820,
      "outbur": 5821,
      "outright": 5822,
      "sites": 5823,
      "sitting": 5824,
      "organise": 5825,
      "organising": 5826,
      "organisations": 5827,
      "organizational": 5828,
      "developments": 5829,
      "generalizations": 5830,
      "economical": 5831,
      "CNT_tu": 5832,
      "followed": 5833,
      "Front": 5834,
      "Frank": 5835,
      "Franco": 5836,
      "ItemID": 5837,
      "jpeg": 5838,
      "overlap": 5839,
      "tending": 5840,
      "underground": 5841,
      "underdiagnos": 5842,
      "underway": 5843,
      "underreac": 5844,
      "##erick": 5845,
      "thereof": 5846,
      "##tina": 5847,
      "##ensitiv": 5848,
      "##urred": 5849,
      "##uctuations": 5850,
      "Statism": 5851,
      "Statists": 5852,
      "philosophers": 5853,
      "philosophical": 5854,
      "differently": 5855,
      "Community": 5856,
      "personal": 5857,
      "personality": 5858,
      "Heinle": 5859,
      "Sociology": 5860,
      "descri": 5861,
      "knows": 5862,
      "knowled": 5863,
      "postures": 5864,
      "poststruct": 5865,
      "postleft": 5866,
      "twisting": 5867,
      "twenty": 5868,
      "willingness": 5869,
      "##ilege": 5870,
      "intro": 5871,
      "recently": 5872,
      "reclass": 5873,
      "recorded": 5874,
      "withinyou": 5875,
      "profile": 5876,
      "proffessed": 5877,
      "##uralist": 5878,
      "attract": 5879,
      "15898945": 5880,
      "15898943": 5881,
      "15898948": 5882,
      "Forum": 5883,
      "Nearly": 5884,
      "Neocolonialism": 5885,
      "Neopagan": 5886,
      "Nechaev": 5887,
      "Peacott": 5888,
      "Peaceful": 5889,
      "Unity": 5890,
      "University": 5891,
      "Unité": 5892,
      "coo": 5893,
      "coex": 5894,
      "cochair": 5895,
      "coalition": 5896,
      "covered": 5897,
      "coherent": 5898,
      "calls": 5899,
      "lacked": 5900,
      "population": 5901,
      "##T16": 5902,
      "##T10": 5903,
      "##T18": 5904,
      "##tilization": 5905,
      "]])&": 5906,
      "]]);": 5907,
      "##edied": 5908,
      "insult": 5909,
      "insights": 5910,
      "institute": 5911,
      "region": 5912,
      "regularly": 5913,
      "regime": 5914,
      "regiment": 5915,
      "regulating": 5916,
      "##stems": 5917,
      "study": 5918,
      "subjec": 5919,
      "subpage": 5920,
      "subhead": 5921,
      "submovement": 5922,
      "subgroup": 5923,
      "subscrib": 5924,
      "subjug": 5925,
      "suppression": 5926,
      "suppressed": 5927,
      "supplant": 5928,
      "supporting": 5929,
      "Internet": 5930,
      "argues": 5931,
      "arguing": 5932,
      "interested": 5933,
      "considerably": 5934,
      "Christianity": 5935,
      "Christiania": 5936,
      ").&": 5937,
      "Disability": 5938,
      "Disease": 5939,
      "Disintegrative": 5940,
      "Disobedi": 5941,
      "Trade": 5942,
      "Truda": 5943,
      "ambigu": 5944,
      "amoralism": 5945,
      "amidst": 5946,
      "politicians": 5947,
      "sco": 5948,
      "scale": 5949,
      "scient": 5950,
      "scream": 5951,
      "scienti": 5952,
      "weapon": 5953,
      "weakened": 5954,
      "##ry_d": 5955,
      "##ginia": 5956,
      "]]'.": 5957,
      "Therefore": 5958,
      "model": 5959,
      "models": 5960,
      "modulaware": 5961,
      "deflem": 5962,
      "defeat": 5963,
      "defines": 5964,
      "defunct": 5965,
      "systems": 5966,
      "systematic": 5967,
      "associations": 5968,
      "associating": 5969,
      "associée": 5970,
      "America": 5971,
      "Americans": 5972,
      "schooling": 5973,
      "popularized": 5974,
      "Revolutionist": 5975,
      "Postanarchism": 5976,
      "linking": 5977,
      "obey": 5978,
      "obser": 5979,
      "obvious": 5980,
      "obediance": 5981,
      "simple": 5982,
      "warhe": 5983,
      "##redible": 5984,
      "##rico": 5985,
      "##ricourt": 5986,
      "##mony": 5987,
      "##monious": 5988,
      "##lix": 5989,
      "##liquee": 5990,
      "##ario": 5991,
      "##ariat": 5992,
      "##tions_to": 5993,
      "##ountered": 5994,
      "confron": 5995,
      "confines": 5996,
      "confused": 5997,
      "confusion": 5998,
      "##odying": 5999,
      "1918": 6000,
      "1912": 6001,
      "1914": 6002,
      "1910s": 6003,
      "1923": 6004,
      "1928": 6005,
      "1922": 6006,
      "activism": 6007,
      "activists": 6008,
      "manifests": 6009,
      "manifestation": 6010,
      "manifestations": 6011,
      "Workshops": 6012,
      "certainly": 6013,
      "certainty": 6014,
      ";.&": 6015,
      ";.[": 6016,
      ";.]]": 6017,
      "Indian": 6018,
      "Indym": 6019,
      "Indicators": 6020,
      "Once": 6021,
      "Online": 6022,
      "Repr": 6023,
      "Repl": 6024,
      "Repub": 6025,
      "Reference": 6026,
      "Recher": 6027,
      "References": 6028,
      "central": 6029,
      "color": 6030,
      "colonialism": 6031,
      "features": 6032,
      "families": 6033,
      "ifeminists": 6034,
      "literal": 6035,
      "litency": 6036,
      "literat": 6037,
      "paths": 6038,
      "posited": 6039,
      "possib": 6040,
      "possess": 6041,
      "signficiant": 6042,
      "##graph": 6043,
      "##veson": 6044,
      "Anarşizm": 6045,
      "increasing": 6046,
      "needed": 6047,
      "shouldn": 6048,
      "governance": 6049,
      "understood": 6050,
      "AmericanSam": 6051,
      "110px": 6052,
      "17Z": 6053,
      "17T15": 6054,
      "1793": 6055,
      "1703": 6056,
      "1787": 6057,
      "Dejacque": 6058,
      "Developmental": 6059,
      "Deleuze": 6060,
      "Decemb": 6061,
      "Economy": 6062,
      "Ecofeminism": 6063,
      "Economic": 6064,
      "GoldmanCW": 6065,
      "Proponents": 6066,
      "cars": 6067,
      "carry": 6068,
      "careless": 6069,
      "carried": 6070,
      "carrying": 6071,
      "decide": 6072,
      "decade": 6073,
      "declar": 6074,
      "decades": 6075,
      "decipher": 6076,
      "faces": 6077,
      "faced": 6078,
      "facade": 6079,
      "facilit": 6080,
      "facets": 6081,
      "faculty": 6082,
      "freeze": 6083,
      "money": 6084,
      "monopoly": 6085,
      "montp3": 6086,
      "moniker": 6087,
      "network": 6088,
      "pointing": 6089,
      "respected": 6090,
      "respons": 6091,
      "respective": 6092,
      "##airine": 6093,
      "##wards": 6094,
      "##formed": 6095,
      "##ervation": 6096,
      "##onto": 6097,
      "concept": 6098,
      "1939": 6099,
      "1932": 6100,
      "1930s": 6101,
      "speculate": 6102,
      "claimed": 6103,
      "claiming": 6104,
      "explanation": 6105,
      "interactions": 6106,
      "structuralism": 6107,
      "completely": 6108,
      "fascism_or": 6109,
      "publicity": 6110,
      "publications": 6111,
      "LeoTolstoy": 6112,
      "15898953": 6113,
      "15898956": 6114,
      "15898950": 6115,
      "15898951": 6116,
      "15898957": 6117,
      "15898958": 6118,
      "15898952": 6119,
      "15898955": 6120,
      "15898954": 6121,
      "PeterKropotkin": 6122,
      "everyone": 6123,
      "governments": 6124,
      "BenjaminTucker": 6125,
      "Pierre_Joseph": 6126,
      "25Z": 6127,
      "Arce": 6128,
      "Archives": 6129,
      "Argen": 6130,
      "Parents": 6131,
      "Parliament": 6132,
      "Paragraph": 6133,
      "Parallel": 6134,
      "USED": 6135,
      "ethos": 6136,
      "fiat": 6137,
      "imitative": 6138,
      "majority": 6139,
      "occupation": 6140,
      "occasion": 6141,
      "occurred": 6142,
      "owned": 6143,
      "owners": 6144,
      "secular": 6145,
      "##par2": 6146,
      "##paring": 6147,
      "anything": 6148,
      "theorist": 6149,
      "##althstate": 6150,
      "Anarkismo": 6151,
      "Anarkiismo": 6152,
      "condoning": 6153,
      "noteworth": 6154,
      "characteristic": 6155,
      "characterization": 6156,
      "characterized": 6157,
      "characteristics": 6158,
      "contrary": 6159,
      "contrast": 6160,
      "contractarianism": 6161,
      "controlled": 6162,
      "1876": 6163,
      "1870": 6164,
      "1870s": 6165,
      "physicians": 6166,
      "physiological": 6167,
      "influence": 6168,
      "influencing": 6169,
      "seemed": 6170,
      "played": 6171,
      "playing": 6172,
      "professing": 6173,
      "profession": 6174,
      "professors": 6175,
      "helps": 6176,
      "similarly": 6177,
      "focused": 6178,
      "03Z": 6179,
      "101": 6180,
      "20Z": 6181,
      ":''&": 6182,
      "Dielo": 6183,
      "Joe": 6184,
      "Mutualists": 6185,
      "detailed": 6186,
      "##eber": 6187,
      "##maf": 6188,
      "##matic": 6189,
      "##domnow": 6190,
      "##arthomesoci": 6191,
      "##istorintp": 6192,
      "##lections": 6193,
      "predecess": 6194,
      "probably": 6195,
      "extend": 6196,
      "extending": 6197,
      "##rounding": 6198,
      "Insanity": 6199,
      "1990": 6200,
      "1997": 6201,
      "1995": 6202,
      "1994": 6203,
      "1990s": 6204,
      "leader": 6205,
      "leading": 6206,
      "sympath": 6207,
      "clinical": 6208,
      "clinically": 6209,
      "clinomorph": 6210,
      "unionist": 6211,
      "interpretation": 6212,
      "presented": 6213,
      "primate": 6214,
      "primary": 6215,
      "primitive": 6216,
      "criticise": 6217,
      "Newsw": 6218,
      "conflicts": 6219,
      "images": 6220,
      "lifetime": 6221,
      "Exchange": 6222,
      "Laisse": 6223,
      "Nozick": 6224,
      "Willful": 6225,
      "aware": 6226,
      "domain": 6227,
      "dominance": 6228,
      "domestically": 6229,
      "demand": 6230,
      "else": 6231,
      "elays": 6232,
      "elite": 6233,
      "elaborate": 6234,
      "egoists": 6235,
      "flat": 6236,
      "fluctuations": 6237,
      "humain": 6238,
      "handle": 6239,
      "handicapp": 6240,
      "milieu": 6241,
      "militias": 6242,
      "turned": 6243,
      "##rupted": 6244,
      "##6831": 6245,
      "##68770": 6246,
      "thinking": 6247,
      "##aringhous": 6248,
      "##index": 6249,
      "involves": 6250,
      "instruct": 6251,
      "intentional": 6252,
      "intensity": 6253,
      "##ompassing": 6254,
      "realign": 6255,
      "worldview": 6256,
      "encart": 6257,
      "encyclop": 6258,
      "encountered": 6259,
      "encompassing": 6260,
      "experiment": 6261,
      "experiences": 6262,
      "experienced": 6263,
      "experimental": 6264,
      "1897": 6265,
      "1898": 6266,
      "1892": 6267,
      "transition": 6268,
      "transitions": 6269,
      "transfered": 6270,
      "transformed": 6271,
      "labeled": 6272,
      "privately": 6273,
      "privilege": 6274,
      "afterleftism": 6275,
      "afterwards": 6276,
      "Ecole": 6277,
      "religiousity": 6278,
      "situationism": 6279,
      "situationist": 6280,
      "situationists": 6281,
      "physically": 6282,
      "collectives": 6283,
      "collectivism": 6284,
      "collectivization": 6285,
      "collectivised": 6286,
      "collectivized": 6287,
      "collectivisation": 6288,
      "controversially": 6289,
      "Diagnosis": 6290,
      "imaginable": 6291,
      "13Z": 6292,
      "13T13": 6293,
      "16th": 6294,
      "160px": 6295,
      "1615": 6296,
      "4341": 6297,
      "Centre": 6298,
      "Century": 6299,
      "Systems": 6300,
      "brackets": 6301,
      "blackened": 6302,
      "clearly": 6303,
      "clearing": 6304,
      "cleaners": 6305,
      "distrac": 6306,
      "distaste": 6307,
      "distributed": 6308,
      "emulate": 6309,
      "easier": 6310,
      "full": 6311,
      "fulfilling": 6312,
      "failed": 6313,
      "global": 6314,
      "glorification": 6315,
      "gestation": 6316,
      "gesture": 6317,
      "holder": 6318,
      "illusions": 6319,
      "letter": 6320,
      "lettre": 6321,
      "lesson": 6322,
      "lessons": 6323,
      "laws": 6324,
      "musical": 6325,
      "muscle": 6326,
      "open": 6327,
      "operative": 6328,
      "opinion": 6329,
      "originally": 6330,
      "severely": 6331,
      "stimming": 6332,
      "triad": 6333,
      "varied": 6334,
      "variations": 6335,
      "##minated": 6336,
      "##letariat": 6337,
      "receiving": 6338,
      "autonomism": 6339,
      "Antifa": 6340,
      "conclusions": 6341,
      "produced": 6342,
      "products": 6343,
      "existence": 6344,
      "alternate": 6345,
      "alternatives": 6346,
      "degrees": 6347,
      "1973": 6348,
      "1977": 6349,
      "absurdity": 6350,
      "discrepan": 6351,
      "Statements": 6352,
      "##ropriately": 6353,
      "trading": 6354,
      "traditions": 6355,
      "shown": 6356,
      "showing": 6357,
      "showartic": 6358,
      "reportedly": 6359,
      "allowing": 6360,
      "struggles": 6361,
      "imposes": 6362,
      "imposing": 6363,
      "impossib": 6364,
      "Confédé": 6365,
      "recognition": 6366,
      "recognise": 6367,
      "attempts": 6368,
      "affect": 6369,
      "affection": 6370,
      "affinity": 6371,
      "objective": 6372,
      "objections": 6373,
      "Anarquisme": 6374,
      "Anarquismu": 6375,
      "Army": 6376,
      "ethics_of": 6377,
      "market_anarchism": 6378,
      "Andrej": 6379,
      "Andrews": 6380,
      "Noam_ch": 6381,
      "WilliamGod": 6382,
      "democratic": 6383,
      "routinely": 6384,
      "continuing": 6385,
      "'.]]": 6386,
      "270px": 6387,
      "27T0": 6388,
      "27T18": 6389,
      "?]]&": 6390,
      "Appleton": 6391,
      "Appliquee": 6392,
      "Clearinghous": 6393,
      "FAC": 6394,
      "German": 6395,
      "Landstreicher": 6396,
      "McCul": 6397,
      "McElroy": 6398,
      "McQuinn": 6399,
      "McKay": 6400,
      "Prior": 6401,
      "Private": 6402,
      "Politics": 6403,
      "crushed": 6404,
      "cryptography": 6405,
      "escap": 6406,
      "effort": 6407,
      "effects": 6408,
      "effect": 6409,
      "efficient": 6410,
      "favors": 6411,
      "favoured": 6412,
      "historian": 6413,
      "historians": 6414,
      "justice": 6415,
      "misinter": 6416,
      "olds": 6417,
      "older": 6418,
      "pitched": 6419,
      "psychology": 6420,
      "room": 6421,
      "role": 6422,
      "roots": 6423,
      "races": 6424,
      "racial": 6425,
      "ruler": 6426,
      "rulers": 6427,
      "radically": 6428,
      "tucker37": 6429,
      "varies": 6430,
      "widespread": 6431,
      "write": 6432,
      "written": 6433,
      "##tante": 6434,
      "##tainer": 6435,
      "##iatry": 6436,
      "##eastern": 6437,
      "##easible": 6438,
      "##macy": 6439,
      "##ymoron": 6440,
      "##violence": 6441,
      "##4832": 6442,
      "##T01": 6443,
      "##erged": 6444,
      "anxious": 6445,
      "answers": 6446,
      "toxicpop": 6447,
      "remedied": 6448,
      "##ocols": 6449,
      "begins": 6450,
      "beginnings": 6451,
      "combos": 6452,
      "combating": 6453,
      "proto": 6454,
      "protocols": 6455,
      "Anarchizmas": 6456,
      "striking": 6457,
      "stressful": 6458,
      "Integralism": 6459,
      "changed": 6460,
      "synonymous": 6461,
      "##ographics": 6462,
      "archon": 6463,
      "entered": 6464,
      "entertainer": 6465,
      "1886": 6466,
      "1881": 6467,
      "neurode": 6468,
      "neurotypical": 6469,
      "genetics": 6470,
      "genetically": 6471,
      "represents": 6472,
      "strategies": 6473,
      "impairments": 6474,
      "resisted": 6475,
      "preferred": 6476,
      "Anarchist_objec": 6477,
      "criticsed": 6478,
      "profits": 6479,
      "regarding": 6480,
      "Individuals": 6481,
      "Individualist": 6482,
      "Defense": 6483,
      "explains": 6484,
      "explained": 6485,
      "explaining": 6486,
      "Organisation": 6487,
      "Organisational": 6488,
      "Syndrome": 6489,
      "emotion": 6490,
      "stimulation": 6491,
      "stimulus": 6492,
      "stimulations": 6493,
      "stimulatory": 6494,
      "discussing": 6495,
      "Factories": 6496,
      "ICD10": 6497,
      "Platformism": 6498,
      "Platformist": 6499,
      "Zapatismo": 6500,
      "birthday": 6501,
      "04T01": 6502,
      "1000": 6503,
      "21Z": 6504,
      "21T10": 6505,
      "4213": 6506,
      "42019": 6507,
      ";).": 6508,
      "Attention": 6509,
      "Ada": 6510,
      "AdA": 6511,
      "Adam": 6512,
      "Austria": 6513,
      "Accessed": 6514,
      "Berlin": 6515,
      "Crimeth": 6516,
      "Errors": 6517,
      "Ervin": 6518,
      "Errico": 6519,
      "FeminismTwoS": 6520,
      "Ideology": 6521,
      "Labor": 6522,
      "Movements": 6523,
      "Physiology": 6524,
      "Sovereign": 6525,
      "SoHo": 6526,
      "Technology": 6527,
      "Voluntaryism": 6528,
      "aids": 6529,
      "bands": 6530,
      "caucasian": 6531,
      "cautionary": 6532,
      "currencies": 6533,
      "culott": 6534,
      "culotte": 6535,
      "culminated": 6536,
      "caused": 6537,
      "ends": 6538,
      "english": 6539,
      "especial": 6540,
      "espouses": 6541,
      "espoused": 6542,
      "embodying": 6543,
      "finest": 6544,
      "femelle": 6545,
      "federalism": 6546,
      "grows": 6547,
      "growing": 6548,
      "harm": 6549,
      "harsh": 6550,
      "harmonious": 6551,
      "journals": 6552,
      "kinds": 6553,
      "looked": 6554,
      "looking": 6555,
      "mediation": 6556,
      "mediated": 6557,
      "mediums": 6558,
      "necessary": 6559,
      "purpos": 6560,
      "serve": 6561,
      "series": 6562,
      "serious": 6563,
      "tones": 6564,
      "tonal": 6565,
      "tonality": 6566,
      "utmost": 6567,
      "voices": 6568,
      "varying": 6569,
      "visions": 6570,
      "voluntaryist": 6571,
      "wishes": 6572,
      "xsd": 6573,
      "zhistorintp": 6574,
      "##rayed": 6575,
      "##iette": 6576,
      "##eeded": 6577,
      "##1918": 6578,
      "##lusive": 6579,
      "##RCE": 6580,
      "announced": 6581,
      "anabaptism": 6582,
      "anabaptist": 6583,
      "anabaptists": 6584,
      "offered": 6585,
      "inherently": 6586,
      "integration": 6587,
      "integrate": 6588,
      "integrated": 6589,
      "return": 6590,
      "retriev": 6591,
      "retardation": 6592,
      "reason": 6593,
      "reactions": 6594,
      "reactionists": 6595,
      "rejection": 6596,
      "rejects": 6597,
      "rejected": 6598,
      "##elds": 6599,
      "issued": 6600,
      "connecting": 6601,
      "identify": 6602,
      "identified": 6603,
      "identification": 6604,
      "proudly": 6605,
      "proclaim": 6606,
      "procliv": 6607,
      "proceeded": 6608,
      "styles": 6609,
      "exclusive": 6610,
      "alienated": 6611,
      "successor": 6612,
      "successful": 6613,
      "sustaining": 6614,
      "sustainability": 6615,
      "determine": 6616,
      "##abbing": 6617,
      "Intellig": 6618,
      "churches": 6619,
      "1908": 6620,
      "1902": 6621,
      "1905": 6622,
      "indicating": 6623,
      "indicators": 6624,
      "indicator": 6625,
      "manageable": 6626,
      "uncommon": 6627,
      "displays": 6628,
      "internationally": 6629,
      "aggressive": 6630,
      "agitation": 6631,
      "agitating": 6632,
      "agitators": 6633,
      "Students": 6634,
      "workerist": 6635,
      "phraseology": 6636,
      "heads": 6637,
      "headed": 6638,
      "methods": 6639,
      "methodological": 6640,
      "nonviolence": 6641,
      "schedule": 6642,
      "accounts": 6643,
      "Communications": 6644,
      "desires": 6645,
      "coercive": 6646,
      "supporters": 6647,
      "participate": 6648,
      "complexity": 6649,
      "markedly": 6650,
      "destroying": 6651,
      "patient": 6652,
      "totalitarians": 6653,
      "traditional": 6654,
      "justifies": 6655,
      "psychiatric": 6656,
      "remained": 6657,
      "Definitions_of": 6658,
      "Syndicalists": 6659,
      "achieved": 6660,
      "bourgeoisie": 6661,
      "establishment": 6662,
      "friends": 6663,
      "periods": 6664,
      "##ansportations": 6665,
      "JohannMost": 6666,
      "Анархизм": 6667,
      "Анархизам": 6668,
      "Анархизъм": 6669,
      ")]]}}": 6670,
      "05Z": 6671,
      "22T16": 6672,
      "360": 6673,
      "47Z": 6674,
      "4796": 6675,
      "5077": 6676,
      "58Z": 6677,
      "Cooperation": 6678,
      "Crass": 6679,
      "Crypto": 6680,
      "Flag": 6681,
      "Flores": 6682,
      "Freidrich": 6683,
      "Freetown": 6684,
      "Fascism": 6685,
      "Fascist": 6686,
      "Friedman": 6687,
      "Friedrich": 6688,
      "Geography": 6689,
      "George": 6690,
      "Guin": 6691,
      "Guattari": 6692,
      "Months": 6693,
      "Monopoly": 6694,
      "Main_P": 6695,
      "Mexico": 6696,
      "Mexican": 6697,
      "Military": 6698,
      "Militant": 6699,
      "NotUtopian": 6700,
      "Often": 6701,
      "Preface": 6702,
      "Preparing": 6703,
      "Payne": 6704,
      "Quiet": 6705,
      "Quoti": 6706,
      "Riot": 6707,
      "Richard": 6708,
      "Recent": 6709,
      "Reclaim": 6710,
      "Randolph": 6711,
      "Smith": 6712,
      "Smile": 6713,
      "Scale": 6714,
      "Sciences": 6715,
      "Samoa": 6716,
      "Two": 6717,
      "Twenty": 6718,
      "Times": 6719,
      "Timeline": 6720,
      "Typically": 6721,
      "Wikiquote": 6722,
      "avoid": 6723,
      "avowed": 6724,
      "athletic": 6725,
      "athiesm": 6726,
      "bios": 6727,
      "biodiversity": 6728,
      "bnat": 6729,
      "bnas": 6730,
      "banking": 6731,
      "corresp": 6732,
      "corrupted": 6733,
      "countries": 6734,
      "counterpar": 6735,
      "dysfunctional": 6736,
      "dynamics": 6737,
      "dynamite": 6738,
      "employment": 6739,
      "emphas": 6740,
      "faq": 6741,
      "files": 6742,
      "filter": 6743,
      "falls": 6744,
      "factions": 6745,
      "fairly": 6746,
      "funded": 6747,
      "fundamental": 6748,
      "grasp": 6749,
      "grabbing": 6750,
      "gift": 6751,
      "gifted": 6752,
      "gained": 6753,
      "garde": 6754,
      "garden": 6755,
      "geekdom": 6756,
      "hist_te": 6757,
      "house": 6758,
      "housing": 6759,
      "kingdomnow": 6760,
      "lands": 6761,
      "match": 6762,
      "matter": 6763,
      "massacres": 6764,
      "myself": 6765,
      "mysogyn": 6766,
      "magazine": 6767,
      "magazines": 6768,
      "nihilism": 6769,
      "nihilist": 6770,
      "omnip": 6771,
      "omicron": 6772,
      "please": 6773,
      "plekhanov": 6774,
      "passed": 6775,
      "passively": 6776,
      "pediatric": 6777,
      "pediatrics": 6778,
      "riot": 6779,
      "riots": 6780,
      "reduce": 6781,
      "svg": 6782,
      "saying": 6783,
      "service": 6784,
      "services": 6785,
      "tactical": 6786,
      "tacitly": 6787,
      "types": 6788,
      "typing": 6789,
      "taxation": 6790,
      "taught": 6791,
      "utility": 6792,
      "utilitarianism": 6793,
      "vacuum": 6794,
      "vaccination": 6795,
      "##efna": 6796,
      "##methers": 6797,
      "##market": 6798,
      "##atible": 6799,
      "##sson": 6800,
      "##heads": 6801,
      "##2005": 6802,
      "##_Proudhon": 6803,
      "##_ch1": 6804,
      "##_technology": 6805,
      "therapy": 6806,
      "therapies": 6807,
      "reader": 6808,
      "##stonecra": 6809,
      "Anabaptist": 6810,
      "Anabaptists": 6811,
      "consequence": 6812,
      "consequences": 6813,
      "comfortably": 6814,
      "provide": 6815,
      "providers": 6816,
      "stoicism": 6817,
      "extreme": 6818,
      "extremely": 6819,
      "oneself": 6820,
      "]]...[": 6821,
      "]]....&": 6822,
      "debate": 6823,
      "debated": 6824,
      "Increase": 6825,
      "Incredible": 6826,
      "choices": 6827,
      "choosing": 6828,
      "spreading": 6829,
      "spirituality": 6830,
      "technological": 6831,
      "techniques": 6832,
      "peasant": 6833,
      "peasants": 6834,
      "mannerisms": 6835,
      "abolition": 6836,
      "abolished": 6837,
      "incidence": 6838,
      "incidences": 6839,
      "unfamiliar": 6840,
      "unfeasible": 6841,
      "universal": 6842,
      "expressing": 6843,
      "intervene": 6844,
      "intervention": 6845,
      "1861": 6846,
      "1864": 6847,
      "1828": 6848,
      "1825": 6849,
      "1858": 6850,
      "1850s": 6851,
      "18063769": 6852,
      "18063795": 6853,
      "addition": 6854,
      "addresses": 6855,
      "adherence": 6856,
      "adherents": 6857,
      "cannon": 6858,
      "cannot": 6859,
      "directions": 6860,
      "Stalinist": 6861,
      "Stalinists": 6862,
      "trains": 6863,
      "propriété": 6864,
      "proprietor": 6865,
      "appleton_boston": 6866,
      "hears": 6867,
      "shares": 6868,
      "sharply": 6869,
      "minarchism": 6870,
      "minarchists": 6871,
      "strictly": 6872,
      "resulting": 6873,
      "resulted": 6874,
      "##elligent": 6875,
      "conscious": 6876,
      "conscience": 6877,
      "opportunity": 6878,
      "opportunities": 6879,
      "Alliance": 6880,
      "Algeria": 6881,
      "AlgeriA": 6882,
      "Alfredo": 6883,
      "Alfredsson": 6884,
      "Concepts": 6885,
      "Conceptions": 6886,
      "Whoever": 6887,
      "precursor": 6888,
      "precocious": 6889,
      "AfghanistanTransnational": 6890,
      "AfghanistanTransportations": 6891,
      "maintained": 6892,
      "uprising": 6893,
      "uprisings": 6894,
      "accomplish": 6895,
      "accompanied": 6896,
      "Libertaire": 6897,
      "Libertario": 6898,
      "Frederick": 6899,
      "Italy": 6900,
      "Italian": 6901,
      "overthrown": 6902,
      "reciprocity": 6903,
      "reciprocating": 6904,
      "attribute": 6905,
      "attributable": 6906,
      "15898949": 6907,
      "15898946": 6908,
      "Trading": 6909,
      "Tradition": 6910,
      "Travail": 6911,
      "Travails": 6912,
      "amount": 6913,
      "amounts": 6914,
      "obsessed": 6915,
      "observation": 6916,
      "Reads": 6917,
      "literate": 6918,
      "literacy": 6919,
      "decentralized": 6920,
      "decentralisation": 6921,
      "responded": 6922,
      "exploited": 6923,
      "exploiting": 6924,
      "explosion": 6925,
      "explosive": 6926,
      "fields": 6927,
      "figureheads": 6928,
      "largest": 6929,
      "largely": 6930,
      "settings": 6931,
      "Anarkismi": 6932,
      "collectively": 6933,
      "03T06": 6934,
      "03T01": 6935,
      "predicted": 6936,
      "predictions": 6937,
      "predictable": 6938,
      "leadership": 6939,
      "Expert": 6940,
      "Expelled": 6941,
      "elimination": 6942,
      "eliminate": 6943,
      "bringing": 6944,
      "clearest": 6945,
      "disturbing": 6946,
      "disturbance": 6947,
      "hierarchical": 6948,
      "hierarchies": 6949,
      "illustrated": 6950,
      "conclude": 6951,
      "concluded": 6952,
      "symbols": 6953,
      "symbolism": 6954,
      "AssistiveTechnology": 6955,
      "Assistive_technology": 6956,
      "AppliedEthics": 6957,
      "crucially": 6958,
      "favorite": 6959,
      "veganism": 6960,
      "vegetarian": 6961,
      "vegetarianism": 6962,
      "vocabulary": 6963,
      "vocabularies": 6964,
      "protesters": 6965,
      "Anarhizam": 6966,
      "Anarhizem": 6967,
      "Makhnovschina": 6968,
      "Makhnovshchina": 6969,
      "AccessibleComputing": 6970,
      "Accessible_computing": 6971,
      "Teaching": 6972,
      "Teachers": 6973,
      "embraces": 6974,
      "embraced": 6975,
      "pursued": 6976,
      "pursuit": 6977,
      "annihilation": 6978,
      "annihilated": 6979,
      "excessively": 6980,
      "Intellectuals": 6981,
      "unconnected": 6982,
      "unconvinc": 6983,
      "displaying": 6984,
      "Johnson": 6985,
      "achievements": 6986,
      "9_2_3": 6987,
      "broader": 6988,
      "celebrated": 6989,
      "celebrities": 6990,
      "circuiting": 6991,
      "circumstances": 6992,
      "doctrine": 6993,
      "doctrines": 6994,
      "godandstate_ch1": 6995,
      "galleryindex": 6996,
      "suspect": 6997,
      "suspected": 6998,
      "suddenly": 6999,
      "AmoeboidTax": 7000,
      "ANARCHISM": 7001,
      "ANARCHIST": 7002,
      "tremendously": 7003,
      ".).": 7004,
      "01Z": 7005,
      "0684832": 7006,
      "26Z": 7007,
      "38Z": 7008,
      "328993": 7009,
      "35Z": 7010,
      "400px": 7011,
      "5705": 7012,
      "6alpha": 7013,
      "614213": 7014,
      "83238": 7015,
      ";]'',": 7016,
      ";|&": 7017,
      ";]]''": 7018,
      ">/*": 7019,
      "?].": 7020,
      "AaA": 7021,
      "August": 7022,
      "AxelBold": 7023,
      "Academy": 7024,
      "Abacus": 7025,
      "ASD": 7026,
      "AAA": 7027,
      "Auberon": 7028,
      "Ashanti": 7029,
      "According": 7030,
      "Behavioral": 7031,
      "Bonanno": 7032,
      "Baltimore": 7033,
      "Bleuler": 7034,
      "Bourne": 7035,
      "Buddhist": 7036,
      "Bombs": 7037,
      "Bourses": 7038,
      "CJames745": 7039,
      "California": 7040,
      "Canada": 7041,
      "Catalonia": 7042,
      "Color": 7043,
      "Copenhag": 7044,
      "Citium": 7045,
      "Cypherpunk": 7046,
      "Cognitive": 7047,
      "Cercle": 7048,
      "Council": 7049,
      "Denmark": 7050,
      "Desire": 7051,
      "Dictionary": 7052,
      "Delays": 7053,
      "Demographics": 7054,
      "Distortions": 7055,
      "Dynamost": 7056,
      "Enquiry": 7057,
      "Epistem": 7058,
      "Editor": 7059,
      "Elkin": 7060,
      "Ebeling": 7061,
      "Effects": 7062,
      "Eastern": 7063,
      "Every": 7064,
      "Epidemiologists": 7065,
      "Eugene": 7066,
      "Essays": 7067,
      "Fields": 7068,
      "F84": 7069,
      "Félix": 7070,
      "Family": 7071,
      "Facial": 7072,
      "Feminist": 7073,
      "Forms": 7074,
      "Fabbri": 7075,
      "Grubacic": 7076,
      "Géné": 7077,
      "GNU": 7078,
      "GOLD": 7079,
      "Gilles": 7080,
      "Girondin": 7081,
      "Graeber": 7082,
      "Hui": 7083,
      "Héricourt": 7084,
      "Harmony": 7085,
      "Hopkins": 7086,
      "Hospital": 7087,
      "Haymarket": 7088,
      "Human": 7089,
      "Huston": 7090,
      "Hearing": 7091,
      "Historical": 7092,
      "Hutterites": 7093,
      "Hundreds": 7094,
      "Isaac": 7095,
      "Ireland": 7096,
      "Important": 7097,
      "Jean": 7098,
      "Jsmethers": 7099,
      "JPG": 7100,
      "Jason": 7101,
      "Jacques": 7102,
      "Juliette": 7103,
      "Justice": 7104,
      "Kraus": 7105,
      "Komboa": 7106,
      "Luigi": 7107,
      "Linux": 7108,
      "Lorenzo": 7109,
      "Linguistics": 7110,
      "Lacan": 7111,
      "Lettre": 7112,
      "Language": 7113,
      "Lysander": 7114,
      "Luddites": 7115,
      "Means": 7116,
      "Mbah": 7117,
      "MIT": 7118,
      "Mastering": 7119,
      "Magón": 7120,
      "Modern": 7121,
      "Millwood": 7122,
      "Methodology": 7123,
      "Magazine": 7124,
      "Ministerial": 7125,
      "NEEDS": 7126,
      "NOTE": 7127,
      "Nonviolence": 7128,
      "Narveson": 7129,
      "Natural": 7130,
      "Nicolás": 7131,
      "Nouveau": 7132,
      "Nacional": 7133,
      "Nazi": 7134,
      "Nonetheless": 7135,
      "NihAut": 7136,
      "Oxymoron": 7137,
      "Owen": 7138,
      "Opponents": 7139,
      "Occasional": 7140,
      "Ohnoit": 7141,
      "Puente": 7142,
      "PDD": 7143,
      "Panel": 7144,
      "Pataud": 7145,
      "Pouget": 7146,
      "Police": 7147,
      "Perseveration": 7148,
      "Papers": 7149,
      "Public": 7150,
      "Pearl": 7151,
      "Point": 7152,
      "Psychiatry": 7153,
      "Polytechn": 7154,
      "Production": 7155,
      "Pediatrics": 7156,
      "POUM": 7157,
      "Role": 7158,
      "Ricardo": 7159,
      "Religious": 7160,
      "Rocker": 7161,
      "Rossell": 7162,
      "Rumors": 7163,
      "Rudolf": 7164,
      "Rousseau": 7165,
      "Selections": 7166,
      "Swiss": 7167,
      "Series": 7168,
      "Security": 7169,
      "Several": 7170,
      "Sectarianism": 7171,
      "Soviet": 7172,
      "Seattle": 7173,
      "SectionID": 7174,
      "Shortly": 7175,
      "SOURCE": 7176,
      "Tai": 7177,
      "THAT": 7178,
      "Toronto": 7179,
      "Tacit": 7180,
      "Todd": 7181,
      "Terminology": 7182,
      "Types": 7183,
      "Tension": 7184,
      "Texas": 7185,
      "Toxicpop": 7186,
      "Ukrain": 7187,
      "Utopianism": 7188,
      "Ursula": 7189,
      "VII": 7190,
      "Vanguard": 7191,
      "Voltairine": 7192,
      "Wendy": 7193,
      "Wollstonecra": 7194,
      "Woodworth": 7195,
      "Writings": 7196,
      "Wolfi": 7197,
      "XIV": 7198,
      "XMLSch": 7199,
      "Zerzan": 7200,
      "[,]&": 7201,
      "auditory": 7202,
      "apx1pub": 7203,
      "boards": 7204,
      "building": 7205,
      "blamed": 7206,
      "bcaplan": 7207,
      "berry_d": 7208,
      "bonobos": 7209,
      "bitter": 7210,
      "bilkent": 7211,
      "brief": 7212,
      "bayonets": 7213,
      "business": 7214,
      "babble": 7215,
      "ballots": 7216,
      "bureauc": 7217,
      "britt19": 7218,
      "babbling": 7219,
      "bordering": 7220,
      "cyber": 7221,
      "cues": 7222,
      "cfm": 7223,
      "coping": 7224,
      "crisis": 7225,
      "crowd": 7226,
      "cocktail": 7227,
      "dhi": 7228,
      "dv1": 7229,
      "derived": 7230,
      "denounced": 7231,
      "dangerous": 7232,
      "dismiss": 7233,
      "damage": 7234,
      "driven": 7235,
      "dogmatic": 7236,
      "digital": 7237,
      "dressing": 7238,
      "dramatically": 7239,
      "downtown": 7240,
      "egalitarian": 7241,
      "etiology": 7242,
      "echolalia": 7243,
      "elements": 7244,
      "eurocentric": 7245,
      "elected": 7246,
      "earned": 7247,
      "electoral": 7248,
      "etymology": 7249,
      "earlier": 7250,
      "fertilization": 7251,
      "federally": 7252,
      "fiction": 7253,
      "freely": 7254,
      "folk": 7255,
      "felt": 7256,
      "funding": 7257,
      "fetus": 7258,
      "fighting": 7259,
      "fourth": 7260,
      "geocities": 7261,
      "gmu": 7262,
      "guided": 7263,
      "ghosts": 7264,
      "gorilla": 7265,
      "grew": 7266,
      "germinal": 7267,
      "gender": 7268,
      "hinted": 7269,
      "hurled": 7270,
      "hidden": 7271,
      "happily": 7272,
      "hugs": 7273,
      "hericourt2": 7274,
      "ignore": 7275,
      "joys": 7276,
      "jls": 7277,
      "jlynch": 7278,
      "joyous": 7279,
      "keep": 7280,
      "kanner_kl2": 7281,
      "lumpenpro": 7282,
      "lining": 7283,
      "louder": 7284,
      "lasted": 7285,
      "lighthouses": 7286,
      "lingering": 7287,
      "msn": 7288,
      "mâle": 7289,
      "merely": 7290,
      "mutuell": 7291,
      "melior": 7292,
      "metaphor": 7293,
      "message": 7294,
      "magnitud": 7295,
      "material": 7296,
      "merging": 7297,
      "ns52": 7298,
      "nationalism": 7299,
      "nuclear": 7300,
      "northeastern": 7301,
      "oversensitiv": 7302,
      "odds": 7303,
      "poor": 7304,
      "pdf": 7305,
      "pjtp": 7306,
      "panarchy": 7307,
      "potential": 7308,
      "polarised": 7309,
      "pseudo": 7310,
      "portrayed": 7311,
      "pairs": 7312,
      "panarchists": 7313,
      "ra_for": 7314,
      "rituals": 7315,
      "ramifications": 7316,
      "rival": 7317,
      "rifles": 7318,
      "route": 7319,
      "robot": 7320,
      "rubric": 7321,
      "sixteent": 7322,
      "smile": 7323,
      "satisfaction": 7324,
      "seldom": 7325,
      "socy": 7326,
      "sunshine": 7327,
      "surrounding": 7328,
      "sample": 7329,
      "sigmaf": 7330,
      "seminal": 7331,
      "sectarian": 7332,
      "squatter": 7333,
      "senses": 7334,
      "sallydarity": 7335,
      "tasks": 7336,
      "telling": 7337,
      "taoan": 7338,
      "ultimately": 7339,
      "undermined": 7340,
      "ungodly": 7341,
      "uphold": 7342,
      "vlntry": 7343,
      "vitro": 7344,
      "virginia": 7345,
      "vulnerabilities": 7346,
      "voyages": 7347,
      "vaz1net": 7348,
      "waiting": 7349,
      "wildly": 7350,
      "wiggling": 7351,
      "wiktionarypar2": 7352,
      "zmag": 7353,
      "zetetics": 7354,
      "|*]]": 7355,
      "élitist": 7356,
      "אנרכ": 7357,
      "دولت": 7358,
      "لاسل": 7359,
      "ลัทธิ": 7360,
      "–)]]": 7361,
      "アナキズ": 7362,
      "无政府主": 7363,
      "아나키즘": 7364,
      "##rnleys": 7365,
      "##tatements": 7366,
      "##yncratic": 7367,
      "##sjamie": 7368,
      "##Disorder": 7369,
      "##Issues": 7370,
      "##_revolution": 7371,
      "##_marxism": 7372,
      "##_votar_y_": 7373,
      "##Location": 7374,
      "##طوية": 7375,
      "##‌زدائ": 7376,
      "##อนาธิ": 7377,
      "##ปไตย": 7378,
      "##יזם": 7379,
      "##isstefna": 7380,
      "thriving": 7381,
      "third": 7382,
      "anomie": 7383,
      "anthropologists": 7384,
      "ancestors": 7385,
      "offshoots": 7386,
      "inevitable": 7387,
      "inappropriately": 7388,
      "##ismov2005": 7389,
      "together": 7390,
      "toddler": 7391,
      "##entrionale": 7392,
      "reemerged": 7393,
      "reminiscent": 7394,
      "retaining": 7395,
      "quickest": 7396,
      "Antonio": 7397,
      "convert": 7398,
      "idiosyncratic": 7399,
      "withdrawal": 7400,
      "Therapies": 7401,
      "whm2003": 7402,
      "reformist": 7403,
      "reflecting": 7404,
      "stabalised": 7405,
      "standardized": 7406,
      "stewarthomesoci": 7407,
      "extract": 7408,
      "exemplifies": 7409,
      "alpha": 7410,
      "already": 7411,
      "altogether": 7412,
      "autismnocgraph": 7413,
      "summary": 7414,
      "succeeding": 7415,
      "departments": 7416,
      "depicted": 7417,
      "chief": 7418,
      "sp001689": 7419,
      "spoilt": 7420,
      "contexts": 7421,
      "leaves": 7422,
      "legitimacy": 7423,
      "lewrockwell": 7424,
      "syncretic": 7425,
      "frustration": 7426,
      "pejorative": 7427,
      "indigenous": 7428,
      "indifferent": 7429,
      "attitudes": 7430,
      "arbitration": 7431,
      "abundance": 7432,
      "clumsiness": 7433,
      "climaxed": 7434,
      "incompatible": 7435,
      "incorporated": 7436,
      "entitled": 7437,
      "unexceptional": 7438,
      "unwinding": 7439,
      "unintelligent": 7440,
      "unnecessary": 7441,
      "unknown": 7442,
      "expansion": 7443,
      "experimenal": 7444,
      "disappears": 7445,
      "dissident": 7446,
      "disliked": 7447,
      "somewhat": 7448,
      "interfering": 7449,
      "agricultural": 7450,
      "Characteristics": 7451,
      "Chiapas": 7452,
      "adjectives": 7453,
      "adolescence": 7454,
      "negotiations": 7455,
      "neighborhood": 7456,
      "dilettante": 7457,
      "Strands": 7458,
      "Stephen": 7459,
      "Stjórnleys": 7460,
      "Starhawk": 7461,
      "Stanley": 7462,
      "workplace": 7463,
      "Spencer": 7464,
      "Spectacle": 7465,
      "Spooner": 7466,
      "phenomena": 7467,
      "Autonomist": 7468,
      "Authentic": 7469,
      "belongs": 7470,
      "infobox": 7471,
      "inflexible": 7472,
      "application": 7473,
      "approaches": 7474,
      "shyness": 7475,
      "repetitions": 7476,
      "mechanisms": 7477,
      "African": 7478,
      "improved": 7479,
      "imprisoned": 7480,
      "imperialism": 7481,
      "##ellos_deciden": 7482,
      "consensus": 7483,
      "conservative": 7484,
      "consolidate": 7485,
      "compensate": 7486,
      "compatibility": 7487,
      "compromised": 7488,
      "companionship": 7489,
      "ecrits": 7490,
      "eclectic": 7491,
      "##edia_761568770": 7492,
      "Consequently": 7493,
      "Concerning": 7494,
      "Competiting": 7495,
      "nonfunctional": 7496,
      "separate": 7497,
      "septentrionale": 7498,
      "Bakuninfull": 7499,
      "Manifesto": 7500,
      "libdebates": 7501,
      "prepare": 7502,
      "preventing": 7503,
      "prevalent": 7504,
      "prejudices": 7505,
      "AfghanistanCommunications": 7506,
      "AfghanistanMilitary": 7507,
      "Amérique": 7508,
      "criminality": 7509,
      "plat_preface": 7510,
      "schemaLocation": 7511,
      "schizophrenia": 7512,
      "upsilon": 7513,
      "accommodations": 7514,
      "againstpolitics": 7515,
      "outcasts": 7516,
      "outbursts": 7517,
      "CNT_tu_votar_y_": 7518,
      "underdiagnosed": 7519,
      "underreactivity": 7520,
      "Heinlein": 7521,
      "description": 7522,
      "knowledge": 7523,
      "poststructuralist": 7524,
      "reclassifications": 7525,
      "Neopaganism": 7526,
      "coexist": 7527,
      "regimentation": 7528,
      "subjective": 7529,
      "subheadings": 7530,
      "submovements": 7531,
      "subgroups": 7532,
      "subscribe": 7533,
      "subjugation": 7534,
      "DiseaseDisorder": 7535,
      "Disobedience": 7536,
      "ambiguous": 7537,
      "scientist": 7538,
      "scientific": 7539,
      "observes": 7540,
      "warhealthstate": 7541,
      "##tions_to_marxism": 7542,
      "confronting": 7543,
      "Indymedia": 7544,
      "Reprint": 7545,
      "Replies": 7546,
      "Republican": 7547,
      "Recherce": 7548,
      "litencyc": 7549,
      "literature": 7550,
      "possibly": 7551,
      "possession": 7552,
      "AmericanSamoa": 7553,
      "DejacqueJoseph": 7554,
      "December": 7555,
      "carelessness": 7556,
      "declared": 7557,
      "facilitate": 7558,
      "responsibility": 7559,
      "fascism_or_revolution": 7560,
      "Pierre_Joseph_Proudhon": 7561,
      "Argentina": 7562,
      "Parliamentarianism": 7563,
      "occasionally": 7564,
      "noteworthy": 7565,
      "physiologically": 7566,
      "predecessors": 7567,
      "sympathizers": 7568,
      "clinomorphism": 7569,
      "Newsweek": 7570,
      "Laissez": 7571,
      "handicapped": 7572,
      "instructor": 7573,
      "encarta": 7574,
      "encyclopedia_761568770": 7575,
      "161594": 7576,
      "distracted": 7577,
      "distasteful": 7578,
      "lettreapjp": 7579,
      "discrepancy": 7580,
      "showarticle": 7581,
      "impossibility": 7582,
      "Confédération": 7583,
      "ethics_of_voting": 7584,
      "Noam_chomsky": 7585,
      "WilliamGodwin": 7586,
      "27T03": 7587,
      "Clearinghouse": 7588,
      "McCulloch": 7589,
      "escape": 7590,
      "misinterpret": 7591,
      "neurodevelopmental": 7592,
      "Anarchist_objections_to_marxism": 7593,
      "42136831": 7594,
      "42019020": 7595,
      "CrimethInc": 7596,
      "FeminismTwoStatements": 7597,
      "culottes": 7598,
      "especially": 7599,
      "purposes": 7600,
      "zhistorintpolency": 7601,
      "retrieved": 7602,
      "proclaimed": 7603,
      "proclivities": 7604,
      "Intelligence": 7605,
      "Definitions_of_anarchism": 7606,
      "507787": 7607,
      "Main_Page": 7608,
      "Quotient": 7609,
      "corresponding": 7610,
      "counterparts": 7611,
      "emphasizes": 7612,
      "hist_texts": 7613,
      "mysogyny": 7614,
      "omnipotence": 7615,
      "AfghanistanTransnationalIssues": 7616,
      "unconvinced": 7617,
      "AmoeboidTaxa": 7618,
      "ANARCHISTS": 7619,
      "0684832720": 7620,
      "32899315": 7621,
      "832382": 7622,
      "AxelBoldt": 7623,
      "Copenhagen": 7624,
      "Epistemologie": 7625,
      "Générale": 7626,
      "Girondins": 7627,
      "NOTES": 7628,
      "Nouveaux": 7629,
      "NihAutismov2005": 7630,
      "Ohnoitsjamie": 7631,
      "Polytechnique": 7632,
      "Rosselló": 7633,
      "Ukraine": 7634,
      "Wollstonecraft": 7635,
      "XMLSchema": 7636,
      "apx1pubs": 7637,
      "berry_david": 7638,
      "bureaucratic": 7639,
      "britt1910": 7640,
      "lumpenproletariat": 7641,
      "mutuellisme": 7642,
      "magnitude": 7643,
      "oversensitivity": 7644,
      "ra_forum": 7645,
      "sixteenth": 7646,
      "vlntryst": 7647,
      "אנרכיזם": 7648,
      "دولت‌زدائ": 7649,
      "لاسلطوية": 7650,
      "ลัทธิอนาธิ": 7651,
      "アナキズム": 7652,
      "无政府主义": 7653,
      "stewarthomesociety": 7654,
      "Stjórnleysisstefna": 7655,
      "CNT_tu_votar_y_ellos_deciden": 7656,
      "warhealthstate1918": 7657,
      "دولت‌زدائی": 7658,
      "ลัทธิอนาธิปไตย": 7659
    }
  }
}